
#include "sin_model_512.h"

// We need to keep the data array aligned on some architectures.
#ifdef __has_attribute
#define HAVE_ATTRIBUTE(x) __has_attribute(x)
#else
#define HAVE_ATTRIBUTE(x) 0
#endif
#if HAVE_ATTRIBUTE(aligned) || (defined(__GNUC__) && !defined(__clang__))
#define DATA_ALIGN_ATTRIBUTE __attribute__((aligned(4)))
#else
#define DATA_ALIGN_ATTRIBUTE
#endif
/*
SinModel(
  (model): Sequential(
    (0): Linear(in_features=2, out_features=512, bias=True)
    (1): ReLU()
    (2): Linear(in_features=512, out_features=256, bias=True)
    (3): ReLU()
    (4): Linear(in_features=256, out_features=128, bias=True)
    (5): ReLU()
    (6): Linear(in_features=128, out_features=1, bias=True)
  )
)

Input details:
{
  "name": "serving_default_args_0:0",
  "index": 0,
  "shape": "[1 2]",
  "shape_signature": "[1 2]",
  "dtype": "<class 'numpy.int8'>",
  "quantization": [
    0.024566059932112694,
    -1
  ],
  "quantization_parameters": {
    "scales": "[0.02456606]",
    "zero_points": "[-1]",
    "quantized_dimension": 0
  },
  "sparsity_parameters": {}
}

Output details:
{
  "name": "StatefulPartitionedCall:0",
  "index": 12,
  "shape": "[1 1]",
  "shape_signature": "[1 1]",
  "dtype": "<class 'numpy.int8'>",
  "quantization": [
    0.00793148111552,
    0
  ],
  "quantization_parameters": {
    "scales": "[0.00793148]",
    "zero_points": "[0]",
    "quantized_dimension": 0
  },
  "sparsity_parameters": {}
}
*/

unsigned const char sin_model_512[] DATA_ALIGN_ATTRIBUTE= {
  0x1c, 0x00, 0x00, 0x00, 0x54, 0x46, 0x4c, 0x33, 0x14, 0x00, 0x20, 0x00,
  0x1c, 0x00, 0x18, 0x00, 0x14, 0x00, 0x10, 0x00, 0x0c, 0x00, 0x00, 0x00,
  0x08, 0x00, 0x04, 0x00, 0x14, 0x00, 0x00, 0x00, 0x1c, 0x00, 0x00, 0x00,
  0x90, 0x00, 0x00, 0x00, 0xe8, 0x00, 0x00, 0x00, 0xac, 0x94, 0x02, 0x00,
  0xbc, 0x94, 0x02, 0x00, 0x58, 0x9c, 0x02, 0x00, 0x03, 0x00, 0x00, 0x00,
  0x01, 0x00, 0x00, 0x00, 0x10, 0x00, 0x00, 0x00, 0x00, 0x00, 0x0a, 0x00,
  0x10, 0x00, 0x0c, 0x00, 0x08, 0x00, 0x04, 0x00, 0x0a, 0x00, 0x00, 0x00,
  0x0c, 0x00, 0x00, 0x00, 0x1c, 0x00, 0x00, 0x00, 0x3c, 0x00, 0x00, 0x00,
  0x0f, 0x00, 0x00, 0x00, 0x73, 0x65, 0x72, 0x76, 0x69, 0x6e, 0x67, 0x5f,
  0x64, 0x65, 0x66, 0x61, 0x75, 0x6c, 0x74, 0x00, 0x01, 0x00, 0x00, 0x00,
  0x04, 0x00, 0x00, 0x00, 0x98, 0xff, 0xff, 0xff, 0x0c, 0x00, 0x00, 0x00,
  0x04, 0x00, 0x00, 0x00, 0x0a, 0x00, 0x00, 0x00, 0x69, 0x64, 0x65, 0x6e,
  0x74, 0x69, 0x74, 0x79, 0x5f, 0x35, 0x00, 0x00, 0x01, 0x00, 0x00, 0x00,
  0x04, 0x00, 0x00, 0x00, 0xe6, 0x6b, 0xfd, 0xff, 0x04, 0x00, 0x00, 0x00,
  0x06, 0x00, 0x00, 0x00, 0x61, 0x72, 0x67, 0x73, 0x5f, 0x30, 0x00, 0x00,
  0x02, 0x00, 0x00, 0x00, 0x34, 0x00, 0x00, 0x00, 0x04, 0x00, 0x00, 0x00,
  0xdc, 0xff, 0xff, 0xff, 0x0f, 0x00, 0x00, 0x00, 0x04, 0x00, 0x00, 0x00,
  0x13, 0x00, 0x00, 0x00, 0x43, 0x4f, 0x4e, 0x56, 0x45, 0x52, 0x53, 0x49,
  0x4f, 0x4e, 0x5f, 0x4d, 0x45, 0x54, 0x41, 0x44, 0x41, 0x54, 0x41, 0x00,
  0x08, 0x00, 0x0c, 0x00, 0x08, 0x00, 0x04, 0x00, 0x08, 0x00, 0x00, 0x00,
  0x0e, 0x00, 0x00, 0x00, 0x04, 0x00, 0x00, 0x00, 0x13, 0x00, 0x00, 0x00,
  0x6d, 0x69, 0x6e, 0x5f, 0x72, 0x75, 0x6e, 0x74, 0x69, 0x6d, 0x65, 0x5f,
  0x76, 0x65, 0x72, 0x73, 0x69, 0x6f, 0x6e, 0x00, 0x10, 0x00, 0x00, 0x00,
  0xc0, 0x93, 0x02, 0x00, 0xb8, 0x93, 0x02, 0x00, 0xa4, 0x93, 0x02, 0x00,
  0x0c, 0x93, 0x02, 0x00, 0xfc, 0x90, 0x02, 0x00, 0xec, 0x10, 0x02, 0x00,
  0xdc, 0x0c, 0x02, 0x00, 0xcc, 0x0c, 0x00, 0x00, 0xbc, 0x04, 0x00, 0x00,
  0xac, 0x00, 0x00, 0x00, 0xa4, 0x00, 0x00, 0x00, 0x9c, 0x00, 0x00, 0x00,
  0x94, 0x00, 0x00, 0x00, 0x8c, 0x00, 0x00, 0x00, 0x6c, 0x00, 0x00, 0x00,
  0x04, 0x00, 0x00, 0x00, 0x9a, 0x6c, 0xfd, 0xff, 0x04, 0x00, 0x00, 0x00,
  0x58, 0x00, 0x00, 0x00, 0x0c, 0x00, 0x00, 0x00, 0x08, 0x00, 0x0e, 0x00,
  0x08, 0x00, 0x04, 0x00, 0x08, 0x00, 0x00, 0x00, 0x10, 0x00, 0x00, 0x00,
  0x28, 0x00, 0x00, 0x00, 0x00, 0x00, 0x06, 0x00, 0x08, 0x00, 0x04, 0x00,
  0x06, 0x00, 0x00, 0x00, 0x04, 0x00, 0x00, 0x00, 0x01, 0x00, 0x00, 0x00,
  0xeb, 0x03, 0x00, 0x00, 0x00, 0x00, 0x0a, 0x00, 0x10, 0x00, 0x0c, 0x00,
  0x08, 0x00, 0x04, 0x00, 0x0a, 0x00, 0x00, 0x00, 0x02, 0x00, 0x00, 0x00,
  0x02, 0x00, 0x00, 0x00, 0x04, 0x00, 0x00, 0x00, 0x06, 0x00, 0x00, 0x00,
  0x32, 0x2e, 0x31, 0x35, 0x2e, 0x31, 0x00, 0x00, 0xfe, 0x6c, 0xfd, 0xff,
  0x04, 0x00, 0x00, 0x00, 0x10, 0x00, 0x00, 0x00, 0x31, 0x2e, 0x31, 0x34,
  0x2e, 0x30, 0x00, 0x00, 0x00, 0x00, 0x00, 0x00, 0x00, 0x00, 0x00, 0x00,
  0x84, 0x6c, 0xfd, 0xff, 0x88, 0x6c, 0xfd, 0xff, 0x8c, 0x6c, 0xfd, 0xff,
  0x90, 0x6c, 0xfd, 0xff, 0x2a, 0x6d, 0xfd, 0xff, 0x04, 0x00, 0x00, 0x00,
  0x00, 0x04, 0x00, 0x00, 0x55, 0xd3, 0xe9, 0xcd, 0xe5, 0xb6, 0xfa, 0x10,
  0xb4, 0x0d, 0xf4, 0xc2, 0xde, 0xf9, 0xc6, 0x32, 0xd8, 0xe2, 0x40, 0xcd,
  0x0a, 0x3f, 0x54, 0x67, 0x1b, 0xfb, 0x3d, 0xb0, 0xb9, 0xcc, 0x55, 0x44,
  0xd4, 0xf1, 0x8c, 0xfd, 0xb0, 0xb2, 0xb1, 0xa2, 0xdd, 0x23, 0xe0, 0xf1,
  0x5b, 0x46, 0xc8, 0xb5, 0x20, 0xa1, 0xb5, 0xee, 0xb9, 0x20, 0xcd, 0xc5,
  0x0b, 0xed, 0x6b, 0x46, 0xef, 0xad, 0x00, 0x3d, 0x8d, 0xeb, 0xa8, 0xb7,
  0xfa, 0x9f, 0xf7, 0xe7, 0xbe, 0xfd, 0xe8, 0xb9, 0x2b, 0xd9, 0x45, 0x1c,
  0xb3, 0xef, 0xfd, 0xb5, 0xac, 0xe0, 0x8d, 0xe2, 0x25, 0xd5, 0x11, 0x5d,
  0xf6, 0x42, 0x3c, 0x3f, 0x0e, 0x02, 0xea, 0x54, 0x19, 0xef, 0xfc, 0x35,
  0xb7, 0xeb, 0x40, 0x22, 0x93, 0x6c, 0x5d, 0xf4, 0xec, 0x2e, 0x49, 0xf7,
  0x6b, 0x59, 0xe1, 0x2b, 0x26, 0x30, 0x11, 0x39, 0x55, 0x1a, 0x29, 0x22,
  0xf4, 0xf0, 0x46, 0xf8, 0xfa, 0xe8, 0xbc, 0x00, 0x14, 0x5a, 0xb8, 0xf5,
  0x1d, 0xff, 0x1e, 0x13, 0xbb, 0x08, 0x55, 0xac, 0xe0, 0x48, 0xed, 0xd7,
  0x32, 0xc0, 0x41, 0xed, 0x27, 0xab, 0xc2, 0xa7, 0x9b, 0x63, 0xab, 0x0b,
  0x3e, 0xe1, 0x27, 0xd6, 0xec, 0x13, 0xd2, 0x3b, 0xf4, 0x5a, 0x5d, 0x10,
  0x5c, 0x53, 0xb2, 0x3a, 0x45, 0x3f, 0x20, 0x70, 0x2d, 0xfb, 0x2d, 0xb7,
  0x22, 0x28, 0x9b, 0x43, 0x8b, 0x04, 0x05, 0xd7, 0xd8, 0x26, 0xf2, 0xf2,
  0x2e, 0xc8, 0x16, 0xfc, 0x4e, 0x29, 0x51, 0x4c, 0xdc, 0x9a, 0x20, 0x10,
  0xd9, 0x1e, 0xc2, 0xc5, 0xaf, 0x48, 0xdb, 0xb9, 0xa2, 0x1d, 0x0c, 0xcc,
  0xb1, 0x9f, 0x2f, 0x49, 0x94, 0xf4, 0x01, 0x4e, 0x26, 0x32, 0xa7, 0x1c,
  0x04, 0x01, 0x10, 0xd1, 0x18, 0xcf, 0xd1, 0x2d, 0x54, 0x29, 0x4a, 0x49,
  0xf3, 0x46, 0x27, 0xfa, 0x1b, 0x18, 0x67, 0x1d, 0x38, 0x6a, 0xa1, 0x62,
  0x35, 0x1c, 0x43, 0xb1, 0x12, 0x3a, 0xbb, 0x6b, 0x1e, 0x70, 0xc9, 0xed,
  0x1a, 0x9b, 0xee, 0x49, 0x50, 0xf2, 0xb9, 0xdb, 0x10, 0x51, 0x0e, 0x2b,
  0x5f, 0x2b, 0xa2, 0xf3, 0x61, 0xc8, 0x58, 0x27, 0x58, 0x20, 0x5f, 0x25,
  0x01, 0xd9, 0x05, 0xca, 0x5a, 0xa8, 0xdc, 0xed, 0xa2, 0xab, 0xd8, 0x8f,
  0x2f, 0x2e, 0x01, 0x3a, 0xb8, 0xdc, 0x26, 0x31, 0xf2, 0xf0, 0x38, 0xbe,
  0x4d, 0x03, 0x81, 0xdb, 0x42, 0xe5, 0xf1, 0xf5, 0x3d, 0x03, 0xc7, 0x35,
  0xe6, 0x2d, 0xbf, 0x1e, 0xe6, 0x92, 0xb0, 0xcf, 0x43, 0xc9, 0xdc, 0xb7,
  0xa7, 0x9a, 0xa3, 0x56, 0x4f, 0xac, 0x19, 0xe5, 0x63, 0x68, 0x70, 0x02,
  0x02, 0xa2, 0x26, 0xbb, 0xbd, 0xfa, 0x3f, 0x0c, 0x38, 0x4f, 0x61, 0x4a,
  0x72, 0x20, 0x08, 0xd4, 0x02, 0x99, 0x0e, 0xcb, 0xdb, 0x24, 0x5c, 0xf5,
  0x0c, 0x55, 0xb2, 0xe4, 0x63, 0xed, 0x03, 0xbe, 0x3a, 0xbc, 0xce, 0x83,
  0x42, 0xbe, 0xc9, 0xbe, 0xff, 0x01, 0xf6, 0x61, 0xb1, 0x0c, 0x18, 0xb8,
  0x0c, 0x59, 0xcf, 0x82, 0x22, 0xdd, 0xf4, 0xe0, 0xc9, 0xe1, 0xba, 0x3b,
  0xa1, 0xb2, 0x06, 0x36, 0xae, 0xba, 0x65, 0x20, 0x5d, 0xf6, 0xbc, 0xbb,
  0x53, 0x11, 0x35, 0x99, 0x2e, 0x4a, 0x3f, 0xf2, 0x09, 0xf6, 0x20, 0x76,
  0xea, 0x8b, 0x0f, 0xa0, 0xb1, 0x45, 0x2e, 0xd3, 0x5b, 0x57, 0xec, 0x70,
  0xd5, 0x16, 0x33, 0xed, 0x0b, 0x22, 0x18, 0x09, 0xdc, 0x4e, 0xfd, 0xf4,
  0xc1, 0xc1, 0x58, 0xca, 0x44, 0x38, 0x45, 0xcf, 0xc3, 0x3d, 0x39, 0x5f,
  0xc1, 0xc6, 0x5f, 0x42, 0xa4, 0x01, 0x2d, 0x93, 0xf1, 0xe8, 0x20, 0x23,
  0xc3, 0xd0, 0x3a, 0xda, 0xd3, 0xb9, 0xb4, 0x16, 0xd6, 0x3c, 0xfa, 0xdb,
  0xe6, 0xbc, 0xcf, 0x3a, 0x08, 0x36, 0x01, 0xd3, 0xdc, 0x23, 0xcd, 0xc7,
  0x78, 0xe7, 0xda, 0x35, 0x68, 0x02, 0xac, 0x69, 0x2e, 0x02, 0x01, 0xd6,
  0x3a, 0x21, 0x16, 0x05, 0xec, 0xee, 0xb1, 0x36, 0xf0, 0x18, 0xbe, 0x43,
  0x0a, 0xde, 0x5e, 0xa8, 0x96, 0xa5, 0xf7, 0x1b, 0x64, 0x63, 0xf0, 0xa9,
  0x05, 0xd5, 0x1a, 0x3d, 0x0a, 0x0a, 0x42, 0xf7, 0x43, 0xc6, 0x1a, 0x49,
  0xf7, 0x38, 0x65, 0x9b, 0x09, 0x29, 0xff, 0x6a, 0x3e, 0xa7, 0xdb, 0x22,
  0x5a, 0x50, 0x38, 0xf8, 0xa7, 0xee, 0x35, 0xb9, 0x57, 0xb6, 0x40, 0xb1,
  0xf7, 0x4b, 0x53, 0x71, 0x30, 0xf3, 0x24, 0xdc, 0xa4, 0xf0, 0x08, 0x70,
  0xd6, 0x24, 0xb9, 0x22, 0xbf, 0xfe, 0xe0, 0x2d, 0x65, 0x58, 0xfd, 0x01,
  0x3c, 0xc2, 0x0c, 0x31, 0x04, 0x0c, 0x36, 0xdc, 0x2b, 0x5d, 0x10, 0x4e,
  0xac, 0x2d, 0xf4, 0x48, 0xc8, 0xc5, 0x0d, 0xa2, 0x46, 0x49, 0x24, 0x39,
  0x87, 0xee, 0xdd, 0x58, 0x4a, 0x52, 0x12, 0x53, 0xc6, 0xa9, 0xda, 0x14,
  0x9d, 0x9d, 0x45, 0x19, 0xcd, 0x39, 0x09, 0x65, 0x4c, 0xe3, 0x12, 0xc4,
  0x34, 0xff, 0xf8, 0x2c, 0xa9, 0xdd, 0x6b, 0x1e, 0x49, 0x66, 0x47, 0xe9,
  0x25, 0xf9, 0xfb, 0x06, 0xac, 0x24, 0x1b, 0x63, 0xff, 0xc3, 0x8e, 0xb6,
  0x21, 0x3f, 0x45, 0x38, 0x69, 0x6a, 0xc3, 0x09, 0xd4, 0x2a, 0xb4, 0x0b,
  0x09, 0x41, 0x36, 0xa8, 0x35, 0x05, 0x50, 0xf5, 0xb4, 0x51, 0x3e, 0x5f,
  0x58, 0x9b, 0xe6, 0x5f, 0xf6, 0x37, 0xa2, 0xef, 0x46, 0xb7, 0x9a, 0xcb,
  0xd0, 0x34, 0xd3, 0x2a, 0x5a, 0xe0, 0xb3, 0x44, 0xb2, 0xaf, 0x53, 0xb4,
  0xf1, 0xa5, 0x06, 0x24, 0xc6, 0x1b, 0x01, 0x3f, 0x0e, 0xfe, 0x00, 0x07,
  0xd8, 0xd2, 0x23, 0x2e, 0xd1, 0x32, 0xf0, 0xc1, 0xa9, 0xef, 0x0e, 0x05,
  0x52, 0x4e, 0xfd, 0xdd, 0xe5, 0x94, 0x68, 0xff, 0x59, 0x2d, 0x3d, 0xd2,
  0x23, 0x72, 0xa1, 0x11, 0x98, 0x11, 0x56, 0x08, 0x48, 0xbb, 0xf1, 0xf1,
  0xb5, 0x9f, 0x7a, 0xfe, 0xfe, 0x46, 0x22, 0x42, 0xab, 0x10, 0x96, 0xfb,
  0x00, 0x04, 0x76, 0xd9, 0xaf, 0xaf, 0xfd, 0x21, 0x21, 0xb2, 0x57, 0x10,
  0x3f, 0x4f, 0xed, 0x88, 0x10, 0x4d, 0xef, 0x4f, 0xd4, 0x2e, 0x9e, 0x33,
  0x29, 0xe1, 0xcc, 0x6e, 0xd5, 0xe1, 0x17, 0xe7, 0x2f, 0xc7, 0x49, 0xbf,
  0x09, 0xf3, 0x1b, 0xc4, 0xed, 0xe6, 0xd6, 0x90, 0xa0, 0x2b, 0xdc, 0x9a,
  0x35, 0x01, 0xd3, 0xd6, 0xed, 0x31, 0xe8, 0x47, 0xb1, 0xf1, 0xad, 0x54,
  0x11, 0xa7, 0x70, 0xf1, 0x21, 0xca, 0xee, 0x87, 0xab, 0xaa, 0xed, 0x65,
  0x15, 0xc3, 0xf0, 0x2b, 0x1b, 0x43, 0x97, 0x93, 0x14, 0x97, 0x82, 0xd5,
  0x1f, 0xd7, 0x16, 0x62, 0xdf, 0x89, 0xaf, 0x45, 0x04, 0x0f, 0xd0, 0x3e,
  0xc7, 0x8d, 0xf3, 0x2f, 0xb7, 0xdf, 0x9a, 0xb9, 0x57, 0xe6, 0xa4, 0xea,
  0x5c, 0xa3, 0xc6, 0x36, 0xd1, 0x62, 0xfe, 0xaf, 0x62, 0x2f, 0xbb, 0x46,
  0xbc, 0xec, 0x6a, 0x13, 0x9e, 0xea, 0x00, 0x18, 0xf3, 0xb9, 0x61, 0x29,
  0x1b, 0x18, 0x29, 0xf2, 0x38, 0xfd, 0x03, 0x03, 0xea, 0x15, 0x28, 0x29,
  0x20, 0x00, 0xfb, 0x0f, 0x42, 0xcb, 0xd7, 0x28, 0x1e, 0x1d, 0x68, 0x0d,
  0xb1, 0x56, 0x02, 0xc4, 0x47, 0x4c, 0x56, 0x5f, 0x20, 0x1c, 0x0d, 0x97,
  0xd1, 0xd2, 0xb5, 0x36, 0xb5, 0x52, 0xac, 0x66, 0xce, 0x4f, 0xe9, 0x53,
  0x57, 0xa8, 0xec, 0xee, 0xb4, 0x4e, 0x12, 0xe7, 0xee, 0xff, 0xac, 0xaa,
  0xa4, 0x02, 0x00, 0x42, 0x63, 0x97, 0xed, 0x61, 0xed, 0xcf, 0xdd, 0xe8,
  0xc6, 0xf5, 0xba, 0xc2, 0x07, 0xc2, 0x4c, 0xe9, 0xea, 0xda, 0xde, 0x69,
  0x03, 0x8b, 0x9a, 0x12, 0xd5, 0x47, 0x1e, 0x1c, 0x3e, 0xef, 0x24, 0xff,
  0xb4, 0x9b, 0x23, 0x01, 0xcf, 0x96, 0xa9, 0xac, 0x36, 0x71, 0xfd, 0xff,
  0x04, 0x00, 0x00, 0x00, 0x00, 0x08, 0x00, 0x00, 0xee, 0x03, 0x00, 0x00,
  0xbd, 0xef, 0xff, 0xff, 0x84, 0x04, 0x00, 0x00, 0x19, 0x06, 0x00, 0x00,
  0xbf, 0x08, 0x00, 0x00, 0xad, 0x09, 0x00, 0x00, 0x1d, 0xfe, 0xff, 0xff,
  0x16, 0x15, 0x00, 0x00, 0x7c, 0xfd, 0xff, 0xff, 0x68, 0x07, 0x00, 0x00,
  0xba, 0x09, 0x00, 0x00, 0xde, 0xea, 0xff, 0xff, 0x16, 0x12, 0x00, 0x00,
  0x3b, 0x09, 0x00, 0x00, 0x3d, 0x0e, 0x00, 0x00, 0x8e, 0x0d, 0x00, 0x00,
  0x22, 0x02, 0x00, 0x00, 0x1f, 0xf1, 0xff, 0xff, 0xa2, 0xf2, 0xff, 0xff,
  0xad, 0xee, 0xff, 0xff, 0x7c, 0x0b, 0x00, 0x00, 0x7d, 0x0b, 0x00, 0x00,
  0x59, 0xf6, 0xff, 0xff, 0xe7, 0x13, 0x00, 0x00, 0x91, 0xf1, 0xff, 0xff,
  0xd8, 0xf8, 0xff, 0xff, 0xdd, 0x13, 0x00, 0x00, 0x71, 0x07, 0x00, 0x00,
  0x44, 0x11, 0x00, 0x00, 0x88, 0xf2, 0xff, 0xff, 0x2c, 0x0c, 0x00, 0x00,
  0x49, 0x01, 0x00, 0x00, 0xfa, 0xf7, 0xff, 0xff, 0x61, 0x0c, 0x00, 0x00,
  0xcb, 0xef, 0xff, 0xff, 0xa2, 0x13, 0x00, 0x00, 0x31, 0x06, 0x00, 0x00,
  0x26, 0xf2, 0xff, 0xff, 0x8a, 0xf1, 0xff, 0xff, 0xcc, 0xfa, 0xff, 0xff,
  0x76, 0xfa, 0xff, 0xff, 0x1b, 0x06, 0x00, 0x00, 0x43, 0x02, 0x00, 0x00,
  0x2f, 0xf1, 0xff, 0xff, 0xd6, 0xeb, 0xff, 0xff, 0xa7, 0x0d, 0x00, 0x00,
  0x62, 0xf2, 0xff, 0xff, 0xb6, 0xeb, 0xff, 0xff, 0xfa, 0x01, 0x00, 0x00,
  0x50, 0xf4, 0xff, 0xff, 0xfa, 0x07, 0x00, 0x00, 0x8d, 0xf4, 0xff, 0xff,
  0xc3, 0xec, 0xff, 0xff, 0x55, 0x13, 0x00, 0x00, 0xb8, 0x00, 0x00, 0x00,
  0x18, 0x00, 0x00, 0x00, 0xaa, 0x02, 0x00, 0x00, 0x23, 0xf2, 0xff, 0xff,
  0x31, 0x07, 0x00, 0x00, 0x03, 0xed, 0xff, 0xff, 0x14, 0x08, 0x00, 0x00,
  0xca, 0x0b, 0x00, 0x00, 0x01, 0xeb, 0xff, 0xff, 0xc5, 0xf2, 0xff, 0xff,
  0x28, 0x10, 0x00, 0x00, 0x9a, 0xee, 0xff, 0xff, 0xa2, 0x0a, 0x00, 0x00,
  0xc8, 0x11, 0x00, 0x00, 0x04, 0xfa, 0xff, 0xff, 0x34, 0x09, 0x00, 0x00,
  0x4d, 0x02, 0x00, 0x00, 0x62, 0x0c, 0x00, 0x00, 0x1e, 0xf1, 0xff, 0xff,
  0xdf, 0x0b, 0x00, 0x00, 0xa6, 0xee, 0xff, 0xff, 0x0a, 0xfe, 0xff, 0xff,
  0xba, 0x10, 0x00, 0x00, 0x4c, 0x01, 0x00, 0x00, 0xa8, 0xf1, 0xff, 0xff,
  0x91, 0xf1, 0xff, 0xff, 0x62, 0xf4, 0xff, 0xff, 0xdd, 0xfe, 0xff, 0xff,
  0x63, 0x12, 0x00, 0x00, 0xf8, 0xf4, 0xff, 0xff, 0xb0, 0xf8, 0xff, 0xff,
  0xfd, 0x0f, 0x00, 0x00, 0xb9, 0xed, 0xff, 0xff, 0x9c, 0xfa, 0xff, 0xff,
  0x57, 0xe9, 0xff, 0xff, 0xe8, 0xe8, 0xff, 0xff, 0x5d, 0xec, 0xff, 0xff,
  0xa4, 0xf3, 0xff, 0xff, 0xad, 0xf6, 0xff, 0xff, 0x01, 0xe9, 0xff, 0xff,
  0xd9, 0xf3, 0xff, 0xff, 0x50, 0x07, 0x00, 0x00, 0x8c, 0xf6, 0xff, 0xff,
  0xdb, 0xfc, 0xff, 0xff, 0x01, 0xf4, 0xff, 0xff, 0x82, 0xfe, 0xff, 0xff,
  0xcd, 0x05, 0x00, 0x00, 0xdf, 0x14, 0x00, 0x00, 0x0f, 0xfc, 0xff, 0xff,
  0x36, 0x10, 0x00, 0x00, 0xfb, 0x01, 0x00, 0x00, 0x68, 0xf9, 0xff, 0xff,
  0x50, 0x05, 0x00, 0x00, 0x04, 0xf6, 0xff, 0xff, 0x9d, 0xf7, 0xff, 0xff,
  0x24, 0xf6, 0xff, 0xff, 0xdd, 0x05, 0x00, 0x00, 0xb9, 0xef, 0xff, 0xff,
  0xc3, 0x03, 0x00, 0x00, 0xa2, 0xf6, 0xff, 0xff, 0xb6, 0xf4, 0xff, 0xff,
  0xc3, 0x05, 0x00, 0x00, 0xd5, 0xe9, 0xff, 0xff, 0xf9, 0x12, 0x00, 0x00,
  0x00, 0xfe, 0xff, 0xff, 0xd0, 0x12, 0x00, 0x00, 0x03, 0x0d, 0x00, 0x00,
  0x61, 0x08, 0x00, 0x00, 0x49, 0xf4, 0xff, 0xff, 0xff, 0xe8, 0xff, 0xff,
  0x91, 0xfe, 0xff, 0xff, 0xe9, 0xf2, 0xff, 0xff, 0x56, 0x03, 0x00, 0x00,
  0x48, 0xf8, 0xff, 0xff, 0x4f, 0xfa, 0xff, 0xff, 0xc3, 0x0b, 0x00, 0x00,
  0xe7, 0x0e, 0x00, 0x00, 0x09, 0x07, 0x00, 0x00, 0x7f, 0xf8, 0xff, 0xff,
  0x92, 0xf0, 0xff, 0xff, 0x76, 0xf1, 0xff, 0xff, 0x86, 0x0c, 0x00, 0x00,
  0x3d, 0xf9, 0xff, 0xff, 0x9c, 0x0d, 0x00, 0x00, 0x05, 0xed, 0xff, 0xff,
  0xc6, 0xfb, 0xff, 0xff, 0x20, 0xf7, 0xff, 0xff, 0xcf, 0x09, 0x00, 0x00,
  0xeb, 0x08, 0x00, 0x00, 0xd9, 0xec, 0xff, 0xff, 0x51, 0xf8, 0xff, 0xff,
  0x49, 0xfc, 0xff, 0xff, 0xf1, 0x12, 0x00, 0x00, 0x02, 0xfa, 0xff, 0xff,
  0x73, 0x16, 0x00, 0x00, 0x1e, 0xf2, 0xff, 0xff, 0xfe, 0x0f, 0x00, 0x00,
  0xa3, 0x0f, 0x00, 0x00, 0xac, 0xfc, 0xff, 0xff, 0x64, 0xed, 0xff, 0xff,
  0x66, 0xfe, 0xff, 0xff, 0xc7, 0xf7, 0xff, 0xff, 0x3f, 0xf5, 0xff, 0xff,
  0xb0, 0xec, 0xff, 0xff, 0xa5, 0x11, 0x00, 0x00, 0xf3, 0xfb, 0xff, 0xff,
  0x27, 0x12, 0x00, 0x00, 0x05, 0xf0, 0xff, 0xff, 0x53, 0xfe, 0xff, 0xff,
  0x09, 0x10, 0x00, 0x00, 0x59, 0x12, 0x00, 0x00, 0x83, 0xeb, 0xff, 0xff,
  0x1d, 0xf8, 0xff, 0xff, 0xc8, 0x13, 0x00, 0x00, 0xd4, 0x11, 0x00, 0x00,
  0x12, 0x01, 0x00, 0x00, 0x03, 0xe8, 0xff, 0xff, 0xad, 0x16, 0x00, 0x00,
  0x9c, 0x0b, 0x00, 0x00, 0x3b, 0xf6, 0xff, 0xff, 0x60, 0xfc, 0xff, 0xff,
  0xc6, 0x00, 0x00, 0x00, 0x6c, 0x0b, 0x00, 0x00, 0x28, 0xf2, 0xff, 0xff,
  0xd8, 0x04, 0x00, 0x00, 0xfd, 0xfb, 0xff, 0xff, 0x5e, 0xf2, 0xff, 0xff,
  0xe6, 0xfe, 0xff, 0xff, 0xc6, 0xeb, 0xff, 0xff, 0x99, 0x0d, 0x00, 0x00,
  0xe4, 0xf2, 0xff, 0xff, 0x82, 0xf5, 0xff, 0xff, 0x3c, 0x05, 0x00, 0x00,
  0x68, 0xf1, 0xff, 0xff, 0x3b, 0x0d, 0x00, 0x00, 0x90, 0xec, 0xff, 0xff,
  0x49, 0x0d, 0x00, 0x00, 0xde, 0xee, 0xff, 0xff, 0x9d, 0xfb, 0xff, 0xff,
  0x1a, 0x01, 0x00, 0x00, 0x89, 0xf7, 0xff, 0xff, 0x3e, 0xe9, 0xff, 0xff,
  0xfb, 0x0c, 0x00, 0x00, 0x09, 0xee, 0xff, 0xff, 0xba, 0xfe, 0xff, 0xff,
  0xc7, 0xee, 0xff, 0xff, 0x3f, 0x0c, 0x00, 0x00, 0x59, 0xea, 0xff, 0xff,
  0x96, 0xef, 0xff, 0xff, 0x16, 0xeb, 0xff, 0xff, 0x19, 0xf5, 0xff, 0xff,
  0xda, 0x0c, 0x00, 0x00, 0xd6, 0x0f, 0x00, 0x00, 0x1b, 0x06, 0x00, 0x00,
  0xe3, 0x0b, 0x00, 0x00, 0x51, 0xf5, 0xff, 0xff, 0x32, 0xef, 0xff, 0xff,
  0x9a, 0xff, 0xff, 0xff, 0x58, 0xf0, 0xff, 0xff, 0x38, 0xf4, 0xff, 0xff,
  0x1f, 0xfe, 0xff, 0xff, 0xe9, 0xee, 0xff, 0xff, 0x1b, 0x13, 0x00, 0x00,
  0xde, 0x0b, 0x00, 0x00, 0x7f, 0x0b, 0x00, 0x00, 0xd5, 0xf0, 0xff, 0xff,
  0x03, 0xee, 0xff, 0xff, 0x10, 0x0b, 0x00, 0x00, 0x50, 0x04, 0x00, 0x00,
  0x12, 0xea, 0xff, 0xff, 0x98, 0xf0, 0xff, 0xff, 0x7a, 0xfa, 0xff, 0xff,
  0x4a, 0xf7, 0xff, 0xff, 0xc5, 0x0c, 0x00, 0x00, 0xf2, 0x0e, 0x00, 0x00,
  0x97, 0x16, 0x00, 0x00, 0x85, 0x0c, 0x00, 0x00, 0x79, 0xf6, 0xff, 0xff,
  0xe1, 0x01, 0x00, 0x00, 0x1c, 0xf2, 0xff, 0xff, 0xd6, 0x10, 0x00, 0x00,
  0x8d, 0x14, 0x00, 0x00, 0xc5, 0x09, 0x00, 0x00, 0x2e, 0xf7, 0xff, 0xff,
  0x3b, 0x04, 0x00, 0x00, 0x57, 0x12, 0x00, 0x00, 0x24, 0xf2, 0xff, 0xff,
  0x3f, 0xed, 0xff, 0xff, 0x01, 0x16, 0x00, 0x00, 0xff, 0xfd, 0xff, 0xff,
  0x94, 0x0a, 0x00, 0x00, 0x92, 0x0c, 0x00, 0x00, 0x55, 0x15, 0x00, 0x00,
  0xf2, 0x0c, 0x00, 0x00, 0xb7, 0x02, 0x00, 0x00, 0x4c, 0xfd, 0xff, 0xff,
  0x86, 0xfb, 0xff, 0xff, 0xec, 0x0f, 0x00, 0x00, 0x4e, 0x07, 0x00, 0x00,
  0xd2, 0x19, 0x00, 0x00, 0xc7, 0xf3, 0xff, 0xff, 0x63, 0x07, 0x00, 0x00,
  0x48, 0xeb, 0xff, 0xff, 0xac, 0xed, 0xff, 0xff, 0xce, 0xf2, 0xff, 0xff,
  0x60, 0x0d, 0x00, 0x00, 0x56, 0x19, 0x00, 0x00, 0x78, 0x17, 0x00, 0x00,
  0xfc, 0x13, 0x00, 0x00, 0xdf, 0x0f, 0x00, 0x00, 0x46, 0xf7, 0xff, 0xff,
  0x0c, 0x0d, 0x00, 0x00, 0x6c, 0xf4, 0xff, 0xff, 0x12, 0xf3, 0xff, 0xff,
  0xf6, 0x17, 0x00, 0x00, 0xb4, 0xfb, 0xff, 0xff, 0x16, 0xfc, 0xff, 0xff,
  0x36, 0xed, 0xff, 0xff, 0xbc, 0x10, 0x00, 0x00, 0xfb, 0xf9, 0xff, 0xff,
  0x18, 0xf7, 0xff, 0xff, 0xbc, 0x00, 0x00, 0x00, 0xc2, 0xf9, 0xff, 0xff,
  0x1e, 0xf2, 0xff, 0xff, 0x61, 0x06, 0x00, 0x00, 0xe5, 0x10, 0x00, 0x00,
  0x09, 0xf2, 0xff, 0xff, 0xe5, 0xe9, 0xff, 0xff, 0x99, 0x12, 0x00, 0x00,
  0x20, 0xf5, 0xff, 0xff, 0x85, 0x00, 0x00, 0x00, 0x3d, 0x07, 0x00, 0x00,
  0x01, 0x07, 0x00, 0x00, 0x79, 0xf5, 0xff, 0xff, 0x13, 0x0f, 0x00, 0x00,
  0x41, 0x00, 0x00, 0x00, 0x28, 0xe9, 0xff, 0xff, 0x9e, 0x13, 0x00, 0x00,
  0x0f, 0xf1, 0xff, 0xff, 0xec, 0xe8, 0xff, 0xff, 0xbf, 0xf2, 0xff, 0xff,
  0x55, 0x0d, 0x00, 0x00, 0x97, 0x0d, 0x00, 0x00, 0x3f, 0xf3, 0xff, 0xff,
  0x7f, 0xfd, 0xff, 0xff, 0x00, 0xf0, 0xff, 0xff, 0x96, 0x02, 0x00, 0x00,
  0xff, 0x11, 0x00, 0x00, 0x31, 0xff, 0xff, 0xff, 0x8c, 0x16, 0x00, 0x00,
  0xca, 0xee, 0xff, 0xff, 0xe2, 0x0b, 0x00, 0x00, 0xac, 0x09, 0x00, 0x00,
  0xfd, 0x0a, 0x00, 0x00, 0xd0, 0xff, 0xff, 0xff, 0xfb, 0xf4, 0xff, 0xff,
  0x80, 0xf3, 0xff, 0xff, 0x00, 0xef, 0xff, 0xff, 0x7a, 0x06, 0x00, 0x00,
  0x2a, 0x0e, 0x00, 0x00, 0x97, 0xec, 0xff, 0xff, 0xbc, 0x04, 0x00, 0x00,
  0xc6, 0xeb, 0xff, 0xff, 0x04, 0xf3, 0xff, 0xff, 0xaa, 0xf3, 0xff, 0xff,
  0x11, 0x0c, 0x00, 0x00, 0x3b, 0x03, 0x00, 0x00, 0x67, 0xf7, 0xff, 0xff,
  0x2e, 0x0f, 0x00, 0x00, 0xb7, 0x03, 0x00, 0x00, 0x35, 0xf1, 0xff, 0xff,
  0x60, 0xf6, 0xff, 0xff, 0xbe, 0xf1, 0xff, 0xff, 0x2d, 0xf2, 0xff, 0xff,
  0x0b, 0xf3, 0xff, 0xff, 0x7b, 0x14, 0x00, 0x00, 0xc4, 0x00, 0x00, 0x00,
  0xad, 0xf3, 0xff, 0xff, 0x5e, 0x11, 0x00, 0x00, 0x3e, 0x0a, 0x00, 0x00,
  0x75, 0xf2, 0xff, 0xff, 0xe2, 0x08, 0x00, 0x00, 0x99, 0xed, 0xff, 0xff,
  0x38, 0xf5, 0xff, 0xff, 0xd9, 0x05, 0x00, 0x00, 0x4b, 0xec, 0xff, 0xff,
  0x5d, 0x13, 0x00, 0x00, 0xfb, 0xeb, 0xff, 0xff, 0x91, 0x01, 0x00, 0x00,
  0x27, 0xfd, 0xff, 0xff, 0xf8, 0xf4, 0xff, 0xff, 0x40, 0x0b, 0x00, 0x00,
  0xb3, 0x06, 0x00, 0x00, 0x2a, 0x12, 0x00, 0x00, 0x04, 0xf5, 0xff, 0xff,
  0xbb, 0xec, 0xff, 0xff, 0x14, 0x11, 0x00, 0x00, 0xa4, 0xf0, 0xff, 0xff,
  0xc0, 0xf6, 0xff, 0xff, 0x98, 0xf4, 0xff, 0xff, 0x07, 0xff, 0xff, 0xff,
  0x28, 0x0d, 0x00, 0x00, 0xb3, 0xf2, 0xff, 0xff, 0x93, 0xf8, 0xff, 0xff,
  0x13, 0x09, 0x00, 0x00, 0x4e, 0xeb, 0xff, 0xff, 0xd7, 0x06, 0x00, 0x00,
  0xe8, 0x0c, 0x00, 0x00, 0xcc, 0xea, 0xff, 0xff, 0x63, 0x05, 0x00, 0x00,
  0x41, 0xfa, 0xff, 0xff, 0x3b, 0x06, 0x00, 0x00, 0x3c, 0x05, 0x00, 0x00,
  0x0c, 0x04, 0x00, 0x00, 0xd4, 0x09, 0x00, 0x00, 0x6a, 0xfb, 0xff, 0xff,
  0x40, 0x0b, 0x00, 0x00, 0xd4, 0xec, 0xff, 0xff, 0xf6, 0x02, 0x00, 0x00,
  0x8a, 0xf8, 0xff, 0xff, 0x3a, 0x11, 0x00, 0x00, 0xe6, 0xfa, 0xff, 0xff,
  0x20, 0xeb, 0xff, 0xff, 0x14, 0xf9, 0xff, 0xff, 0xb3, 0xf2, 0xff, 0xff,
  0xb3, 0xf5, 0xff, 0xff, 0x28, 0x05, 0x00, 0x00, 0x26, 0xfc, 0xff, 0xff,
  0x4e, 0xf5, 0xff, 0xff, 0xed, 0x00, 0x00, 0x00, 0xc4, 0x11, 0x00, 0x00,
  0x90, 0xec, 0xff, 0xff, 0x30, 0x0c, 0x00, 0x00, 0x47, 0x00, 0x00, 0x00,
  0xe3, 0x14, 0x00, 0x00, 0xf1, 0xee, 0xff, 0xff, 0xa2, 0xf7, 0xff, 0xff,
  0x73, 0xfd, 0xff, 0xff, 0xef, 0xed, 0xff, 0xff, 0x1a, 0x03, 0x00, 0x00,
  0xf4, 0x13, 0x00, 0x00, 0x28, 0xf1, 0xff, 0xff, 0xd8, 0x01, 0x00, 0x00,
  0xdb, 0xf8, 0xff, 0xff, 0xce, 0xf2, 0xff, 0xff, 0x16, 0x0e, 0x00, 0x00,
  0xf0, 0xff, 0xff, 0xff, 0x6f, 0xfb, 0xff, 0xff, 0x11, 0x0d, 0x00, 0x00,
  0xfc, 0x08, 0x00, 0x00, 0xc6, 0xfe, 0xff, 0xff, 0x39, 0xfa, 0xff, 0xff,
  0x91, 0xed, 0xff, 0xff, 0xf5, 0xea, 0xff, 0xff, 0x03, 0x09, 0x00, 0x00,
  0xdc, 0xee, 0xff, 0xff, 0x96, 0xe9, 0xff, 0xff, 0x24, 0xed, 0xff, 0xff,
  0xee, 0xee, 0xff, 0xff, 0x7a, 0x11, 0x00, 0x00, 0x72, 0x05, 0x00, 0x00,
  0x6f, 0xf6, 0xff, 0xff, 0x2c, 0xed, 0xff, 0xff, 0x12, 0xf8, 0xff, 0xff,
  0xeb, 0xf2, 0xff, 0xff, 0xae, 0xff, 0xff, 0xff, 0x11, 0x00, 0x00, 0x00,
  0xec, 0x10, 0x00, 0x00, 0x26, 0x0c, 0x00, 0x00, 0x6e, 0x10, 0x00, 0x00,
  0x27, 0xfd, 0xff, 0xff, 0xcf, 0xed, 0xff, 0xff, 0x3d, 0x13, 0x00, 0x00,
  0xa9, 0xea, 0xff, 0xff, 0x32, 0x0e, 0x00, 0x00, 0xb5, 0xf9, 0xff, 0xff,
  0x7c, 0x0b, 0x00, 0x00, 0x5f, 0x11, 0x00, 0x00, 0x39, 0x02, 0x00, 0x00,
  0xd8, 0xfc, 0xff, 0xff, 0x59, 0xfb, 0xff, 0xff, 0x28, 0xf1, 0xff, 0xff,
  0xbd, 0xf7, 0xff, 0xff, 0x17, 0xf2, 0xff, 0xff, 0xcf, 0xf2, 0xff, 0xff,
  0x04, 0x07, 0x00, 0x00, 0xc7, 0x0b, 0x00, 0x00, 0x8e, 0x08, 0x00, 0x00,
  0x91, 0xe9, 0xff, 0xff, 0x4d, 0xf8, 0xff, 0xff, 0xf2, 0x01, 0x00, 0x00,
  0x74, 0xee, 0xff, 0xff, 0x31, 0xf4, 0xff, 0xff, 0x9d, 0xf8, 0xff, 0xff,
  0xb6, 0x00, 0x00, 0x00, 0x24, 0xf0, 0xff, 0xff, 0x69, 0xeb, 0xff, 0xff,
  0x2b, 0xf5, 0xff, 0xff, 0x9b, 0xfd, 0xff, 0xff, 0x10, 0x00, 0x00, 0x00,
  0xbc, 0xf7, 0xff, 0xff, 0xdb, 0x10, 0x00, 0x00, 0xa5, 0xf3, 0xff, 0xff,
  0xb0, 0x0f, 0x00, 0x00, 0x00, 0x0b, 0x00, 0x00, 0xb3, 0xf7, 0xff, 0xff,
  0x8a, 0xf3, 0xff, 0xff, 0x7c, 0x09, 0x00, 0x00, 0x8c, 0x14, 0x00, 0x00,
  0x3a, 0xfa, 0xff, 0xff, 0x3b, 0x10, 0x00, 0x00, 0x41, 0x02, 0x00, 0x00,
  0xd9, 0xf7, 0xff, 0xff, 0xaf, 0x05, 0x00, 0x00, 0xcb, 0x00, 0x00, 0x00,
  0xc1, 0xf2, 0xff, 0xff, 0xd4, 0xf1, 0xff, 0xff, 0x2d, 0xec, 0xff, 0xff,
  0x74, 0x04, 0x00, 0x00, 0x12, 0x06, 0x00, 0x00, 0xdb, 0x04, 0x00, 0x00,
  0xf6, 0x05, 0x00, 0x00, 0xd1, 0xf3, 0xff, 0xff, 0x79, 0xeb, 0xff, 0xff,
  0xc2, 0xef, 0xff, 0xff, 0x16, 0x0b, 0x00, 0x00, 0x46, 0xf8, 0xff, 0xff,
  0x3f, 0x12, 0x00, 0x00, 0x7a, 0xf6, 0xff, 0xff, 0x6d, 0xf4, 0xff, 0xff,
  0x1c, 0xf1, 0xff, 0xff, 0x89, 0x07, 0x00, 0x00, 0x6e, 0xed, 0xff, 0xff,
  0xdb, 0x16, 0x00, 0x00, 0x23, 0x00, 0x00, 0x00, 0x97, 0x06, 0x00, 0x00,
  0x29, 0x09, 0x00, 0x00, 0x22, 0x02, 0x00, 0x00, 0x43, 0x04, 0x00, 0x00,
  0x0e, 0xfd, 0xff, 0xff, 0x5c, 0x02, 0x00, 0x00, 0x9d, 0x10, 0x00, 0x00,
  0x2b, 0xf7, 0xff, 0xff, 0x84, 0x08, 0x00, 0x00, 0x94, 0xf1, 0xff, 0xff,
  0xde, 0xf8, 0xff, 0xff, 0x4b, 0xf0, 0xff, 0xff, 0x1d, 0xf5, 0xff, 0xff,
  0x33, 0xf4, 0xff, 0xff, 0x18, 0xec, 0xff, 0xff, 0x79, 0xf4, 0xff, 0xff,
  0x5a, 0xf5, 0xff, 0xff, 0xaf, 0xff, 0xff, 0xff, 0x29, 0x14, 0x00, 0x00,
  0x8e, 0xeb, 0xff, 0xff, 0x21, 0x03, 0x00, 0x00, 0x3c, 0xff, 0xff, 0xff,
  0x17, 0x02, 0x00, 0x00, 0x42, 0x79, 0xfd, 0xff, 0x04, 0x00, 0x00, 0x00,
  0x00, 0x00, 0x02, 0x00, 0xfd, 0xff, 0xfd, 0xfd, 0x00, 0x03, 0xfb, 0x02,
  0x02, 0x01, 0x01, 0xfd, 0xfd, 0xff, 0xfe, 0x00, 0xfe, 0x01, 0xfe, 0x02,
  0xfd, 0xff, 0xfc, 0x02, 0x00, 0x01, 0x02, 0x02, 0x00, 0x00, 0x00, 0x01,
  0x03, 0x01, 0x01, 0xff, 0x03, 0x03, 0x00, 0x01, 0xfc, 0x01, 0xff, 0x03,
  0x01, 0x02, 0x01, 0x02, 0xff, 0xfc, 0x01, 0x02, 0x04, 0xff, 0x01, 0xfc,
  0xff, 0x03, 0x01, 0x01, 0xfe, 0x03, 0xff, 0xfc, 0x03, 0x01, 0x02, 0xfc,
  0xff, 0xfb, 0x01, 0x01, 0x00, 0xfe, 0xfc, 0x00, 0xff, 0xff, 0x01, 0x01,
  0x03, 0x02, 0xff, 0x00, 0xfe, 0xfd, 0x03, 0xfc, 0x01, 0x03, 0x02, 0x02,
  0x04, 0x04, 0xfe, 0xfc, 0x04, 0x03, 0xfc, 0xfb, 0xfb, 0xff, 0x01, 0xfd,
  0x02, 0x01, 0xfd, 0xfc, 0xfe, 0xfe, 0xfd, 0xff, 0xff, 0x02, 0x01, 0xfd,
  0xff, 0x02, 0xff, 0x00, 0x02, 0xfe, 0x00, 0x00, 0xff, 0xfb, 0xfd, 0xfc,
  0x02, 0xfe, 0xfc, 0xfe, 0xfc, 0x03, 0x03, 0xfb, 0xfe, 0xfe, 0x03, 0xfd,
  0xfd, 0x02, 0x00, 0xfe, 0x03, 0x02, 0x02, 0x00, 0xfb, 0xfe, 0x01, 0xfc,
  0x01, 0xff, 0xff, 0xfc, 0x01, 0xfd, 0xfc, 0xfe, 0x00, 0x00, 0xff, 0xfd,
  0xfc, 0xfd, 0xfb, 0x01, 0x03, 0x03, 0xfc, 0x00, 0xfd, 0x04, 0xfe, 0xfe,
  0x00, 0x02, 0x01, 0xff, 0xfc, 0xfc, 0xff, 0xfc, 0x01, 0x04, 0x03, 0xff,
  0xff, 0xfc, 0xfe, 0x01, 0xfc, 0xfd, 0x01, 0x01, 0xff, 0x04, 0x03, 0xfd,
  0x03, 0x01, 0x03, 0x00, 0x02, 0xff, 0x00, 0x00, 0xfd, 0x00, 0xff, 0x01,
  0xfd, 0xfe, 0x02, 0x03, 0xfd, 0xfc, 0xfc, 0x03, 0x02, 0xfd, 0x00, 0x04,
  0x03, 0x02, 0x00, 0xfe, 0x02, 0xff, 0xfc, 0x00, 0xfd, 0x03, 0xfc, 0x03,
  0xfc, 0xfd, 0x02, 0xfb, 0x00, 0x01, 0xff, 0x00, 0xff, 0xfe, 0x00, 0x00,
  0xfb, 0xfe, 0x02, 0xfe, 0xfd, 0x01, 0xfe, 0x01, 0xfd, 0xfd, 0x00, 0xfc,
  0xfe, 0xfc, 0xfe, 0xfd, 0x02, 0x02, 0xfe, 0x01, 0xfc, 0xfe, 0xfe, 0xff,
  0x03, 0x05, 0x04, 0x03, 0xff, 0xfd, 0x00, 0x02, 0x03, 0x03, 0xfe, 0x01,
  0x01, 0x03, 0xfb, 0xfd, 0xfb, 0xff, 0x02, 0x01, 0xfb, 0xfd, 0x01, 0xfc,
  0xff, 0xfd, 0xfd, 0x03, 0x04, 0x03, 0xfd, 0x02, 0xfe, 0xff, 0xfd, 0x02,
  0xff, 0x03, 0x00, 0x00, 0xfc, 0xfc, 0x01, 0xfd, 0xfd, 0x01, 0x01, 0x02,
  0x03, 0xfb, 0xfd, 0xff, 0x03, 0xff, 0xfb, 0xfc, 0xfe, 0x03, 0xfe, 0x01,
  0x03, 0x02, 0x00, 0x03, 0x03, 0x03, 0xfe, 0x04, 0xfd, 0x03, 0xfd, 0xfe,
  0xfd, 0xff, 0xfd, 0xfd, 0xfc, 0x01, 0x00, 0xfe, 0xfb, 0x03, 0xff, 0x03,
  0x00, 0xfd, 0x01, 0x02, 0xff, 0xfc, 0x00, 0x01, 0x02, 0x03, 0xfc, 0xfe,
  0xff, 0xfd, 0xfb, 0xfc, 0x00, 0x00, 0x00, 0x03, 0x01, 0x03, 0x04, 0x00,
  0xfe, 0x03, 0x02, 0xfd, 0x00, 0x02, 0x02, 0x01, 0xfe, 0x00, 0xfc, 0xfc,
  0xfc, 0xff, 0x00, 0x02, 0x03, 0x03, 0xfd, 0xfe, 0x03, 0xff, 0x02, 0xfc,
  0x00, 0xfe, 0xfe, 0x03, 0xfd, 0xff, 0xfc, 0x03, 0xff, 0x01, 0xff, 0x00,
  0x00, 0x05, 0x01, 0x02, 0x01, 0x01, 0xfc, 0x01, 0xfc, 0xff, 0x02, 0xff,
  0xfb, 0x01, 0x03, 0x02, 0x03, 0x04, 0x01, 0x03, 0x02, 0x03, 0x02, 0xff,
  0xff, 0xfd, 0x04, 0xfc, 0xfe, 0xfd, 0xfe, 0xfc, 0x01, 0xfb, 0x03, 0x01,
  0xfd, 0xfc, 0x00, 0xfc, 0xff, 0xff, 0xff, 0x00, 0xfe, 0x03, 0x03, 0x02,
  0x00, 0xff, 0xfc, 0x00, 0x02, 0x00, 0x02, 0x02, 0x02, 0xfd, 0x03, 0x02,
  0xff, 0x00, 0x03, 0x00, 0x01, 0x03, 0x01, 0xfe, 0x02, 0x00, 0xff, 0x03,
  0x00, 0x02, 0xfc, 0xfe, 0x02, 0xfd, 0x02, 0x03, 0x00, 0x02, 0xfe, 0x03,
  0x04, 0xfd, 0x01, 0xfe, 0xff, 0xfc, 0xfb, 0xfd, 0xff, 0xfd, 0xfd, 0xfd,
  0x00, 0x01, 0xfa, 0x03, 0x00, 0xf8, 0xf9, 0x00, 0xff, 0x02, 0xfc, 0x06,
  0xf0, 0x04, 0xfd, 0x01, 0xfa, 0xfe, 0x00, 0x04, 0xfd, 0xf7, 0x00, 0xfa,
  0x01, 0xfe, 0xfd, 0xf5, 0xe8, 0x03, 0xf6, 0x04, 0x02, 0xfa, 0x00, 0xf6,
  0xfc, 0xfb, 0xfd, 0xff, 0xff, 0xfd, 0xfa, 0xfd, 0xff, 0x01, 0x03, 0x03,
  0xff, 0x00, 0x00, 0x09, 0x0f, 0xfd, 0xfe, 0xfd, 0x01, 0x03, 0x04, 0x04,
  0xfd, 0xff, 0x00, 0xfa, 0xfc, 0x03, 0xec, 0xf9, 0x03, 0xfc, 0xf2, 0xfb,
  0x03, 0x00, 0x07, 0xff, 0x00, 0xfe, 0xfe, 0xf5, 0xff, 0xfb, 0xf0, 0xfc,
  0xff, 0xfb, 0x09, 0xd8, 0xfd, 0x04, 0xfc, 0x02, 0xff, 0xfc, 0x07, 0xfc,
  0xff, 0xfd, 0x04, 0x02, 0x02, 0xfe, 0x01, 0xfc, 0xf9, 0xe9, 0x01, 0x04,
  0x03, 0xf6, 0x00, 0x01, 0x00, 0xff, 0xfe, 0x02, 0xf9, 0xfe, 0xfa, 0xfc,
  0xff, 0x02, 0xfc, 0xfc, 0xff, 0xfe, 0x01, 0xea, 0x00, 0x01, 0xfc, 0x00,
  0x05, 0x06, 0x00, 0xff, 0xff, 0xff, 0xfc, 0xfb, 0x06, 0xfc, 0xfd, 0x00,
  0x02, 0xfb, 0xfd, 0xfc, 0xe9, 0x01, 0xff, 0xfa, 0xfe, 0xfe, 0xff, 0x01,
  0x03, 0x03, 0xfb, 0x01, 0x04, 0xfe, 0x01, 0xf8, 0xfc, 0x06, 0x04, 0xff,
  0xfa, 0xff, 0x02, 0xf7, 0xfc, 0x03, 0xfd, 0xfd, 0xff, 0x01, 0xfe, 0x02,
  0x03, 0xe9, 0x05, 0x05, 0xe0, 0x02, 0x02, 0xfd, 0xfe, 0x02, 0xfb, 0x0b,
  0xfe, 0xfe, 0xfe, 0xfb, 0x01, 0xf9, 0xfe, 0x06, 0xff, 0xfd, 0x06, 0xfa,
  0xfe, 0xef, 0xf7, 0x03, 0xfc, 0x00, 0x00, 0xfa, 0xff, 0x06, 0xee, 0xfc,
  0xff, 0xf4, 0xef, 0x00, 0x03, 0xfd, 0x02, 0x02, 0x03, 0x01, 0xff, 0xf4,
  0xfe, 0xf8, 0x01, 0x03, 0xf9, 0xfb, 0x02, 0xfd, 0xfd, 0x02, 0xfc, 0xfe,
  0x02, 0x03, 0xf9, 0x03, 0xfa, 0xfe, 0xf7, 0x00, 0xfc, 0xfc, 0xfc, 0x01,
  0xff, 0xec, 0xff, 0xfa, 0x03, 0x06, 0xff, 0x01, 0xfa, 0xef, 0xfb, 0xfb,
  0xf4, 0xff, 0x03, 0x05, 0xeb, 0xff, 0x02, 0x00, 0xfb, 0xfe, 0xfd, 0x02,
  0xfa, 0xfd, 0x04, 0xfb, 0x05, 0x03, 0xfb, 0x06, 0x03, 0xfb, 0x03, 0xff,
  0xfe, 0xff, 0xfc, 0xfd, 0x02, 0x04, 0xfb, 0x02, 0xfc, 0x01, 0xfe, 0xfe,
  0xff, 0x01, 0xfd, 0xf9, 0xfb, 0x03, 0x01, 0xff, 0x00, 0x03, 0x02, 0x06,
  0xf4, 0x02, 0x04, 0x01, 0x01, 0x00, 0x09, 0xfe, 0xf9, 0xfe, 0xf8, 0xfc,
  0xff, 0x02, 0x01, 0xff, 0xfd, 0x02, 0xf9, 0xde, 0x00, 0xf3, 0x00, 0xfa,
  0x04, 0x05, 0x02, 0x0c, 0xff, 0xfc, 0x03, 0x03, 0x01, 0x01, 0xfe, 0x01,
  0xfd, 0x02, 0xfd, 0x08, 0xfb, 0x05, 0xfe, 0xfc, 0x00, 0xfe, 0xfd, 0x02,
  0x04, 0xfc, 0x00, 0x03, 0x02, 0x00, 0x01, 0xfe, 0xf9, 0x01, 0xfe, 0x03,
  0x03, 0x00, 0xfa, 0xfa, 0x04, 0x00, 0xfb, 0x01, 0x05, 0x04, 0x01, 0x02,
  0x00, 0xff, 0x00, 0xff, 0xf5, 0x02, 0x06, 0x04, 0x00, 0xff, 0x00, 0xfd,
  0xf9, 0x05, 0x03, 0x00, 0xff, 0x02, 0x03, 0xfd, 0x04, 0xfe, 0xff, 0x01,
  0xfa, 0x03, 0x02, 0x00, 0x00, 0xfe, 0xfc, 0xfb, 0x05, 0xf5, 0x03, 0xfc,
  0x04, 0x00, 0xfe, 0xff, 0x01, 0x00, 0x01, 0xfe, 0xfb, 0x05, 0xff, 0x02,
  0x00, 0xff, 0x00, 0xfc, 0xfd, 0xfd, 0x00, 0x03, 0xff, 0xfe, 0xfb, 0x07,
  0xfe, 0x06, 0xfd, 0x01, 0xfc, 0xfe, 0x04, 0xfe, 0xfd, 0x01, 0xfd, 0x01,
  0xfc, 0xfe, 0xf9, 0xfa, 0xce, 0xf2, 0x02, 0x04, 0x00, 0xff, 0xfc, 0xfe,
  0x00, 0x03, 0xdd, 0x01, 0x01, 0xfc, 0x05, 0xff, 0xf6, 0x01, 0xf5, 0xfc,
  0x03, 0xfc, 0x02, 0x03, 0x03, 0xf7, 0x01, 0xf7, 0x00, 0xf3, 0xfd, 0xff,
  0xfe, 0x05, 0xf9, 0xf7, 0xfe, 0xff, 0xfe, 0x01, 0xfe, 0x00, 0x03, 0xfc,
  0x04, 0x00, 0xff, 0xf9, 0xfa, 0xf6, 0xfa, 0xfa, 0xff, 0x02, 0x04, 0x03,
  0xf6, 0x00, 0xfc, 0x02, 0xfd, 0xff, 0x03, 0xfe, 0x08, 0x02, 0x09, 0x03,
  0x01, 0xf1, 0xff, 0xfc, 0xfc, 0x04, 0xfe, 0x04, 0xff, 0xfa, 0xff, 0x00,
  0x08, 0xfe, 0x03, 0xfd, 0xf9, 0x05, 0xf4, 0x05, 0xf7, 0xf7, 0xfe, 0x02,
  0xf6, 0x06, 0xfa, 0xfd, 0xed, 0x04, 0xef, 0xf8, 0xfe, 0xf5, 0x04, 0xf2,
  0xf3, 0x04, 0xff, 0xfd, 0xff, 0xf6, 0x06, 0xcf, 0x03, 0xff, 0xef, 0xfd,
  0x06, 0xf1, 0x02, 0xfc, 0xfa, 0xfb, 0x02, 0x0a, 0x02, 0x00, 0xf1, 0x00,
  0x01, 0x01, 0xfe, 0xff, 0xff, 0xf4, 0x08, 0xfc, 0xf8, 0x03, 0xf6, 0x02,
  0xff, 0xfd, 0x00, 0x01, 0xfa, 0xfa, 0xfc, 0xfb, 0xf6, 0xfc, 0xef, 0x04,
  0x06, 0x07, 0xfc, 0x02, 0x00, 0xfc, 0x00, 0xfd, 0x04, 0xff, 0xf2, 0xec,
  0x00, 0xff, 0xfa, 0xfd, 0xf0, 0xf8, 0x02, 0x07, 0x08, 0xff, 0x01, 0xfe,
  0x00, 0xda, 0x06, 0xfe, 0x02, 0xff, 0x06, 0x06, 0xfc, 0xfa, 0xfa, 0xff,
  0xfc, 0xfc, 0xf3, 0x02, 0xfa, 0xfe, 0x06, 0xf2, 0x00, 0xfd, 0x08, 0xfd,
  0x08, 0xf4, 0x03, 0x03, 0x03, 0xfb, 0x06, 0x00, 0x00, 0xf7, 0x04, 0x04,
  0x07, 0xf7, 0xff, 0x0a, 0x05, 0xeb, 0xf8, 0x01, 0x01, 0x01, 0xf6, 0x00,
  0x04, 0xff, 0xfe, 0x03, 0x05, 0xf9, 0xfe, 0x02, 0xf6, 0x03, 0xf9, 0x01,
  0xf7, 0xf8, 0x02, 0xf5, 0x03, 0xf7, 0xfc, 0xf7, 0x00, 0x02, 0xfe, 0xf1,
  0x02, 0xfc, 0xfc, 0xf6, 0xf5, 0xf6, 0xfe, 0xf6, 0xff, 0x00, 0x07, 0x03,
  0x04, 0xfe, 0xfc, 0x00, 0xf6, 0xfc, 0x00, 0xfc, 0x07, 0x01, 0x03, 0xff,
  0xf8, 0x01, 0x05, 0xf2, 0x01, 0xfe, 0xf3, 0x07, 0x07, 0x06, 0xfe, 0x00,
  0x05, 0xfa, 0x01, 0x01, 0xff, 0x01, 0xff, 0x03, 0xf9, 0xfd, 0x04, 0xff,
  0x04, 0x07, 0x06, 0xf6, 0xfa, 0xfd, 0xfa, 0x00, 0xfd, 0x07, 0xee, 0x00,
  0xfb, 0xf5, 0xfd, 0x02, 0x06, 0x08, 0x02, 0x06, 0xfe, 0xfb, 0xf2, 0x00,
  0x08, 0x02, 0xfe, 0x03, 0x05, 0xfe, 0xfc, 0xfc, 0xf4, 0xf4, 0x01, 0x02,
  0xf3, 0x00, 0x0b, 0xfd, 0x02, 0x02, 0x02, 0xf6, 0xff, 0x00, 0xf9, 0x08,
  0xf3, 0x01, 0xf0, 0x04, 0xfa, 0xfb, 0x03, 0xfc, 0xf7, 0x02, 0xfe, 0x08,
  0xfd, 0x02, 0x05, 0x07, 0x00, 0xff, 0xf2, 0xf2, 0xfe, 0x00, 0xfb, 0x00,
  0xf7, 0xf6, 0x01, 0xfc, 0x03, 0xfc, 0x03, 0x03, 0x02, 0x00, 0xfc, 0xf9,
  0xf1, 0x01, 0xfe, 0xfd, 0x09, 0x00, 0xdd, 0x07, 0x01, 0xfc, 0x00, 0xf9,
  0x0b, 0xfb, 0x05, 0xf7, 0xe8, 0xf9, 0x00, 0x07, 0xf2, 0xf1, 0xfe, 0xff,
  0x01, 0xfa, 0xfc, 0xff, 0x01, 0xfb, 0x03, 0xfd, 0x02, 0x01, 0xfb, 0x06,
  0xfd, 0xff, 0xf6, 0x01, 0x0a, 0x03, 0x02, 0xf5, 0x03, 0xfb, 0xf9, 0x05,
  0xfe, 0xf5, 0xf8, 0xfc, 0x05, 0x03, 0x00, 0xf5, 0xf9, 0xee, 0x01, 0x04,
  0x06, 0xfa, 0xfe, 0xfc, 0x07, 0xf8, 0x0c, 0xf8, 0x02, 0xf6, 0x01, 0x01,
  0xfe, 0xff, 0x03, 0x00, 0x00, 0xfa, 0xef, 0xf9, 0x06, 0xc3, 0xf4, 0x00,
  0x04, 0x07, 0x03, 0xfa, 0xfd, 0xfa, 0xeb, 0x05, 0x03, 0x03, 0x00, 0x04,
  0x02, 0xfa, 0x05, 0xf4, 0x05, 0xfd, 0x02, 0xff, 0xfc, 0xff, 0x03, 0xfd,
  0xff, 0xfe, 0xf8, 0x00, 0x0e, 0x01, 0xf2, 0xf4, 0xfa, 0xfe, 0xf8, 0xfd,
  0x01, 0xed, 0xf0, 0xfd, 0xfc, 0xff, 0xf8, 0x01, 0xf6, 0x0e, 0x05, 0xfc,
  0xf3, 0x07, 0x0a, 0x01, 0xfd, 0x01, 0xf0, 0xfd, 0x01, 0xee, 0xfb, 0xef,
  0xfb, 0x05, 0x04, 0x08, 0xfe, 0xfa, 0x00, 0xff, 0x02, 0xff, 0xf8, 0xfc,
  0xfd, 0x06, 0xfd, 0x09, 0xfb, 0x04, 0xf6, 0xff, 0x02, 0x02, 0xfd, 0x08,
  0xfa, 0x04, 0xf1, 0xfb, 0x01, 0xfb, 0x00, 0x01, 0xfc, 0x03, 0x03, 0x06,
  0xff, 0x01, 0x00, 0x01, 0xff, 0xf8, 0xfe, 0xfd, 0xfe, 0xfb, 0xfd, 0x03,
  0x02, 0xfe, 0xff, 0xfd, 0x03, 0xf9, 0xfd, 0xfb, 0xfc, 0xfb, 0x02, 0xf9,
  0xfd, 0x03, 0xff, 0xff, 0xfe, 0xfe, 0x03, 0xfe, 0x01, 0x03, 0x00, 0xfa,
  0xfd, 0x03, 0xf8, 0x05, 0x00, 0xf3, 0x00, 0x01, 0xfb, 0xf8, 0xfd, 0x02,
  0xf5, 0xfc, 0xfd, 0x00, 0xf7, 0xfc, 0xff, 0xfb, 0xf7, 0xfd, 0xff, 0xff,
  0x02, 0xf9, 0xfd, 0xf3, 0xfb, 0xfd, 0x00, 0xf9, 0xff, 0xfa, 0x01, 0x03,
  0xff, 0xfd, 0xfd, 0xfb, 0xff, 0xfd, 0xfa, 0x00, 0xff, 0x04, 0xfd, 0x01,
  0xff, 0x00, 0xf7, 0xfc, 0x01, 0x01, 0xfa, 0xf6, 0xfd, 0xfe, 0x01, 0xf6,
  0xfe, 0xfc, 0x01, 0x02, 0xfd, 0xfd, 0x00, 0xff, 0xfd, 0xff, 0xfc, 0xff,
  0xf8, 0xf9, 0x01, 0xfd, 0xff, 0xfb, 0xfd, 0xfc, 0xfe, 0xff, 0xfd, 0xfc,
  0xfb, 0x01, 0xfd, 0xf8, 0xf7, 0xfd, 0xfe, 0xff, 0x02, 0xe9, 0x03, 0xf7,
  0xfa, 0xfe, 0xf9, 0xf7, 0xfa, 0x03, 0xf7, 0x02, 0xff, 0xff, 0xf8, 0xff,
  0xfb, 0xfb, 0xff, 0xfd, 0x03, 0xfc, 0xfe, 0xf7, 0xfe, 0xf9, 0xf8, 0x05,
  0x00, 0xf8, 0xfd, 0xf9, 0xff, 0x01, 0x02, 0x04, 0xfa, 0x03, 0x03, 0x00,
  0xf6, 0xfa, 0x02, 0x01, 0x03, 0x01, 0xfb, 0x02, 0x04, 0x01, 0x03, 0x02,
  0x02, 0xf9, 0xf9, 0x04, 0xfa, 0xfa, 0xfd, 0x03, 0xf9, 0xfd, 0xfa, 0xfa,
  0xfd, 0xf8, 0x00, 0xfe, 0xfc, 0xf4, 0x02, 0xf7, 0xf8, 0xf9, 0xfe, 0xfc,
  0x01, 0xfe, 0xf9, 0xf9, 0xfe, 0x01, 0xff, 0x04, 0xfd, 0xfb, 0x00, 0xf6,
  0x00, 0xfd, 0xf9, 0xff, 0xfd, 0xfa, 0x01, 0xfa, 0xf5, 0xf9, 0x04, 0xf8,
  0xff, 0x01, 0x03, 0xfa, 0x01, 0x03, 0x04, 0x03, 0x00, 0xfe, 0x00, 0xfb,
  0x00, 0xfc, 0x02, 0xfd, 0xfe, 0x02, 0x05, 0xff, 0x04, 0xf9, 0x00, 0x00,
  0x01, 0xf7, 0xfd, 0xff, 0xff, 0x01, 0xfe, 0xfc, 0xfe, 0xfc, 0xfa, 0x01,
  0xff, 0xff, 0xfa, 0x01, 0xf9, 0x02, 0xf6, 0xfe, 0x00, 0x04, 0xfc, 0x01,
  0x00, 0xfb, 0xfb, 0x00, 0xf7, 0xfe, 0xf8, 0xfa, 0xf6, 0xff, 0x01, 0xfa,
  0x04, 0x02, 0x03, 0xfd, 0xff, 0x04, 0x00, 0xfd, 0xfd, 0x04, 0xf7, 0xf7,
  0xfd, 0xf7, 0x04, 0xfd, 0xfe, 0x04, 0x00, 0x04, 0xfc, 0xfd, 0x02, 0xfd,
  0xfc, 0xfa, 0x01, 0xf9, 0xfd, 0xf7, 0xfe, 0xfa, 0xfc, 0xfa, 0x00, 0xf9,
  0x02, 0x01, 0x03, 0xfd, 0x02, 0xfb, 0xfd, 0x01, 0xf8, 0x03, 0xfc, 0xfb,
  0xfa, 0xf8, 0xf2, 0x00, 0xfc, 0xfb, 0xf8, 0xfe, 0x01, 0xff, 0x00, 0xfc,
  0xfc, 0x04, 0xfb, 0xfe, 0xf9, 0xf9, 0x02, 0xf9, 0x02, 0xfd, 0x00, 0xfd,
  0x05, 0x02, 0x01, 0xfa, 0x00, 0xfd, 0xfa, 0xfa, 0xf3, 0xfb, 0xfc, 0xff,
  0xfb, 0x03, 0x01, 0x02, 0x00, 0xfb, 0x04, 0xfd, 0xfe, 0xf2, 0xf4, 0xfd,
  0x00, 0xfc, 0xf7, 0xfc, 0xfe, 0xf6, 0xf9, 0xfe, 0x02, 0xfd, 0x00, 0xfd,
  0x01, 0x04, 0xfe, 0xfe, 0x04, 0xfa, 0x04, 0xf9, 0x02, 0xf4, 0x01, 0x02,
  0x04, 0x01, 0xfb, 0x01, 0x04, 0xe6, 0xfc, 0xfe, 0xfe, 0xf6, 0x02, 0xfb,
  0x00, 0xf8, 0xf8, 0x05, 0x00, 0xfb, 0x04, 0xfc, 0xf8, 0xfe, 0xfb, 0xee,
  0x04, 0xfc, 0xfa, 0xfd, 0x00, 0xfd, 0xff, 0xfe, 0xfe, 0xfe, 0xf6, 0xfe,
  0xfc, 0xff, 0xf7, 0xfb, 0x02, 0xff, 0x00, 0x00, 0x03, 0xfd, 0x00, 0xf7,
  0xf8, 0xff, 0x01, 0xf7, 0xfd, 0x03, 0xfa, 0xfd, 0xf6, 0xf7, 0xfd, 0xfe,
  0xfe, 0x01, 0xfc, 0xfe, 0x01, 0xfe, 0xfb, 0xfa, 0xfd, 0xf7, 0xfd, 0xfe,
  0xfd, 0xf7, 0xfd, 0x02, 0x04, 0x02, 0xfd, 0xfa, 0xff, 0x00, 0x03, 0xfd,
  0xff, 0xff, 0x03, 0x00, 0xfe, 0xff, 0xfa, 0xff, 0xfc, 0x04, 0xf9, 0xff,
  0xf0, 0xfd, 0xfb, 0xf9, 0x01, 0x00, 0xfd, 0x01, 0x00, 0xf6, 0xfa, 0xfc,
  0xfb, 0xfc, 0x05, 0x01, 0x02, 0x01, 0xff, 0x06, 0x04, 0x03, 0x02, 0x02,
  0x0b, 0x01, 0x06, 0x04, 0xfc, 0xfd, 0x04, 0x01, 0x00, 0x01, 0xfe, 0x04,
  0xf3, 0xfd, 0x00, 0x00, 0x10, 0xfe, 0x00, 0xff, 0xfb, 0x07, 0xf3, 0x0c,
  0x02, 0xfd, 0xfa, 0x02, 0xfc, 0xf8, 0x01, 0xfd, 0xef, 0x04, 0xf5, 0xf9,
  0x01, 0xf8, 0x04, 0xf3, 0xf3, 0x07, 0x03, 0xfc, 0x01, 0xfd, 0x01, 0xf8,
  0x04, 0x06, 0xfa, 0xf8, 0x09, 0xfa, 0x01, 0x00, 0x02, 0x04, 0x00, 0x05,
  0xf8, 0x00, 0xfa, 0xfd, 0x05, 0x01, 0xf6, 0x02, 0xfd, 0x01, 0x03, 0xfe,
  0xfe, 0xfe, 0xf8, 0xfa, 0xfd, 0xf7, 0xfd, 0xfe, 0xf9, 0xf3, 0x02, 0x01,
  0xfd, 0xf6, 0xfe, 0x04, 0x05, 0x0b, 0x03, 0x01, 0xfc, 0x03, 0x02, 0x05,
  0xfe, 0x05, 0x04, 0xea, 0xfd, 0xff, 0x00, 0x03, 0xec, 0x04, 0xff, 0x08,
  0x04, 0x03, 0xff, 0xfb, 0x03, 0xec, 0x06, 0xfd, 0x00, 0x02, 0x06, 0x04,
  0xff, 0x00, 0xf8, 0x04, 0xf6, 0x04, 0xf7, 0xfe, 0xf8, 0x03, 0x02, 0xf8,
  0x02, 0xfe, 0x03, 0xff, 0x0c, 0xec, 0x01, 0x07, 0x00, 0xff, 0x01, 0xf7,
  0xfe, 0xf3, 0x08, 0xf6, 0x00, 0xfe, 0x02, 0x03, 0x05, 0xf6, 0xff, 0x05,
  0x00, 0x01, 0xfa, 0x04, 0x01, 0x00, 0x02, 0x02, 0x02, 0xfc, 0xf8, 0xf6,
  0xfa, 0xfe, 0xfa, 0x07, 0x01, 0xf1, 0xfa, 0xf2, 0x01, 0xf4, 0x05, 0xf6,
  0x02, 0xfa, 0xfe, 0xfe, 0xff, 0x00, 0x01, 0xfb, 0xfd, 0xec, 0xfc, 0x00,
  0xf5, 0x00, 0x06, 0x01, 0x02, 0xf9, 0x05, 0x05, 0xf7, 0xfd, 0xfe, 0xf5,
  0x07, 0x00, 0x0f, 0xfd, 0xfd, 0xfe, 0x04, 0xf4, 0xff, 0xfb, 0xfe, 0x02,
  0x05, 0x05, 0x00, 0x03, 0x01, 0xf9, 0x01, 0x03, 0xff, 0x02, 0x02, 0x06,
  0xfd, 0xf7, 0x0c, 0x04, 0x04, 0xfe, 0x03, 0x02, 0xfe, 0xfd, 0xfc, 0x06,
  0x02, 0x0e, 0xf8, 0x04, 0xf8, 0xf8, 0xfe, 0x03, 0x03, 0x07, 0x08, 0x06,
  0xfe, 0x01, 0xf6, 0xfd, 0x0b, 0x04, 0xfe, 0x02, 0xff, 0xfc, 0xf2, 0x01,
  0xf0, 0xf4, 0xfb, 0x06, 0xf1, 0xfb, 0x03, 0xfc, 0xfd, 0x05, 0xff, 0xfe,
  0x00, 0xf7, 0xfa, 0x05, 0xf9, 0x01, 0xf9, 0xff, 0x00, 0xf8, 0xfd, 0xfe,
  0x03, 0x04, 0xfe, 0x04, 0xf9, 0x06, 0x05, 0xfd, 0x00, 0xfc, 0x00, 0xf3,
  0x04, 0xf9, 0xfe, 0x02, 0x00, 0xfc, 0xfe, 0x05, 0xff, 0xf8, 0x02, 0x02,
  0xf9, 0xf8, 0xf9, 0xf9, 0xf6, 0x02, 0xfd, 0xfb, 0x06, 0x01, 0xea, 0x09,
  0xf9, 0xfa, 0xfa, 0xff, 0x04, 0xff, 0x04, 0x00, 0xfa, 0x05, 0xff, 0x04,
  0xfb, 0xf2, 0x04, 0xfe, 0xfd, 0x00, 0xfb, 0x03, 0xfb, 0xfb, 0x02, 0xf8,
  0xfe, 0x00, 0x00, 0x02, 0xff, 0x01, 0x05, 0x01, 0x0a, 0xfe, 0xff, 0xf2,
  0x02, 0xfa, 0x02, 0x03, 0x01, 0xf9, 0x01, 0xfc, 0x06, 0xfe, 0xfb, 0x02,
  0x00, 0xf1, 0x05, 0x00, 0xff, 0xff, 0xf9, 0x01, 0xf4, 0x02, 0x04, 0xf9,
  0x05, 0xf9, 0xfa, 0x04, 0x05, 0xfc, 0x06, 0xfd, 0x00, 0xfd, 0xf4, 0xf8,
  0x05, 0xf6, 0xf6, 0xfe, 0xfd, 0x00, 0x06, 0x00, 0xf9, 0xfb, 0xf3, 0x04,
  0xfb, 0x00, 0xff, 0x03, 0xf9, 0xfd, 0x00, 0xfd, 0x02, 0x01, 0xff, 0x07,
  0x03, 0x02, 0xf6, 0x01, 0xf7, 0xfe, 0xfd, 0x02, 0x07, 0x04, 0xfa, 0xfd,
  0x05, 0xfc, 0xf8, 0x01, 0xfe, 0xf8, 0xfc, 0xfd, 0x05, 0x03, 0xff, 0x03,
  0xff, 0x06, 0xfc, 0xfd, 0xf5, 0x00, 0x02, 0x03, 0x03, 0x00, 0xf8, 0x02,
  0xfd, 0xfe, 0xf2, 0xfb, 0x03, 0xfa, 0x01, 0xfe, 0xf6, 0xeb, 0xf9, 0x00,
  0x00, 0x05, 0xfc, 0xfa, 0xfa, 0x05, 0xf9, 0x0a, 0xff, 0x05, 0x01, 0x00,
  0x00, 0x00, 0xfe, 0x03, 0xfd, 0x04, 0xe8, 0x01, 0xfa, 0xfb, 0xf8, 0xf7,
  0xfd, 0xfe, 0x02, 0x07, 0xff, 0x03, 0x00, 0x02, 0xfb, 0x04, 0x04, 0xff,
  0xfb, 0xfd, 0xfb, 0xf9, 0xf7, 0x00, 0x04, 0xff, 0x00, 0x01, 0xfc, 0xfe,
  0xfc, 0x03, 0xfa, 0x01, 0x02, 0xf9, 0xff, 0x00, 0x07, 0x02, 0xf8, 0x00,
  0xfe, 0x04, 0x01, 0x04, 0xfb, 0xf8, 0x07, 0xf6, 0xfd, 0xfe, 0xff, 0xfc,
  0xfc, 0x03, 0xfd, 0x01, 0x09, 0x03, 0x08, 0x06, 0xfb, 0x06, 0xf9, 0x04,
  0x00, 0x01, 0xfa, 0x00, 0xff, 0x05, 0x01, 0x03, 0xfc, 0xfc, 0x03, 0x04,
  0xf8, 0x01, 0xfe, 0xf5, 0x04, 0xfa, 0x01, 0x00, 0x04, 0xfd, 0x01, 0x04,
  0xfa, 0x01, 0x03, 0x01, 0x00, 0xfe, 0xff, 0x02, 0xf8, 0xfe, 0x08, 0x04,
  0x04, 0xf7, 0x04, 0x00, 0x03, 0x04, 0x02, 0xfa, 0x00, 0xfe, 0xfa, 0xfb,
  0x01, 0xfb, 0x00, 0xfc, 0xfd, 0x00, 0x01, 0xf8, 0x00, 0xfb, 0xfa, 0x09,
  0xfe, 0x00, 0xfe, 0xfd, 0x09, 0xfa, 0x02, 0xfd, 0xf9, 0xfd, 0x01, 0x02,
  0x01, 0x0e, 0xfb, 0x03, 0x04, 0xfc, 0xfe, 0xff, 0x02, 0xfd, 0xfe, 0xf6,
  0x01, 0xff, 0x02, 0xf9, 0x04, 0xfd, 0x00, 0x02, 0xfd, 0xfc, 0x02, 0x03,
  0xfc, 0x0a, 0xfd, 0xfc, 0xf8, 0x04, 0xfe, 0x01, 0x02, 0x07, 0xf1, 0x03,
  0x00, 0xfe, 0xfc, 0xf3, 0xf9, 0xfb, 0x02, 0xfb, 0xfd, 0xf7, 0x05, 0x01,
  0x01, 0x02, 0x03, 0x00, 0xfe, 0x02, 0xfe, 0x01, 0xfe, 0x00, 0x03, 0x00,
  0x01, 0x04, 0x03, 0x01, 0xfa, 0x04, 0x02, 0x00, 0xfc, 0xff, 0x01, 0xff,
  0xf9, 0x00, 0xfc, 0x04, 0xf9, 0x03, 0x03, 0x05, 0x03, 0xfd, 0xf5, 0xf9,
  0xf4, 0x03, 0xff, 0x00, 0x04, 0xf7, 0x01, 0x02, 0x02, 0xfa, 0xf7, 0x00,
  0x02, 0x03, 0xfe, 0x04, 0x00, 0xfe, 0xf8, 0x01, 0x00, 0xff, 0x02, 0x04,
  0xf9, 0x01, 0x02, 0xff, 0x02, 0xfc, 0xfd, 0xff, 0x02, 0x07, 0xf8, 0x00,
  0xf8, 0xfd, 0xfd, 0xfa, 0x00, 0x01, 0xfe, 0xfd, 0xfe, 0xf7, 0xfc, 0xfb,
  0xfe, 0xfe, 0x05, 0xfb, 0xfc, 0xfd, 0xfc, 0xf9, 0xfc, 0xfb, 0x04, 0xfd,
  0xff, 0xfe, 0xfb, 0x01, 0xfd, 0x04, 0x04, 0x03, 0x05, 0x05, 0xff, 0xfd,
  0x06, 0x01, 0xfe, 0xff, 0x03, 0x01, 0x02, 0x00, 0xf8, 0xfd, 0x02, 0xfa,
  0x01, 0x03, 0x08, 0xfa, 0xfd, 0x00, 0x00, 0xfc, 0xfa, 0xfb, 0x02, 0xf8,
  0x04, 0xfd, 0xfc, 0xfb, 0x00, 0x00, 0xf8, 0x0a, 0x00, 0x02, 0x03, 0x00,
  0x04, 0x03, 0x03, 0x02, 0xff, 0xfc, 0xf9, 0xfc, 0x03, 0x06, 0xfd, 0x06,
  0x03, 0xfc, 0xfd, 0x03, 0xfb, 0x02, 0x0c, 0xfa, 0xfe, 0x02, 0xfd, 0xf9,
  0xfb, 0x05, 0x02, 0xfa, 0xff, 0xf8, 0x01, 0xfb, 0x03, 0x03, 0x00, 0x01,
  0x01, 0x05, 0x02, 0x00, 0x00, 0xff, 0xfd, 0xfb, 0xff, 0xff, 0xfd, 0x00,
  0xfd, 0x00, 0xf8, 0x03, 0xff, 0x03, 0xfd, 0x04, 0xfe, 0x03, 0xf8, 0xfb,
  0xff, 0x09, 0x02, 0xff, 0xfd, 0x03, 0xfe, 0xfe, 0xf5, 0x02, 0xfa, 0xf9,
  0x00, 0x05, 0x02, 0x04, 0x04, 0xff, 0xfa, 0x03, 0xff, 0x03, 0x02, 0xfb,
  0xfe, 0x03, 0x01, 0x04, 0x03, 0xf5, 0x04, 0x05, 0xfc, 0x10, 0x05, 0x01,
  0xfe, 0xf9, 0xff, 0xfc, 0xfd, 0x00, 0x02, 0xfe, 0x05, 0xfd, 0xfa, 0xfc,
  0x02, 0x02, 0xfb, 0x07, 0xfc, 0x02, 0x02, 0xfe, 0x04, 0xfb, 0x03, 0xff,
  0xfe, 0x03, 0x02, 0xf8, 0xf8, 0x01, 0xfe, 0xff, 0xfc, 0x02, 0x00, 0xfc,
  0x00, 0x00, 0x03, 0x06, 0xfd, 0xfc, 0xff, 0xfe, 0xff, 0xfc, 0xfd, 0x03,
  0x03, 0xff, 0xfd, 0x01, 0xfd, 0xfc, 0x08, 0xff, 0xfd, 0xf8, 0x03, 0x05,
  0x00, 0xfc, 0xfe, 0xfd, 0xff, 0x04, 0xfb, 0xfa, 0xff, 0xfd, 0xfe, 0xfe,
  0xff, 0xfb, 0x02, 0xfd, 0xfd, 0xfe, 0xff, 0x01, 0x01, 0x02, 0x03, 0xf6,
  0x00, 0xfd, 0x07, 0x03, 0xf8, 0xff, 0x05, 0xff, 0x01, 0x02, 0xfb, 0xfa,
  0x00, 0xfa, 0xfc, 0xf3, 0x00, 0x08, 0xfc, 0xf0, 0x02, 0x00, 0xfe, 0xf7,
  0x02, 0xf8, 0x03, 0xff, 0xf5, 0x00, 0xfc, 0x01, 0xfc, 0x03, 0x04, 0xff,
  0xfc, 0x02, 0x00, 0xfe, 0x02, 0xfd, 0xff, 0xfd, 0x00, 0xfe, 0xfe, 0x01,
  0x01, 0xfb, 0xfe, 0x01, 0xfa, 0x07, 0x02, 0x00, 0x00, 0x00, 0x04, 0x03,
  0xfa, 0x05, 0x00, 0x00, 0x02, 0xfc, 0xfd, 0x01, 0x0c, 0x03, 0xf7, 0x02,
  0x01, 0x00, 0x02, 0xfd, 0x00, 0xfd, 0xfd, 0xfc, 0xff, 0xfd, 0xfb, 0xfd,
  0x02, 0xff, 0x01, 0x05, 0x0e, 0xfe, 0x00, 0xfd, 0xfe, 0x00, 0xfd, 0x02,
  0xf7, 0x03, 0xfa, 0xfb, 0xff, 0xf6, 0xff, 0x01, 0xfd, 0xfd, 0xfe, 0xfc,
  0xff, 0xfb, 0x00, 0xfb, 0x04, 0xff, 0xfb, 0xfd, 0xff, 0xfc, 0xfc, 0xfd,
  0x01, 0xfc, 0xfc, 0xfd, 0x02, 0xff, 0xfb, 0x08, 0xff, 0xfc, 0x02, 0xfd,
  0x02, 0xf8, 0x04, 0xf8, 0x00, 0xfe, 0xfc, 0x02, 0xfb, 0x07, 0x00, 0xfd,
  0xff, 0xfd, 0x02, 0xfd, 0xfe, 0xfe, 0xff, 0xfc, 0xff, 0xfa, 0xfc, 0x03,
  0xff, 0xfe, 0x03, 0x0a, 0xff, 0x00, 0xfe, 0xfd, 0xf8, 0x05, 0xf7, 0xfc,
  0x02, 0x01, 0xfc, 0x02, 0x03, 0xfa, 0x00, 0xff, 0x02, 0x04, 0x01, 0xfb,
  0xfd, 0x02, 0x00, 0xf9, 0xfa, 0x01, 0xfb, 0xfa, 0xfb, 0xf9, 0xff, 0xfd,
  0xfd, 0x01, 0x00, 0xfb, 0x08, 0xfe, 0xfd, 0xfe, 0x03, 0xfe, 0x00, 0xff,
  0xfd, 0xfd, 0xfe, 0x04, 0x02, 0xfe, 0xfa, 0x06, 0xfb, 0x07, 0x03, 0xff,
  0xfb, 0xfc, 0x03, 0x07, 0xff, 0x00, 0x02, 0x00, 0x00, 0xff, 0x02, 0xfd,
  0xff, 0x01, 0xfd, 0xfd, 0x03, 0x04, 0xf9, 0xfa, 0x00, 0xff, 0x04, 0xfc,
  0xfb, 0x03, 0x01, 0x04, 0xff, 0xfa, 0xfc, 0x00, 0x04, 0xfc, 0x03, 0xf9,
  0xfc, 0x00, 0xfc, 0x02, 0x09, 0x01, 0x00, 0xfc, 0x00, 0xfa, 0xff, 0x01,
  0xfd, 0xfc, 0x03, 0xf5, 0x00, 0xfd, 0xfd, 0x03, 0x02, 0xfb, 0x00, 0xf6,
  0x01, 0xfb, 0xfe, 0xf3, 0x0b, 0x00, 0xfb, 0xf6, 0xf9, 0x02, 0x02, 0x02,
  0x03, 0x00, 0x04, 0xfe, 0x02, 0x00, 0xfe, 0x04, 0xfb, 0x00, 0x04, 0xff,
  0x01, 0xfa, 0xfe, 0x02, 0x02, 0x01, 0xfe, 0xfb, 0xfe, 0x00, 0x01, 0xfb,
  0x03, 0xfd, 0x02, 0x0b, 0xfb, 0xf3, 0xfd, 0xfa, 0xfc, 0x00, 0xef, 0xfe,
  0xff, 0xfb, 0x04, 0x02, 0x03, 0xfa, 0xfd, 0xff, 0x03, 0x02, 0x03, 0x01,
  0xff, 0x06, 0x00, 0xfe, 0x00, 0xfd, 0xfd, 0x03, 0xff, 0xf4, 0x03, 0xfc,
  0x01, 0x04, 0x00, 0xf7, 0x0d, 0xfb, 0xff, 0x05, 0x03, 0x00, 0x01, 0x00,
  0xff, 0xfb, 0x01, 0xff, 0x00, 0xff, 0xf6, 0x03, 0xfd, 0x03, 0xfd, 0xfa,
  0xfd, 0x00, 0xf7, 0xfe, 0xff, 0xff, 0x04, 0xff, 0x03, 0x04, 0xfc, 0xff,
  0xfd, 0x00, 0xfb, 0xfc, 0xfa, 0x01, 0x03, 0x00, 0xfc, 0x02, 0x03, 0xfe,
  0x01, 0xfe, 0xfe, 0xfc, 0xfa, 0x04, 0x00, 0xfe, 0x00, 0xfe, 0xfc, 0x01,
  0x0a, 0x02, 0xf8, 0x01, 0x02, 0x02, 0xfe, 0x01, 0x00, 0x03, 0x04, 0xfd,
  0xfa, 0x05, 0xfb, 0xfc, 0xff, 0x06, 0x01, 0x01, 0x01, 0xf9, 0xff, 0x00,
  0x09, 0x00, 0x05, 0xfd, 0x02, 0xf7, 0x02, 0xf6, 0x02, 0xfe, 0x00, 0x03,
  0x03, 0xff, 0xfb, 0xf3, 0x04, 0xff, 0x03, 0x03, 0x02, 0xfe, 0x00, 0x02,
  0xea, 0xf6, 0x01, 0xff, 0xfc, 0x06, 0x02, 0x02, 0xfb, 0xfc, 0x02, 0x00,
  0x00, 0xf9, 0x03, 0xfe, 0x05, 0xef, 0x02, 0x00, 0xfd, 0x00, 0xfe, 0xff,
  0xf9, 0xff, 0xfb, 0xf4, 0xfb, 0xfb, 0xfe, 0x04, 0xf7, 0xfc, 0x01, 0xfb,
  0xff, 0x03, 0x0a, 0x00, 0xfa, 0xf6, 0xfe, 0xfe, 0xfb, 0xfc, 0x00, 0xfe,
  0xfa, 0xfd, 0xfd, 0x03, 0xfd, 0xff, 0x00, 0xfd, 0x07, 0x03, 0x01, 0xfd,
  0x0b, 0x02, 0x03, 0x0f, 0x00, 0x02, 0xfc, 0xfa, 0x05, 0x00, 0x01, 0xff,
  0xfb, 0xeb, 0xfe, 0x03, 0x05, 0xfc, 0x02, 0x01, 0xfe, 0xf6, 0x03, 0xfe,
  0x0b, 0xfd, 0x05, 0x09, 0x00, 0xfb, 0xfa, 0xff, 0x01, 0x05, 0xfe, 0x06,
  0x03, 0xf9, 0x06, 0x04, 0x12, 0x00, 0xf9, 0x00, 0xf8, 0xff, 0xf2, 0x09,
  0x01, 0xf2, 0xfc, 0xff, 0xfe, 0xfb, 0xfc, 0xf6, 0x01, 0x01, 0xf6, 0xff,
  0xf8, 0xfd, 0xed, 0xf3, 0xec, 0x09, 0x03, 0xf3, 0x03, 0x00, 0x01, 0xf3,
  0x02, 0x00, 0xf3, 0xfe, 0x0b, 0xfe, 0x07, 0x06, 0xfc, 0x03, 0xf3, 0x07,
  0xf8, 0x00, 0xf6, 0xfc, 0xf6, 0xf6, 0x0a, 0xfb, 0xfd, 0x00, 0xf3, 0xf5,
  0xfd, 0x05, 0xf8, 0xfa, 0xfc, 0xf9, 0x00, 0xfb, 0xfc, 0x00, 0x04, 0x04,
  0xfd, 0xfc, 0x01, 0x05, 0xff, 0x0a, 0x01, 0x04, 0xf9, 0xfc, 0x02, 0xfb,
  0xfe, 0xff, 0x01, 0xfe, 0xfe, 0x00, 0xf8, 0xfe, 0xfb, 0x01, 0xf7, 0xfa,
  0xf3, 0x05, 0xf7, 0xfa, 0x03, 0xff, 0x04, 0xf8, 0x00, 0x05, 0x03, 0x02,
  0xf9, 0x02, 0xfe, 0x03, 0x00, 0x03, 0xff, 0x02, 0xf8, 0x03, 0xf9, 0xf7,
  0xf8, 0x00, 0xf9, 0xfc, 0x08, 0x01, 0xfe, 0x05, 0x02, 0xf6, 0x07, 0xff,
  0xf9, 0xff, 0x08, 0x0c, 0xf8, 0xfa, 0xfb, 0x05, 0xfc, 0xf4, 0xfb, 0x07,
  0x01, 0xfc, 0xfd, 0x0d, 0x03, 0xff, 0x03, 0x01, 0x02, 0xe8, 0xf5, 0x01,
  0xf6, 0xfb, 0xff, 0x08, 0xfb, 0xf8, 0xfd, 0xff, 0x01, 0xf8, 0x00, 0xf3,
  0xea, 0xfb, 0x08, 0xf6, 0x00, 0xf5, 0x00, 0xf6, 0x05, 0xfb, 0xfa, 0xfb,
  0x02, 0x0b, 0x05, 0xff, 0x00, 0xf8, 0xfe, 0xf9, 0xf7, 0xfc, 0xf8, 0x04,
  0x02, 0xf2, 0x0d, 0xf9, 0xf7, 0xfc, 0x04, 0xfb, 0x01, 0x00, 0xff, 0xf0,
  0x06, 0x08, 0x05, 0x00, 0x07, 0xf9, 0x08, 0xf3, 0x03, 0x02, 0x06, 0x09,
  0xf6, 0x03, 0x0b, 0x01, 0x02, 0xf2, 0x04, 0x06, 0xfe, 0xf7, 0xfb, 0x02,
  0x02, 0x0e, 0xf9, 0x08, 0xf7, 0xf7, 0xec, 0x04, 0x0d, 0x05, 0x0b, 0x08,
  0xf9, 0xff, 0xee, 0x02, 0x0f, 0xff, 0x02, 0x04, 0x02, 0xfc, 0xf3, 0x03,
  0xdc, 0xfa, 0xf6, 0x00, 0xf6, 0x02, 0x02, 0x00, 0x07, 0x00, 0x02, 0xfe,
  0xff, 0xff, 0xfc, 0xfa, 0xf6, 0xff, 0xfe, 0xf2, 0x00, 0xf8, 0x04, 0xf5,
  0x01, 0x00, 0x01, 0x0a, 0xf5, 0x02, 0x06, 0xf0, 0xfe, 0xf8, 0xfa, 0xf2,
  0x07, 0xfa, 0x03, 0x02, 0xf7, 0xfe, 0x00, 0x00, 0xfe, 0xf9, 0xff, 0xfa,
  0xfe, 0xfd, 0xfe, 0xfa, 0xf8, 0x08, 0x00, 0xfc, 0x07, 0xf5, 0x01, 0x07,
  0xf7, 0xff, 0xf8, 0xf9, 0x00, 0xfb, 0x03, 0x00, 0xf9, 0xfe, 0x01, 0xf4,
  0xe4, 0x00, 0xff, 0x01, 0x07, 0xfb, 0x02, 0xff, 0x00, 0xff, 0x03, 0xf4,
  0xf0, 0x00, 0xfa, 0x01, 0xf5, 0x02, 0x03, 0x01, 0x0e, 0xfd, 0x06, 0xf9,
  0x03, 0xf6, 0x03, 0xfb, 0xfc, 0xee, 0xfa, 0xec, 0xf9, 0x01, 0xff, 0xfb,
  0x04, 0xdf, 0xfa, 0x03, 0x04, 0xe9, 0xff, 0x02, 0xf6, 0x02, 0x08, 0xf8,
  0x00, 0xfe, 0x02, 0xf9, 0xff, 0xfd, 0x00, 0x01, 0x04, 0x02, 0xfb, 0xfe,
  0x04, 0x02, 0xfa, 0xfb, 0x00, 0xf5, 0x02, 0xfb, 0xfa, 0xfc, 0xf3, 0x06,
  0x00, 0x04, 0x04, 0x06, 0xfa, 0xff, 0xf9, 0xf0, 0x05, 0x00, 0xfb, 0x07,
  0xff, 0x02, 0xfa, 0xfe, 0x06, 0xff, 0xfb, 0x01, 0x02, 0x05, 0xf3, 0xfa,
  0x01, 0x00, 0xfe, 0xfa, 0x04, 0xff, 0xf7, 0xf8, 0xff, 0x00, 0xfb, 0xf7,
  0xfa, 0x07, 0xff, 0xfa, 0xf6, 0xf3, 0xf9, 0xff, 0x01, 0x05, 0xf9, 0x00,
  0xff, 0x00, 0xf8, 0xed, 0x04, 0xfa, 0xff, 0x03, 0xfa, 0xf5, 0xfa, 0x04,
  0xfe, 0x00, 0xfe, 0xfa, 0x07, 0x00, 0xfc, 0x07, 0x00, 0x07, 0xfc, 0xfe,
  0x02, 0xff, 0xf8, 0x07, 0xfc, 0xfd, 0xf7, 0xf6, 0xe6, 0xff, 0xfa, 0xfa,
  0xff, 0xfe, 0xf2, 0x0e, 0xfc, 0xf7, 0xff, 0x04, 0x03, 0x0f, 0xfc, 0xf7,
  0xeb, 0x05, 0xee, 0xef, 0xfc, 0x02, 0xff, 0xfd, 0x09, 0x04, 0x07, 0x07,
  0xf8, 0xee, 0x04, 0x09, 0xf5, 0x07, 0xff, 0x01, 0xfb, 0xf1, 0xec, 0x01,
  0x05, 0x01, 0xff, 0xf7, 0xf4, 0x02, 0xf9, 0x07, 0xf4, 0xf7, 0xfe, 0xfd,
  0xf1, 0x04, 0xfe, 0xfb, 0xea, 0xfa, 0xfe, 0xff, 0x02, 0xf9, 0x05, 0x00,
  0xf8, 0x07, 0x0f, 0x03, 0xef, 0xf5, 0xfe, 0xfd, 0x08, 0xff, 0xf0, 0x03,
  0x0a, 0xef, 0x04, 0xf3, 0xf5, 0xfa, 0xfe, 0x04, 0xfb, 0x00, 0xfe, 0x02,
  0x01, 0x06, 0xf9, 0x0b, 0xfa, 0xe6, 0x08, 0x03, 0xfb, 0xf0, 0x02, 0xfa,
  0x01, 0xfe, 0x03, 0xfb, 0xfe, 0xf4, 0xfa, 0xfd, 0xe7, 0x00, 0x02, 0x0c,
  0x05, 0x03, 0x00, 0x01, 0xfe, 0xfc, 0xf3, 0xfd, 0xfd, 0xff, 0xe5, 0xed,
  0xff, 0x02, 0xf4, 0xfc, 0xe7, 0xe9, 0x00, 0x08, 0x00, 0xfb, 0xfe, 0xfd,
  0xec, 0xdf, 0x04, 0x00, 0xfd, 0xf4, 0x00, 0x02, 0xf9, 0xfe, 0xf3, 0xf5,
  0x01, 0xf8, 0xf1, 0x00, 0xf4, 0xfc, 0x01, 0xef, 0x05, 0x03, 0x00, 0xfb,
  0x07, 0xf7, 0x00, 0x07, 0xfd, 0xfb, 0x02, 0xe6, 0xfe, 0xef, 0x0c, 0x02,
  0x06, 0xf5, 0x06, 0x09, 0x02, 0xfd, 0x02, 0xf2, 0x05, 0xff, 0xfc, 0xff,
  0x05, 0xfc, 0x04, 0x00, 0x04, 0xfc, 0xfd, 0xfd, 0xf7, 0x01, 0xff, 0x00,
  0xff, 0xf7, 0x01, 0xf4, 0xf4, 0xf7, 0xfe, 0xfc, 0x03, 0xfe, 0x02, 0xf5,
  0x03, 0x03, 0xfd, 0xe8, 0xf1, 0xf5, 0xe7, 0xf3, 0x01, 0x06, 0x08, 0xf6,
  0x0a, 0xdf, 0xfe, 0xff, 0xfc, 0x02, 0xfd, 0xfe, 0x05, 0x08, 0x03, 0xf7,
  0xfa, 0xff, 0xfe, 0xf5, 0xff, 0xee, 0x04, 0x07, 0x0a, 0x09, 0xf1, 0xfd,
  0x06, 0x01, 0x05, 0x01, 0xf6, 0xff, 0x02, 0x08, 0xfb, 0xfd, 0x05, 0x03,
  0x0c, 0x06, 0x03, 0xe9, 0xf9, 0x02, 0xf9, 0xf5, 0x00, 0x07, 0xff, 0x05,
  0xf7, 0x02, 0xfa, 0xfc, 0x08, 0x05, 0x01, 0x05, 0x02, 0xec, 0x04, 0xff,
  0x07, 0x02, 0x03, 0x03, 0x03, 0xff, 0xf9, 0xff, 0xc9, 0xf6, 0x00, 0xf9,
  0xfe, 0xfe, 0x0d, 0xe9, 0x01, 0xf7, 0x01, 0xfa, 0xfa, 0xff, 0x01, 0x06,
  0xfe, 0x02, 0xf1, 0x03, 0xf7, 0xf2, 0xf9, 0xfd, 0xef, 0xef, 0xfc, 0x08,
  0xfc, 0xff, 0x06, 0x00, 0xfe, 0xf5, 0x03, 0xfd, 0xfe, 0x07, 0x01, 0xfb,
  0xf2, 0xff, 0x01, 0x02, 0x02, 0xff, 0x08, 0xfd, 0xfd, 0xf3, 0xf8, 0xfa,
  0xf6, 0xf9, 0xfa, 0xfe, 0x0a, 0x04, 0xdd, 0x0b, 0xfc, 0xf3, 0x01, 0x00,
  0x08, 0x04, 0x07, 0xe2, 0x01, 0xee, 0xfb, 0x02, 0xf4, 0xf0, 0xfc, 0x00,
  0xfd, 0xed, 0xf0, 0xf3, 0xfd, 0xfb, 0xfc, 0xfe, 0xff, 0xf2, 0x04, 0x02,
  0xfa, 0x00, 0xeb, 0xf2, 0x05, 0x02, 0x01, 0xe9, 0xfb, 0xfe, 0xf7, 0xfe,
  0x04, 0xf8, 0xfb, 0xfb, 0x01, 0x01, 0xf9, 0xe7, 0xed, 0xf1, 0x04, 0x06,
  0x07, 0xfa, 0xe5, 0x01, 0x00, 0xef, 0x0a, 0xfe, 0x08, 0x01, 0xfc, 0x04,
  0xff, 0x01, 0x01, 0xf1, 0xfe, 0xff, 0xf1, 0xfe, 0x0e, 0xb1, 0xf6, 0x00,
  0x03, 0x04, 0x02, 0xff, 0xfe, 0xf8, 0xf2, 0x06, 0xf7, 0xf5, 0xf9, 0xfb,
  0x01, 0xfc, 0x03, 0xf7, 0x07, 0xf3, 0x04, 0xf9, 0xfc, 0x09, 0xfe, 0xf5,
  0xff, 0xf7, 0xfe, 0xfc, 0x08, 0xf9, 0xfc, 0xf9, 0xfa, 0xfb, 0xfd, 0xf0,
  0xfe, 0xfd, 0xfc, 0xfe, 0xff, 0x0c, 0xf9, 0x06, 0xf9, 0x06, 0x02, 0xfb,
  0xf6, 0x08, 0x08, 0x03, 0xf2, 0x05, 0xf8, 0xf5, 0x04, 0xfc, 0xf6, 0xf4,
  0x00, 0x01, 0x06, 0x0b, 0xfd, 0xf9, 0x0a, 0xf8, 0xfb, 0x01, 0xff, 0xff,
  0x01, 0x05, 0x00, 0x03, 0xf4, 0x04, 0xed, 0xf3, 0x03, 0xe9, 0x01, 0x05,
  0xf9, 0x06, 0xf8, 0x02, 0x11, 0xf1, 0x00, 0xfe, 0x03, 0x05, 0x04, 0x04,
  0x09, 0x02, 0xfe, 0x02, 0x03, 0xff, 0xff, 0xfe, 0xfd, 0xfe, 0xfa, 0xf8,
  0x02, 0x04, 0xfe, 0x02, 0xff, 0x03, 0xfc, 0xff, 0xfd, 0x02, 0x00, 0xfd,
  0x00, 0x02, 0x04, 0x03, 0x01, 0xfc, 0xf5, 0x01, 0xfc, 0xff, 0xfe, 0x00,
  0xfe, 0xfe, 0xfd, 0xff, 0xfe, 0x01, 0x00, 0x02, 0xfd, 0x04, 0x03, 0xfa,
  0x00, 0x00, 0x00, 0x01, 0xfe, 0x01, 0xfc, 0xfd, 0x04, 0xfc, 0x00, 0xfd,
  0x01, 0x02, 0xff, 0x04, 0x02, 0x04, 0xff, 0x04, 0xfc, 0x04, 0x02, 0x02,
  0xfc, 0x03, 0x04, 0xfb, 0xf9, 0x03, 0xfe, 0xfe, 0x03, 0x03, 0x01, 0x03,
  0xfc, 0xfc, 0x00, 0x02, 0xfd, 0xff, 0x01, 0xfc, 0xfe, 0x02, 0x04, 0xfd,
  0xff, 0xff, 0x03, 0x01, 0x01, 0xff, 0xfc, 0xff, 0x00, 0xfd, 0x02, 0xfe,
  0xfe, 0xfd, 0x00, 0x05, 0xfb, 0x04, 0xfe, 0x01, 0xff, 0x00, 0xfd, 0xff,
  0x06, 0xf9, 0x01, 0xff, 0x02, 0x01, 0xfe, 0x00, 0xfd, 0x06, 0xfd, 0xfd,
  0xfd, 0xfb, 0x01, 0x00, 0x00, 0xfb, 0x02, 0x04, 0x02, 0xfb, 0xfb, 0x02,
  0xfb, 0xfd, 0x00, 0x06, 0x02, 0xff, 0x00, 0xfd, 0xfc, 0xfa, 0x00, 0xff,
  0x01, 0x02, 0x00, 0xfe, 0xff, 0x04, 0xff, 0xfe, 0xfc, 0x00, 0xfe, 0x02,
  0x00, 0x02, 0xff, 0xf5, 0x00, 0xfc, 0x02, 0xfc, 0x01, 0xfe, 0x01, 0xfd,
  0xfe, 0x00, 0x01, 0xfe, 0xfd, 0xfb, 0x03, 0xff, 0x05, 0x02, 0x01, 0xff,
  0xfc, 0xfb, 0xff, 0xff, 0x00, 0x04, 0x01, 0x00, 0xfe, 0xff, 0xfc, 0x02,
  0xfe, 0x01, 0x04, 0x01, 0xfd, 0x03, 0x00, 0xfb, 0x00, 0x06, 0x00, 0x02,
  0xfc, 0xff, 0x00, 0xfe, 0x00, 0x03, 0xfd, 0xfd, 0x04, 0xfd, 0x02, 0x02,
  0x02, 0x02, 0x02, 0xfd, 0xfe, 0xfe, 0x02, 0xff, 0x01, 0x02, 0x03, 0xfd,
  0xfa, 0x04, 0x03, 0xfc, 0x04, 0x02, 0xfb, 0xfe, 0x00, 0x02, 0xfe, 0xfb,
  0xfd, 0xfd, 0xfc, 0x01, 0x00, 0xfd, 0xfd, 0x04, 0x00, 0xfb, 0xfc, 0x03,
  0x03, 0x02, 0xff, 0x03, 0xff, 0x00, 0xfe, 0xfc, 0xff, 0x01, 0x02, 0x03,
  0x03, 0xfd, 0xff, 0xfe, 0xfe, 0x02, 0xfd, 0x01, 0x00, 0xfd, 0x03, 0x00,
  0x02, 0xfb, 0xfe, 0x01, 0xfc, 0x04, 0xfd, 0x04, 0xff, 0xff, 0xfc, 0xfe,
  0x00, 0x01, 0xfb, 0xff, 0xfe, 0xf7, 0xfc, 0xfd, 0x03, 0x03, 0xfc, 0x03,
  0x01, 0xfd, 0xff, 0xfc, 0xfb, 0xfe, 0x03, 0xfd, 0x00, 0x00, 0xfd, 0x02,
  0xfc, 0x02, 0x01, 0x02, 0xfe, 0xff, 0x04, 0xfc, 0xff, 0x02, 0x05, 0x02,
  0xfc, 0xfd, 0x07, 0xfe, 0xfb, 0xfc, 0xff, 0x06, 0x00, 0xff, 0xfe, 0x00,
  0x04, 0xfa, 0x00, 0x02, 0x02, 0xff, 0xfd, 0xfd, 0xff, 0xfc, 0x02, 0xfc,
  0xff, 0x04, 0xfa, 0x00, 0xfc, 0xfe, 0x05, 0x04, 0xfe, 0xff, 0xfe, 0xfb,
  0x03, 0x00, 0x01, 0x04, 0xfc, 0x03, 0xfd, 0x01, 0x02, 0xfe, 0x04, 0x03,
  0xfe, 0xff, 0xfc, 0xfc, 0xfa, 0x00, 0xfc, 0x04, 0xfd, 0xfd, 0x02, 0xfd,
  0xff, 0xf8, 0xfe, 0x02, 0xff, 0xfc, 0x03, 0x04, 0xff, 0x03, 0x00, 0xfe,
  0xfc, 0x02, 0xfc, 0xfd, 0xfe, 0x11, 0xfc, 0xfc, 0x03, 0x01, 0x03, 0x04,
  0x00, 0xfc, 0xff, 0xfd, 0xff, 0xfe, 0xfd, 0xff, 0x01, 0x02, 0xff, 0x03,
  0x00, 0xfe, 0x00, 0xfc, 0xfd, 0x01, 0xff, 0xfd, 0x00, 0x01, 0x00, 0x00,
  0x01, 0x01, 0x00, 0x01, 0xfd, 0x00, 0x04, 0xff, 0xfd, 0xfe, 0xfc, 0xfc,
  0xfd, 0x03, 0x04, 0xfe, 0x00, 0xff, 0x03, 0xfe, 0x02, 0x03, 0xfe, 0x02,
  0xfb, 0xfd, 0xfc, 0xf9, 0x04, 0x01, 0x01, 0x00, 0xfe, 0xfd, 0x01, 0xfd,
  0x00, 0xfd, 0x02, 0x03, 0xfb, 0xfe, 0x03, 0xfd, 0x01, 0xfd, 0xff, 0x00,
  0xfb, 0x02, 0xfc, 0xfc, 0xff, 0x04, 0x02, 0x01, 0xfe, 0x02, 0x02, 0xfe,
  0x02, 0xfd, 0x02, 0xfb, 0xff, 0x02, 0x00, 0x02, 0x05, 0x02, 0xfc, 0x04,
  0x02, 0x01, 0xfe, 0xf7, 0xf6, 0x00, 0xea, 0xf2, 0xfc, 0x04, 0xf7, 0xff,
  0x04, 0x00, 0x01, 0x02, 0x03, 0xfc, 0xfe, 0x01, 0xf5, 0x01, 0x00, 0xfe,
  0x02, 0xd9, 0xf1, 0xfe, 0x05, 0xff, 0x03, 0xea, 0xdb, 0x01, 0xf9, 0xff,
  0xf5, 0xf9, 0xff, 0x00, 0xdf, 0x04, 0xff, 0xd6, 0xf3, 0xfa, 0xfc, 0x03,
  0x03, 0x00, 0x03, 0xff, 0xf2, 0x06, 0xfb, 0x05, 0x08, 0xf8, 0x04, 0x01,
  0xfd, 0xfd, 0x02, 0xff, 0x06, 0xfb, 0x06, 0x02, 0xe6, 0xfd, 0x03, 0x01,
  0xff, 0x04, 0xfd, 0x00, 0x06, 0xfe, 0x03, 0x01, 0xfc, 0xff, 0x02, 0x00,
  0x04, 0xf5, 0xfd, 0xfe, 0x00, 0x00, 0x01, 0xe3, 0xfb, 0xfc, 0x03, 0xfe,
  0xff, 0xff, 0x03, 0x04, 0x05, 0xff, 0xfd, 0x03, 0x00, 0x01, 0xfa, 0xfc,
  0x00, 0x02, 0x07, 0xf5, 0xff, 0xfe, 0xd8, 0xf4, 0xe9, 0xed, 0xff, 0xfe,
  0x06, 0x05, 0x02, 0x03, 0x18, 0xfb, 0x01, 0x02, 0xfc, 0xfb, 0x00, 0xff,
  0xe5, 0x03, 0xe5, 0xfd, 0xff, 0xef, 0xfa, 0x02, 0xea, 0xfa, 0xfd, 0xf9,
  0xff, 0x01, 0x02, 0x02, 0x04, 0xf4, 0x00, 0x06, 0xfc, 0xfb, 0xff, 0xff,
  0xfc, 0xe8, 0x02, 0xff, 0x02, 0xda, 0xfe, 0x07, 0x03, 0xff, 0x01, 0xf5,
  0x00, 0x01, 0x00, 0x02, 0x03, 0xfd, 0x00, 0x03, 0x01, 0xfb, 0x04, 0x05,
  0xfc, 0x04, 0xf8, 0x01, 0xfd, 0xff, 0x03, 0xfc, 0xf3, 0xf7, 0xfd, 0xc4,
  0x01, 0xff, 0x03, 0x00, 0x01, 0xfb, 0x01, 0xfc, 0xf0, 0xf5, 0xfc, 0xfd,
  0x01, 0x01, 0x03, 0x02, 0x01, 0x00, 0xfb, 0xfc, 0xf9, 0x03, 0xfb, 0xff,
  0xff, 0x05, 0x03, 0xe6, 0xfc, 0x03, 0x03, 0xf6, 0x03, 0xfe, 0x00, 0x01,
  0xff, 0x04, 0xf3, 0xfc, 0x06, 0x03, 0x04, 0x02, 0x00, 0xff, 0x02, 0x01,
  0xfd, 0x02, 0xff, 0x02, 0x06, 0x05, 0x03, 0xf6, 0x11, 0x04, 0x02, 0xf4,
  0xfd, 0x05, 0x02, 0x00, 0xfb, 0x02, 0xfc, 0x08, 0xff, 0x02, 0xfe, 0x03,
  0xc5, 0x06, 0x01, 0x02, 0xff, 0xfe, 0xfd, 0x03, 0x03, 0x03, 0xfb, 0xfa,
  0xfc, 0xfe, 0x05, 0xfc, 0xfd, 0x05, 0x03, 0xff, 0x02, 0x05, 0xfe, 0xfe,
  0xfc, 0x05, 0xfd, 0x05, 0x00, 0xfb, 0xfa, 0x00, 0x03, 0xf4, 0xfc, 0xff,
  0xe9, 0xf6, 0x02, 0x01, 0x00, 0xfc, 0xff, 0xff, 0xff, 0xf4, 0x00, 0x03,
  0x05, 0x04, 0x01, 0xff, 0xf7, 0x02, 0xff, 0xff, 0x04, 0xfc, 0x03, 0x00,
  0xfd, 0xed, 0xfe, 0xfc, 0xfd, 0xfe, 0xfc, 0x01, 0x01, 0x06, 0xff, 0x07,
  0xff, 0xda, 0xfe, 0xfd, 0x04, 0x05, 0x05, 0x00, 0xfc, 0xf2, 0xf5, 0xff,
  0x01, 0xfd, 0x04, 0xf8, 0x05, 0x00, 0x16, 0xfb, 0x05, 0x00, 0x03, 0xff,
  0xff, 0x04, 0xfd, 0xfe, 0xff, 0x02, 0x01, 0xe9, 0x04, 0x01, 0x00, 0xc1,
  0x03, 0xfc, 0xfe, 0x07, 0xff, 0xf9, 0xfb, 0xfd, 0x04, 0x05, 0xea, 0xf6,
  0xf3, 0xfd, 0x06, 0x07, 0x00, 0xfc, 0xfb, 0xfe, 0xfd, 0xef, 0x00, 0xfd,
  0x00, 0x01, 0xfd, 0x05, 0x03, 0xff, 0x02, 0xf5, 0x01, 0xfc, 0xf3, 0x01,
  0x04, 0xea, 0xfa, 0xfe, 0x01, 0xff, 0xfe, 0xfe, 0xfc, 0x00, 0x01, 0x02,
  0x1d, 0xed, 0x00, 0x06, 0x01, 0xfd, 0x02, 0xff, 0x00, 0xfe, 0xff, 0xfb,
  0x01, 0xff, 0x02, 0xef, 0x03, 0xf0, 0xfd, 0x03, 0x04, 0x05, 0xff, 0xfe,
  0x00, 0xf9, 0xff, 0xdc, 0x00, 0x02, 0xff, 0x01, 0xfe, 0xff, 0xec, 0x06,
  0xd2, 0xff, 0x00, 0xff, 0x02, 0x02, 0x00, 0xff, 0xf8, 0xff, 0xfe, 0xf6,
  0x03, 0x04, 0xf1, 0xfe, 0x04, 0x01, 0x04, 0xfe, 0x0a, 0xfd, 0xfc, 0x00,
  0x01, 0x03, 0x03, 0xfd, 0x04, 0x01, 0x03, 0x06, 0xf1, 0xff, 0xee, 0xe9,
  0x03, 0x19, 0x02, 0x00, 0xde, 0xfe, 0xfb, 0xfe, 0xf8, 0xfe, 0xfd, 0xfc,
  0x02, 0x02, 0x04, 0xfe, 0x01, 0xfd, 0x02, 0xff, 0x00, 0x01, 0xfd, 0xfe,
  0xff, 0xed, 0xfb, 0xfe, 0xff, 0x02, 0x01, 0xfe, 0x06, 0x02, 0xfa, 0xff,
  0x03, 0xfe, 0xff, 0xff, 0xfd, 0xfe, 0x01, 0xf4, 0xdc, 0xfe, 0x00, 0xf4,
  0x04, 0xfe, 0xf0, 0x01, 0x01, 0xf5, 0xfd, 0x06, 0xf1, 0x04, 0xfa, 0x05,
  0xfe, 0xec, 0x03, 0x02, 0xba, 0x06, 0xfb, 0xfc, 0x04, 0xfc, 0x01, 0xfb,
  0x00, 0x02, 0xfd, 0xfd, 0xfe, 0x01, 0xff, 0xfa, 0x01, 0x03, 0xfa, 0x01,
  0x00, 0xfa, 0xf9, 0xff, 0x00, 0xf4, 0x04, 0x05, 0x00, 0xfe, 0xf5, 0xff,
  0x00, 0xfe, 0xf1, 0xfd, 0x01, 0xef, 0x03, 0xfb, 0x00, 0xff, 0xfd, 0x05,
  0xff, 0xef, 0x02, 0x00, 0xfd, 0xd1, 0x04, 0xfe, 0xf5, 0xe6, 0xf5, 0xff,
  0xfd, 0xff, 0xff, 0x00, 0xf7, 0x04, 0xfd, 0xff, 0xf9, 0x02, 0xfa, 0x03,
  0xfd, 0x01, 0x00, 0x06, 0xf9, 0x01, 0xfc, 0x05, 0x02, 0xfd, 0x05, 0x00,
  0xfd, 0xff, 0xfe, 0x03, 0x05, 0x03, 0x01, 0xfe, 0x04, 0xff, 0x00, 0xf8,
  0xee, 0x04, 0x00, 0xfe, 0xfe, 0x04, 0x04, 0x00, 0x01, 0x02, 0x02, 0x01,
  0x01, 0xfe, 0x04, 0xfa, 0x02, 0x01, 0xfe, 0x01, 0x02, 0xfd, 0x03, 0xfb,
  0x01, 0xff, 0x00, 0x01, 0x02, 0xee, 0xfc, 0x03, 0xf5, 0x01, 0xf5, 0xf6,
  0xf1, 0x01, 0xfb, 0xff, 0xff, 0x00, 0xe7, 0x00, 0x00, 0x02, 0xfe, 0x04,
  0x01, 0xf8, 0xeb, 0xf7, 0x03, 0xfb, 0xff, 0xfc, 0x02, 0xe8, 0x02, 0xff,
  0x02, 0xfd, 0xff, 0xfc, 0xfb, 0xf9, 0x00, 0x00, 0xf6, 0xfd, 0xf8, 0xfe,
  0xf3, 0xf8, 0x01, 0x05, 0x02, 0x03, 0xff, 0xf2, 0x03, 0x06, 0x05, 0x03,
  0x01, 0xfa, 0xff, 0xee, 0xff, 0xfd, 0xf1, 0x02, 0xff, 0xff, 0x01, 0xff,
  0xfd, 0xfe, 0xfe, 0xff, 0xfd, 0xff, 0x0b, 0x04, 0xff, 0xe4, 0x05, 0x03,
  0x03, 0xfe, 0xfd, 0x01, 0x01, 0xfa, 0x03, 0x05, 0x03, 0x01, 0xfa, 0xfa,
  0xfe, 0xf9, 0xfc, 0x00, 0x03, 0x02, 0x03, 0x05, 0x03, 0x04, 0xfd, 0xfa,
  0x03, 0x03, 0xfe, 0xff, 0x05, 0xff, 0xfa, 0xfe, 0xf7, 0x00, 0xfd, 0x06,
  0xfa, 0xfc, 0x01, 0xfc, 0xfc, 0x00, 0x06, 0xfd, 0xf9, 0x03, 0xfb, 0xfd,
  0xfd, 0xff, 0x00, 0x02, 0xf9, 0x00, 0xfd, 0xdf, 0xf3, 0x04, 0x04, 0x04,
  0xfb, 0x02, 0x05, 0x02, 0x05, 0x01, 0xf4, 0xf7, 0xea, 0xfd, 0x01, 0x05,
  0xfe, 0xff, 0x04, 0x05, 0xff, 0xe8, 0xf4, 0x02, 0xf7, 0xfb, 0x00, 0xec,
  0xff, 0x00, 0x05, 0x05, 0x03, 0xfc, 0x01, 0x04, 0xdc, 0xfe, 0xf0, 0xff,
  0x04, 0x04, 0x01, 0xea, 0xfb, 0xfa, 0x03, 0xfe, 0xfa, 0x01, 0x01, 0x00,
  0xfb, 0xfc, 0x03, 0xf1, 0xfb, 0x02, 0x01, 0xda, 0xfe, 0xfe, 0xfd, 0xff,
  0xfa, 0x01, 0x02, 0xfd, 0x01, 0xfd, 0xfc, 0xfd, 0xfc, 0x00, 0xf5, 0x05,
  0x01, 0x02, 0xfc, 0xfb, 0x05, 0xff, 0x03, 0xf8, 0x01, 0x01, 0x02, 0x03,
  0xf4, 0xff, 0xfe, 0x01, 0xfd, 0xed, 0xff, 0x02, 0xfc, 0xf9, 0xeb, 0x04,
  0x02, 0xfd, 0x05, 0xfe, 0x04, 0xf7, 0xf8, 0xfa, 0x02, 0x02, 0xe3, 0x01,
  0x03, 0xfd, 0xf7, 0x00, 0xdb, 0xfe, 0x01, 0xfc, 0x03, 0xfe, 0xf5, 0xff,
  0xe5, 0x02, 0x01, 0x02, 0xf7, 0xfe, 0xff, 0x03, 0x03, 0x01, 0xe7, 0x00,
  0xfa, 0xfc, 0x00, 0x00, 0xff, 0x04, 0xfd, 0xfb, 0x09, 0x01, 0x03, 0xff,
  0xfc, 0xf3, 0xfb, 0xfd, 0x04, 0x03, 0x01, 0xff, 0x02, 0x02, 0xf3, 0x01,
  0xfd, 0x06, 0x01, 0x04, 0x05, 0x01, 0xfd, 0x04, 0x01, 0xf9, 0xfc, 0xff,
  0xfe, 0xf8, 0xff, 0x04, 0x02, 0xfd, 0x03, 0x00, 0xfc, 0x03, 0xfb, 0xfe,
  0x02, 0xfa, 0xf8, 0x01, 0xee, 0x06, 0xf3, 0x01, 0xfd, 0x01, 0xf9, 0xf9,
  0xfc, 0xf9, 0xfb, 0xfd, 0x00, 0xfd, 0xf2, 0xfe, 0xfc, 0xfe, 0xfc, 0x00,
  0xfe, 0xfe, 0x00, 0x00, 0x03, 0xf5, 0x04, 0x01, 0x00, 0x03, 0xfa, 0x04,
  0xff, 0x04, 0xff, 0x01, 0x06, 0x05, 0x05, 0x06, 0x05, 0xf8, 0xfc, 0xfe,
  0x05, 0x04, 0xfb, 0x07, 0x01, 0xf6, 0x02, 0x04, 0x07, 0xfb, 0x04, 0xfe,
  0xf9, 0x06, 0xfd, 0x07, 0x01, 0xfc, 0xf8, 0xf4, 0xf9, 0xfd, 0x03, 0xf8,
  0xef, 0x04, 0xf5, 0xf8, 0xf8, 0xfa, 0xfe, 0xfa, 0xf3, 0x01, 0x02, 0xfd,
  0xfe, 0xee, 0x05, 0xed, 0x04, 0xff, 0xf6, 0xf8, 0x09, 0xf0, 0x04, 0x08,
  0xfd, 0x02, 0xf9, 0x02, 0xf3, 0xfe, 0xf8, 0xfd, 0xff, 0x00, 0xfd, 0x00,
  0x03, 0x00, 0x03, 0xff, 0xfc, 0x07, 0xf2, 0xee, 0xf3, 0xfa, 0xf7, 0xfd,
  0xef, 0xf6, 0xfe, 0x03, 0xf7, 0xfd, 0x00, 0x03, 0x02, 0x0c, 0xf6, 0x03,
  0x02, 0xf5, 0x01, 0xff, 0x00, 0x02, 0xfd, 0xf6, 0x01, 0x00, 0xfb, 0x01,
  0xf2, 0x05, 0xf9, 0x05, 0x00, 0x02, 0xf9, 0xf4, 0xfd, 0xf5, 0x00, 0xf7,
  0x00, 0x03, 0x03, 0xff, 0xfb, 0xfd, 0xfc, 0x01, 0xff, 0x03, 0xe9, 0x05,
  0xf8, 0xff, 0xf9, 0xf1, 0xfc, 0xf6, 0xff, 0xf2, 0x07, 0xf7, 0xfe, 0x06,
  0x05, 0xfe, 0x07, 0xfc, 0xff, 0xf7, 0x08, 0x03, 0x00, 0xf5, 0xfe, 0x09,
  0x00, 0xf7, 0x00, 0x01, 0x05, 0xff, 0xf5, 0x03, 0x02, 0x02, 0x04, 0x04,
  0x09, 0xf1, 0x01, 0x03, 0xf1, 0xf5, 0x03, 0x03, 0xf7, 0xfc, 0x00, 0xfc,
  0xff, 0xea, 0x02, 0xfa, 0xfe, 0xfc, 0x01, 0xf7, 0x04, 0xfb, 0x00, 0xf9,
  0x04, 0xf6, 0xf5, 0xfe, 0x01, 0x07, 0x03, 0xfe, 0x03, 0xf3, 0x02, 0xf3,
  0xed, 0x01, 0xf1, 0xff, 0x04, 0xf9, 0x09, 0xf6, 0xf9, 0x01, 0x01, 0xeb,
  0x02, 0xfb, 0xfd, 0xfa, 0x02, 0x0a, 0x03, 0x00, 0x02, 0xfb, 0x02, 0x03,
  0x00, 0xfe, 0x04, 0xff, 0xfa, 0xfd, 0x07, 0x04, 0x07, 0xfc, 0x05, 0x05,
  0x03, 0x03, 0x00, 0x07, 0x03, 0x08, 0xfa, 0x05, 0xf4, 0xf4, 0xef, 0x00,
  0x05, 0x07, 0x02, 0x0b, 0xf1, 0x04, 0xee, 0xfb, 0x08, 0xfe, 0x00, 0x01,
  0x07, 0xfc, 0xf8, 0xfe, 0xfa, 0xed, 0x00, 0x00, 0xf2, 0xfd, 0x07, 0xfe,
  0x04, 0x05, 0x05, 0xfa, 0x06, 0x01, 0xf9, 0xfe, 0xf5, 0x00, 0xe1, 0xff,
  0x07, 0xfc, 0x00, 0xfb, 0x02, 0x00, 0x07, 0x0b, 0xfe, 0xfe, 0x06, 0x04,
  0xfb, 0xf9, 0xfd, 0xf7, 0x05, 0x01, 0x01, 0xfd, 0xf2, 0xff, 0x03, 0x02,
  0x04, 0xf7, 0x03, 0xf3, 0x01, 0xf8, 0xf5, 0xf9, 0x13, 0x06, 0x05, 0xf9,
  0x06, 0xfd, 0xf9, 0x05, 0xfc, 0xf8, 0x04, 0xff, 0x02, 0xf4, 0x03, 0xfd,
  0x01, 0x01, 0xfd, 0x00, 0x00, 0xef, 0x03, 0x07, 0xfc, 0xf9, 0x03, 0xff,
  0xfd, 0xff, 0xff, 0xf5, 0x01, 0x01, 0x01, 0x04, 0xfe, 0x00, 0xfe, 0x02,
  0x08, 0x04, 0x07, 0xf5, 0x04, 0xfb, 0x02, 0xfd, 0xfc, 0xf8, 0xf9, 0xf3,
  0xf8, 0xfd, 0xff, 0xfc, 0x03, 0x05, 0xfe, 0xff, 0x03, 0xeb, 0xfe, 0x02,
  0xf0, 0xfe, 0x04, 0xf6, 0x04, 0xff, 0xfd, 0xfa, 0x04, 0x01, 0x04, 0x02,
  0x05, 0xfb, 0xe1, 0xff, 0x04, 0xdd, 0xf3, 0xfc, 0xfd, 0xfd, 0x02, 0xfe,
  0xf6, 0xfe, 0x11, 0xff, 0x02, 0x05, 0xff, 0x02, 0x00, 0xf5, 0xff, 0xf6,
  0x02, 0xfe, 0x04, 0x07, 0x02, 0x02, 0x01, 0xf8, 0x02, 0xfa, 0xf8, 0x00,
  0x04, 0xfe, 0xfd, 0xfe, 0x04, 0xff, 0xf4, 0xfa, 0x00, 0x00, 0xff, 0x00,
  0xf4, 0x01, 0xf8, 0xff, 0xf5, 0x09, 0x00, 0xf8, 0xf2, 0xfa, 0xfe, 0x04,
  0x05, 0x05, 0x10, 0xff, 0x02, 0xff, 0xef, 0xfd, 0x00, 0x04, 0x04, 0x04,
  0xf6, 0xf8, 0xfa, 0x01, 0x02, 0xff, 0x03, 0xfb, 0xfc, 0x01, 0xfc, 0x01,
  0x03, 0x04, 0xfc, 0xfc, 0x02, 0x00, 0x03, 0x08, 0xf4, 0xff, 0xf6, 0xfd,
  0xf5, 0xff, 0xfc, 0xf5, 0xf9, 0xfb, 0xf9, 0x02, 0x00, 0xfe, 0x02, 0x07,
  0x03, 0x02, 0x02, 0xfc, 0x01, 0x02, 0x01, 0x02, 0xfd, 0x00, 0x00, 0xfd,
  0xfc, 0xfe, 0xff, 0xff, 0x00, 0xfd, 0x03, 0x00, 0x00, 0xff, 0xfc, 0x02,
  0xff, 0xfe, 0x02, 0xfc, 0x01, 0x03, 0xfd, 0x00, 0x01, 0xfd, 0x03, 0x02,
  0x02, 0xfc, 0x04, 0xfe, 0x00, 0xfc, 0x03, 0x04, 0xfd, 0xfe, 0x00, 0xff,
  0xfd, 0x03, 0x00, 0x03, 0xff, 0x02, 0xfc, 0xfe, 0x00, 0xfd, 0xfc, 0x03,
  0xfe, 0x03, 0xfe, 0xff, 0x02, 0x03, 0x00, 0x02, 0x03, 0xfc, 0xfe, 0x01,
  0x01, 0xfe, 0xff, 0x01, 0x04, 0xfd, 0xfe, 0x00, 0xff, 0xfe, 0xfd, 0x01,
  0x02, 0x02, 0x01, 0xfd, 0xff, 0xfe, 0xfc, 0xff, 0x03, 0x00, 0xfd, 0x00,
  0xfe, 0x03, 0xfd, 0xfd, 0xfe, 0xfd, 0xfb, 0x02, 0xfd, 0xfe, 0xfc, 0xfc,
  0xfc, 0xff, 0x01, 0x01, 0xfe, 0xfc, 0x01, 0xfe, 0x00, 0xfc, 0xfb, 0xff,
  0x02, 0x00, 0x04, 0xff, 0x02, 0xff, 0x03, 0xfd, 0x02, 0xfc, 0xff, 0xff,
  0xfd, 0x01, 0xff, 0xfe, 0xff, 0xff, 0x02, 0xff, 0xff, 0xfc, 0xfd, 0xfe,
  0x03, 0x04, 0xfc, 0x00, 0x01, 0xfd, 0x02, 0x02, 0xfd, 0xfc, 0x02, 0xff,
  0x04, 0xfe, 0xfe, 0x04, 0x02, 0xfe, 0xfc, 0xfe, 0x00, 0x00, 0x03, 0x04,
  0xff, 0xff, 0xff, 0x03, 0x03, 0x03, 0xff, 0xff, 0x03, 0xff, 0x00, 0xff,
  0x00, 0xfe, 0xff, 0xfe, 0xfe, 0xfd, 0xfd, 0x03, 0xfd, 0x04, 0x03, 0x01,
  0x01, 0x01, 0xfe, 0xfd, 0xfb, 0x00, 0x00, 0xfd, 0xfd, 0x04, 0xfe, 0x03,
  0xfe, 0x04, 0x01, 0xfd, 0xff, 0xfb, 0x04, 0x00, 0xfe, 0x03, 0xfd, 0x01,
  0xfd, 0x03, 0xff, 0xfc, 0x03, 0x03, 0x03, 0x03, 0x00, 0x03, 0xff, 0x00,
  0x00, 0xfc, 0x00, 0xfd, 0xfe, 0x03, 0x03, 0xfe, 0x02, 0xff, 0xfd, 0x03,
  0x04, 0x04, 0x03, 0x01, 0x04, 0xff, 0xfd, 0x04, 0x01, 0xfc, 0x03, 0xfd,
  0x00, 0x00, 0x01, 0xff, 0xfd, 0xff, 0xfd, 0xfd, 0xfb, 0x00, 0x01, 0xfc,
  0xfc, 0x01, 0xfc, 0x00, 0xfd, 0x00, 0x03, 0x00, 0x01, 0xfd, 0x01, 0xff,
  0xfc, 0x03, 0x02, 0x00, 0x01, 0xff, 0x03, 0xff, 0x04, 0xff, 0x03, 0x02,
  0xfe, 0xfe, 0xff, 0x03, 0x02, 0x01, 0x01, 0x00, 0xfe, 0xfc, 0x02, 0xfe,
  0xfd, 0x03, 0x01, 0xfd, 0x00, 0xfd, 0xfd, 0xfe, 0xfb, 0x02, 0xfc, 0xfd,
  0x00, 0xfd, 0xff, 0xfc, 0xfe, 0xfc, 0x00, 0xfb, 0xfd, 0x02, 0x01, 0x00,
  0x00, 0xfb, 0x02, 0x01, 0xfc, 0xfd, 0x00, 0x02, 0xfc, 0x01, 0x00, 0xfc,
  0x03, 0x00, 0x02, 0x04, 0x02, 0x00, 0x03, 0xfd, 0x02, 0xfc, 0x01, 0xff,
  0x03, 0xfc, 0xff, 0x03, 0xff, 0x03, 0xfe, 0x00, 0xfd, 0xfd, 0xff, 0x02,
  0x01, 0x02, 0x03, 0x02, 0xfe, 0xff, 0xfc, 0xfb, 0xff, 0xfc, 0xff, 0xfc,
  0x02, 0xff, 0xfd, 0xff, 0x02, 0x01, 0x00, 0x02, 0xfe, 0x02, 0x03, 0xfc,
  0xff, 0xfe, 0x01, 0x04, 0xfc, 0xff, 0x02, 0x03, 0x00, 0x00, 0xfb, 0x02,
  0x00, 0xfd, 0x03, 0xfd, 0xfb, 0x02, 0xfc, 0xfc, 0xff, 0x04, 0xfe, 0x03,
  0xfe, 0x01, 0x05, 0xfd, 0x03, 0xfe, 0xff, 0xfc, 0xfe, 0xfd, 0x04, 0x02,
  0xff, 0xfe, 0xfc, 0x01, 0xfd, 0xfe, 0xfc, 0xfe, 0x04, 0x02, 0x01, 0xfc,
  0x03, 0x01, 0x04, 0x02, 0xfe, 0xfb, 0xff, 0x00, 0xfc, 0xfb, 0xff, 0xff,
  0xff, 0x00, 0xfe, 0x00, 0x03, 0xff, 0xfb, 0x01, 0xfc, 0xfe, 0x04, 0x03,
  0x03, 0xff, 0x05, 0xfd, 0x03, 0x03, 0xfc, 0x03, 0x00, 0xfb, 0xfc, 0x02,
  0xfc, 0x03, 0xff, 0x03, 0xff, 0xfe, 0x02, 0x01, 0xff, 0x02, 0xff, 0xfe,
  0xfc, 0xfd, 0x04, 0x03, 0xff, 0x02, 0x01, 0x01, 0x00, 0x01, 0xfe, 0xfc,
  0x03, 0xfc, 0x00, 0x02, 0x03, 0xfe, 0xfe, 0xfc, 0xfd, 0xfe, 0xff, 0xfd,
  0x02, 0xfd, 0x00, 0x00, 0xfc, 0x02, 0x03, 0x00, 0x02, 0xf6, 0xfd, 0xfe,
  0x03, 0xfb, 0xfd, 0xfb, 0x01, 0xff, 0x00, 0xfd, 0x00, 0x02, 0x01, 0x04,
  0xfc, 0xf7, 0x02, 0xfc, 0xfc, 0x01, 0xfe, 0xfa, 0xfa, 0xf6, 0xfc, 0x00,
  0x04, 0xfe, 0xfa, 0xf9, 0xf9, 0xf8, 0xea, 0x05, 0xff, 0xf7, 0x03, 0x02,
  0xf6, 0xfc, 0xfe, 0xf6, 0xea, 0x01, 0xfb, 0xfe, 0x02, 0x00, 0xfe, 0xf5,
  0xf7, 0x06, 0x01, 0xfe, 0xff, 0xff, 0x04, 0xf3, 0x04, 0xfe, 0xfb, 0xfb,
  0x00, 0xfa, 0x02, 0xfe, 0xf9, 0x01, 0xfd, 0x05, 0xf8, 0x04, 0xfa, 0x02,
  0xfd, 0x02, 0x00, 0x02, 0x01, 0x02, 0x03, 0xfe, 0xff, 0xff, 0xf8, 0x02,
  0x03, 0x01, 0xfb, 0xfe, 0x02, 0xf1, 0x00, 0x00, 0xff, 0xfa, 0x01, 0x00,
  0xfd, 0x04, 0x00, 0x00, 0xf3, 0xff, 0x03, 0xfd, 0x04, 0xfc, 0x05, 0xe9,
  0xfa, 0xfb, 0xfa, 0xfc, 0xfa, 0xfc, 0x01, 0x00, 0xfd, 0xfc, 0x03, 0xff,
  0xfd, 0xf4, 0xff, 0x00, 0xff, 0xfd, 0xff, 0x00, 0xfa, 0x00, 0xfc, 0xfe,
  0xf9, 0xfa, 0xfa, 0xf7, 0xfa, 0x00, 0x02, 0xfa, 0xfd, 0x02, 0xfd, 0x03,
  0x02, 0xf2, 0x02, 0xfe, 0xfe, 0xf3, 0xfd, 0xfa, 0x03, 0xfb, 0x03, 0x03,
  0x04, 0xf9, 0x03, 0xfe, 0xff, 0xfa, 0xff, 0xfa, 0x01, 0xf9, 0xfe, 0x02,
  0xfa, 0xfe, 0x03, 0x03, 0x03, 0x04, 0xfd, 0xfd, 0xfa, 0xfe, 0x00, 0x02,
  0x01, 0xe7, 0xfa, 0xe6, 0xff, 0x00, 0x00, 0xfa, 0x00, 0xfd, 0x01, 0xf2,
  0xfc, 0xfc, 0xff, 0xfd, 0x01, 0xda, 0xf6, 0xfa, 0x01, 0xff, 0x01, 0xfd,
  0xfc, 0xf9, 0xfd, 0xfd, 0x01, 0x01, 0xfe, 0x01, 0x02, 0x04, 0x00, 0xfd,
  0xf4, 0xff, 0x02, 0xf3, 0x00, 0xfa, 0xfa, 0xfc, 0x00, 0x00, 0x01, 0xff,
  0xf9, 0x03, 0x02, 0x02, 0x01, 0xfc, 0xfd, 0x00, 0xfa, 0xf7, 0xff, 0xfe,
  0xfe, 0xfe, 0xfb, 0x00, 0xfb, 0xf5, 0xf8, 0x00, 0x00, 0x04, 0x01, 0xff,
  0x02, 0xfd, 0xfe, 0xfd, 0x04, 0xfe, 0x05, 0x00, 0x02, 0x02, 0xf4, 0xfe,
  0x00, 0x04, 0x03, 0x04, 0xfd, 0xef, 0xdd, 0xfe, 0xf5, 0xff, 0xfd, 0x03,
  0xf3, 0x04, 0x00, 0xf9, 0xfc, 0x00, 0x01, 0xfc, 0xfe, 0xfc, 0x00, 0x01,
  0xf5, 0x01, 0xfd, 0x00, 0x04, 0xf7, 0xfe, 0xfc, 0xfb, 0xff, 0x00, 0x01,
  0xfd, 0x00, 0x02, 0xff, 0x03, 0xff, 0x03, 0xf7, 0xf9, 0x00, 0xfd, 0xfd,
  0xfa, 0xfa, 0xfd, 0xff, 0xfb, 0x02, 0xfb, 0x00, 0xfe, 0xfc, 0xfd, 0xf3,
  0xfb, 0x01, 0xfa, 0x02, 0x04, 0x01, 0xfb, 0x02, 0xff, 0xf9, 0xf8, 0x04,
  0x03, 0x03, 0x05, 0xfe, 0x02, 0x04, 0x00, 0x04, 0xfc, 0xf9, 0x00, 0x00,
  0xfc, 0xfd, 0xfe, 0xff, 0xfd, 0xfa, 0xfc, 0xfc, 0x02, 0xff, 0xfd, 0xff,
  0xe7, 0xff, 0x00, 0x01, 0xfe, 0xfc, 0x00, 0xf9, 0x03, 0xf9, 0x02, 0x05,
  0x00, 0xfa, 0xfa, 0x01, 0xff, 0x01, 0xfc, 0x00, 0x00, 0xfb, 0xfe, 0xfa,
  0xf9, 0x04, 0xfe, 0x01, 0xf3, 0x01, 0xfe, 0x01, 0xfb, 0xfd, 0xf8, 0x04,
  0x03, 0xed, 0xfe, 0x00, 0x04, 0xfe, 0xfa, 0xf8, 0x01, 0xed, 0xf1, 0x03,
  0x00, 0xfe, 0xfe, 0xfc, 0x01, 0xfd, 0xfe, 0xfc, 0x02, 0xfa, 0x01, 0xfe,
  0xfd, 0x00, 0x02, 0xfc, 0xfd, 0x01, 0xfb, 0x01, 0xfe, 0x00, 0xfe, 0xf9,
  0x03, 0xfd, 0xf5, 0x04, 0x03, 0xfe, 0xf7, 0xfa, 0xfc, 0x01, 0x01, 0xf5,
  0xfd, 0xff, 0xfb, 0xe5, 0x02, 0xff, 0xfb, 0x02, 0xfa, 0x03, 0xfb, 0x04,
  0xfb, 0x02, 0x04, 0x01, 0xff, 0xfe, 0x01, 0xfa, 0xff, 0xff, 0xfa, 0xfc,
  0xfb, 0xf8, 0x04, 0x01, 0x01, 0xdd, 0xf9, 0x00, 0xfd, 0xff, 0xfd, 0xfb,
  0x00, 0xfc, 0x00, 0xfd, 0xfe, 0xf7, 0x04, 0xfe, 0x05, 0xfa, 0xf8, 0xff,
  0xf8, 0xfc, 0xea, 0xfd, 0xfa, 0x01, 0xed, 0xf5, 0x02, 0x00, 0x01, 0x05,
  0xfc, 0xff, 0xfb, 0xfa, 0x02, 0xfd, 0xfe, 0xfb, 0xfd, 0x00, 0xfc, 0xff,
  0x04, 0x02, 0x00, 0xff, 0xff, 0x02, 0xff, 0x02, 0x03, 0x01, 0x02, 0x03,
  0xfb, 0x02, 0xfe, 0x00, 0x00, 0xfe, 0xfc, 0xfc, 0x04, 0x03, 0xff, 0xfd,
  0xfe, 0xfc, 0xfe, 0xff, 0xfd, 0x00, 0x01, 0xff, 0xfc, 0xff, 0x00, 0x02,
  0x01, 0xfe, 0xfc, 0x01, 0xff, 0x01, 0xfd, 0x05, 0x00, 0xfb, 0xfc, 0x03,
  0xff, 0xff, 0x00, 0xff, 0x00, 0x03, 0xfe, 0xfc, 0xff, 0xff, 0xfc, 0xfe,
  0x04, 0xfe, 0x02, 0xff, 0xfe, 0x00, 0x00, 0xfb, 0x02, 0xff, 0x00, 0x00,
  0x00, 0x03, 0xfc, 0xfd, 0xff, 0x02, 0x04, 0x02, 0x00, 0xff, 0x02, 0x02,
  0x03, 0xfd, 0xfd, 0x03, 0x01, 0x03, 0xff, 0x01, 0xfc, 0xfd, 0xfe, 0x03,
  0xfd, 0x04, 0xfe, 0xfe, 0x04, 0xfc, 0xff, 0xff, 0x03, 0x01, 0xff, 0x02,
  0xfd, 0x01, 0x00, 0xfd, 0x03, 0xfc, 0xff, 0xfd, 0x02, 0x04, 0x02, 0x00,
  0x04, 0xfc, 0x00, 0x03, 0x00, 0xff, 0x03, 0x02, 0x02, 0xfc, 0x01, 0x03,
  0x04, 0x00, 0xfc, 0xfc, 0xfd, 0xfd, 0xff, 0xfe, 0xfc, 0x00, 0xfe, 0xff,
  0xfb, 0x00, 0xff, 0x00, 0x00, 0x03, 0xff, 0xfd, 0x03, 0x02, 0x02, 0x02,
  0x03, 0xfd, 0xfd, 0x02, 0x01, 0x01, 0x00, 0x04, 0xfe, 0xfe, 0xfd, 0x02,
  0xff, 0xfd, 0xfd, 0x02, 0x02, 0xff, 0x00, 0xff, 0xfd, 0x01, 0x02, 0xfc,
  0xfd, 0xfd, 0x00, 0xfd, 0xfd, 0x04, 0xfe, 0xfe, 0xfe, 0x04, 0xfb, 0xfe,
  0x01, 0x00, 0x02, 0xff, 0x02, 0x00, 0x03, 0xfe, 0xfc, 0x03, 0x01, 0xff,
  0x04, 0xfe, 0xfd, 0x02, 0x02, 0x01, 0x01, 0x01, 0xfd, 0x00, 0x04, 0xfe,
  0xfe, 0xfe, 0xfe, 0xfe, 0xfe, 0xfd, 0x03, 0x00, 0xff, 0xfc, 0x02, 0x01,
  0x03, 0x02, 0x03, 0x03, 0x02, 0xfd, 0x03, 0x00, 0x01, 0x02, 0x02, 0x01,
  0xfe, 0x01, 0xfc, 0xfe, 0xfe, 0xfc, 0x01, 0x02, 0xfd, 0x02, 0xfc, 0x02,
  0x01, 0xfd, 0xfb, 0xfe, 0x02, 0xfd, 0x00, 0xfe, 0x00, 0xff, 0xff, 0x02,
  0x00, 0xfe, 0x02, 0x01, 0x02, 0xfd, 0x01, 0xfc, 0xfe, 0x02, 0xfd, 0x00,
  0xfe, 0xfd, 0x04, 0x02, 0xff, 0xfd, 0xff, 0x03, 0xfe, 0xfd, 0x02, 0x02,
  0xfd, 0xfd, 0x00, 0x03, 0xfb, 0x02, 0xfd, 0xfc, 0xfd, 0xff, 0x02, 0x03,
  0xfe, 0x05, 0x04, 0x04, 0xfd, 0x01, 0xff, 0x04, 0xfd, 0x01, 0x00, 0xfb,
  0x03, 0xfe, 0x02, 0xfc, 0xff, 0x01, 0x01, 0x01, 0x00, 0xff, 0x04, 0xfd,
  0x03, 0xfe, 0xfe, 0x02, 0xfd, 0xfd, 0x02, 0x00, 0xfe, 0xfd, 0x04, 0x03,
  0xff, 0x01, 0x01, 0x01, 0x01, 0xff, 0xfe, 0x01, 0x00, 0xff, 0x02, 0xfc,
  0xfd, 0x02, 0x03, 0xfe, 0xfd, 0x03, 0xfc, 0xfc, 0x02, 0xff, 0x02, 0x03,
  0x03, 0xff, 0xff, 0x00, 0xfd, 0xff, 0x01, 0xfd, 0x02, 0xfb, 0x01, 0xff,
  0xfe, 0x01, 0x00, 0xff, 0x03, 0xfd, 0xff, 0x01, 0xfc, 0xfc, 0x00, 0x01,
  0xfb, 0xff, 0xff, 0xff, 0x03, 0x01, 0x03, 0xfc, 0xfe, 0xfc, 0xff, 0x02,
  0x02, 0xfc, 0xff, 0x01, 0xff, 0xfb, 0x02, 0x04, 0xfe, 0x01, 0xff, 0xff,
  0xfe, 0xfe, 0x02, 0x01, 0xff, 0xfb, 0xfd, 0xfd, 0xfb, 0xff, 0xfd, 0xfd,
  0xff, 0x03, 0x01, 0xff, 0xff, 0xfb, 0x02, 0xff, 0x03, 0xff, 0xfd, 0xfb,
  0xfb, 0x00, 0xfc, 0x00, 0x03, 0xfe, 0x03, 0x00, 0xff, 0xfd, 0x00, 0xfc,
  0x03, 0xff, 0xff, 0xff, 0x03, 0x03, 0xfd, 0x00, 0xfd, 0x03, 0x00, 0xfe,
  0xff, 0x00, 0xfc, 0x02, 0x00, 0x03, 0x02, 0x02, 0x03, 0xfb, 0x00, 0xfc,
  0xfd, 0x01, 0x05, 0xfe, 0x01, 0x00, 0xfb, 0x01, 0xfd, 0xff, 0x00, 0xfe,
  0x00, 0x02, 0xff, 0xfe, 0xff, 0x03, 0x03, 0xfe, 0x01, 0x00, 0x03, 0x03,
  0xfe, 0x01, 0xfe, 0x01, 0xfb, 0x03, 0xfd, 0xfc, 0xff, 0xff, 0xfb, 0xfb,
  0xfd, 0xf8, 0xfb, 0x01, 0x00, 0xfe, 0xfb, 0x06, 0xff, 0xff, 0xfe, 0xf8,
  0x0d, 0x02, 0x06, 0x05, 0xfb, 0xf7, 0x05, 0x01, 0x07, 0x08, 0x03, 0x08,
  0xfa, 0xfb, 0x03, 0x05, 0x0e, 0xff, 0x02, 0xfd, 0xfd, 0x05, 0xf6, 0x08,
  0xff, 0xf8, 0xfa, 0x00, 0xfb, 0x01, 0x00, 0xf5, 0xf1, 0xff, 0xf9, 0xf3,
  0x02, 0x00, 0x01, 0xf5, 0xf2, 0x07, 0x02, 0xff, 0x01, 0xfc, 0x04, 0xee,
  0x02, 0xfe, 0xf7, 0xf7, 0x08, 0xf1, 0x0b, 0x06, 0xfa, 0x03, 0x00, 0x04,
  0xf4, 0xff, 0xfc, 0x00, 0x05, 0xfc, 0xfa, 0x01, 0x02, 0xfd, 0x03, 0x01,
  0xfc, 0x06, 0xf2, 0xfc, 0xf7, 0xf4, 0xfb, 0xf6, 0xfd, 0xf4, 0xfc, 0xff,
  0xfe, 0xff, 0xfd, 0x02, 0x06, 0x0c, 0xf9, 0x05, 0xfd, 0x00, 0xff, 0x04,
  0x02, 0xfd, 0x04, 0xe8, 0x08, 0x03, 0xf6, 0xfb, 0xe7, 0xff, 0xff, 0x07,
  0x02, 0x01, 0xf8, 0xf4, 0xfa, 0xe8, 0x01, 0xfc, 0xff, 0x03, 0x05, 0x06,
  0xf7, 0xff, 0xf5, 0x04, 0x01, 0x02, 0xf3, 0xfc, 0xfb, 0xff, 0xfd, 0xeb,
  0xff, 0xfb, 0x05, 0xf9, 0x0a, 0xed, 0x02, 0x0a, 0x02, 0xfe, 0x02, 0xf7,
  0xfa, 0xf2, 0x09, 0xff, 0x00, 0xf2, 0x00, 0x07, 0x03, 0xfa, 0xfd, 0x05,
  0x01, 0x03, 0xf6, 0x03, 0x08, 0x02, 0x04, 0x03, 0x03, 0xf7, 0xfd, 0x02,
  0xec, 0xfb, 0xfa, 0x08, 0xfc, 0xf6, 0xfe, 0xf6, 0x07, 0xf4, 0x00, 0xf6,
  0xfc, 0xfa, 0xfc, 0xf8, 0x05, 0xff, 0xfb, 0xf7, 0xfd, 0xf1, 0xf3, 0xfd,
  0xfc, 0x08, 0x02, 0x00, 0x06, 0xef, 0xff, 0xfc, 0xfd, 0x02, 0xfd, 0xfc,
  0x09, 0xfc, 0x07, 0xf2, 0xf6, 0x04, 0x05, 0xf6, 0x03, 0xfa, 0xf8, 0x00,
  0x02, 0x09, 0xff, 0xff, 0x01, 0xfb, 0x0a, 0xff, 0x05, 0x00, 0x05, 0x04,
  0xf7, 0xfd, 0x0c, 0x09, 0x08, 0xff, 0x09, 0x05, 0xfe, 0xfe, 0xfb, 0x05,
  0x04, 0x0c, 0xf9, 0x03, 0xfc, 0xef, 0xfc, 0x06, 0x08, 0x08, 0x04, 0x0d,
  0xf2, 0x06, 0xed, 0xfd, 0x0d, 0x00, 0x02, 0x04, 0x03, 0xfd, 0xf7, 0x02,
  0xd9, 0xf5, 0x02, 0xff, 0xf4, 0xfe, 0x08, 0xf8, 0x02, 0x04, 0x07, 0xf8,
  0x05, 0x00, 0xf9, 0x07, 0xf5, 0xfa, 0xf2, 0x03, 0xfe, 0xf7, 0x01, 0xf6,
  0x00, 0x07, 0x06, 0x0a, 0xfc, 0x07, 0x06, 0x01, 0xff, 0xf8, 0xfe, 0xf8,
  0x02, 0x03, 0xf8, 0x01, 0xef, 0xfc, 0x01, 0x00, 0x07, 0xfd, 0x05, 0xf9,
  0x00, 0xf7, 0xf9, 0xf5, 0xf4, 0x05, 0xfe, 0xfd, 0x08, 0xff, 0xed, 0x04,
  0xf6, 0xfa, 0x02, 0xf9, 0x08, 0xfb, 0x02, 0xfe, 0xf9, 0x00, 0xfb, 0x01,
  0xf5, 0xf8, 0x07, 0x00, 0xfe, 0xfa, 0xfb, 0x01, 0xff, 0xfa, 0x01, 0xee,
  0xfc, 0x04, 0xfa, 0x05, 0xfc, 0xfe, 0x04, 0x01, 0x08, 0xfd, 0x05, 0xed,
  0x03, 0xf7, 0x06, 0x00, 0xfe, 0xef, 0xf7, 0xf8, 0xff, 0xfc, 0xf6, 0xfd,
  0xfe, 0xf5, 0x06, 0x02, 0x03, 0xf4, 0xfc, 0xfc, 0xf2, 0xfb, 0x09, 0xfd,
  0x01, 0xfa, 0xfe, 0x00, 0x03, 0xf7, 0xfe, 0xfe, 0x01, 0xfc, 0xf2, 0xfc,
  0x07, 0xc8, 0xf1, 0xfc, 0xfc, 0x06, 0x09, 0xf9, 0xfa, 0xf9, 0xf0, 0x03,
  0x01, 0x03, 0x00, 0x00, 0xfb, 0xfe, 0x06, 0xf6, 0x07, 0xfc, 0xfe, 0x04,
  0xfa, 0x04, 0x00, 0xf5, 0xfc, 0xf5, 0xfc, 0x05, 0x07, 0x05, 0xf7, 0x00,
  0x01, 0xfe, 0x00, 0xfc, 0x01, 0xfd, 0xf7, 0xf8, 0xfd, 0x00, 0xfa, 0xfc,
  0xf6, 0x05, 0x03, 0xfd, 0xf0, 0xfc, 0x02, 0x04, 0x08, 0x08, 0xf5, 0xff,
  0x04, 0xf8, 0xf3, 0xf9, 0x04, 0x03, 0x07, 0x08, 0xf3, 0xf5, 0xfb, 0x06,
  0x03, 0x06, 0xfd, 0x00, 0x03, 0x00, 0xff, 0x0b, 0xff, 0x03, 0xfc, 0x00,
  0x05, 0xfb, 0x01, 0x0a, 0xf2, 0x01, 0xee, 0x00, 0xf6, 0xfe, 0xf5, 0xf3,
  0x01, 0xfa, 0x01, 0x0d, 0x01, 0xfb, 0xfe, 0x00, 0xfc, 0x02, 0x01, 0xff,
  0xd3, 0x13, 0x01, 0x03, 0xfe, 0x00, 0x04, 0x04, 0x03, 0xf1, 0x04, 0x04,
  0x03, 0xfe, 0xfc, 0x03, 0xfc, 0x00, 0x06, 0xfa, 0xf8, 0xfc, 0xf9, 0xff,
  0xfb, 0xff, 0x03, 0x05, 0xff, 0x02, 0x02, 0xfb, 0xfa, 0x00, 0xef, 0x07,
  0x04, 0x08, 0x01, 0x03, 0xfe, 0x00, 0xfa, 0x03, 0x00, 0xfa, 0x00, 0xfb,
  0x02, 0x02, 0xf8, 0x06, 0x03, 0xff, 0x04, 0xbb, 0xff, 0xff, 0x07, 0x02,
  0xf5, 0x01, 0xda, 0xe3, 0x05, 0x13, 0x06, 0x01, 0xfd, 0xfc, 0xfa, 0xfe,
  0x00, 0x05, 0xd8, 0xfd, 0xf7, 0xff, 0x03, 0xef, 0xe3, 0x05, 0xfd, 0x06,
  0x09, 0xc8, 0x07, 0x08, 0xfc, 0x02, 0x01, 0xf1, 0xfd, 0xfa, 0xd2, 0x00,
  0xf9, 0xfe, 0x02, 0x00, 0x01, 0x03, 0xfe, 0x02, 0xf1, 0xfc, 0xd4, 0xfe,
  0x03, 0x03, 0x00, 0x02, 0x08, 0xf5, 0x00, 0xfb, 0xf4, 0xfb, 0x01, 0x01,
  0x01, 0xf6, 0x04, 0x05, 0x05, 0xfa, 0x05, 0xf5, 0x03, 0xfa, 0x01, 0xf5,
  0xf3, 0x00, 0xfd, 0xfc, 0x06, 0x04, 0x05, 0xff, 0xfb, 0x05, 0x06, 0x04,
  0xfb, 0x00, 0xf9, 0x00, 0x01, 0x03, 0x00, 0x08, 0xfd, 0x0b, 0xf7, 0xe8,
  0xfe, 0xfd, 0x01, 0xfd, 0x04, 0x81, 0xfe, 0xfb, 0x0d, 0xfe, 0xdb, 0x23,
  0x03, 0xf5, 0xf1, 0xf3, 0x01, 0x07, 0xfe, 0xd0, 0x00, 0x03, 0x08, 0xff,
  0x07, 0xf8, 0xff, 0x00, 0xff, 0xf9, 0x06, 0x04, 0x00, 0xfd, 0xf1, 0x01,
  0x00, 0x03, 0xf6, 0x01, 0xd7, 0xfb, 0x0a, 0x00, 0xc7, 0xe9, 0x12, 0xfd,
  0xfe, 0x0a, 0x01, 0x04, 0x02, 0x00, 0x01, 0xce, 0xfe, 0x04, 0xfc, 0x03,
  0x02, 0xd8, 0xf7, 0xe9, 0x08, 0x00, 0xd4, 0xff, 0x04, 0x04, 0xff, 0xff,
  0x01, 0xfc, 0x02, 0xfe, 0x03, 0x00, 0x01, 0x04, 0xfe, 0xf1, 0xf7, 0x03,
  0x00, 0x01, 0x0e, 0xe8, 0xfc, 0x03, 0xff, 0x00, 0xff, 0xfb, 0xde, 0xff,
  0xfb, 0xe5, 0x02, 0xfe, 0x00, 0xf8, 0x01, 0x01, 0x01, 0xf7, 0xee, 0xf3,
  0xfa, 0xfd, 0xfe, 0xfd, 0x06, 0x03, 0xff, 0x00, 0x14, 0x00, 0xfd, 0x03,
  0x00, 0xf5, 0x03, 0x03, 0xec, 0xff, 0x05, 0xfd, 0x04, 0xeb, 0xf6, 0xff,
  0xfd, 0x03, 0xf7, 0xfd, 0x0e, 0x03, 0xf6, 0xfc, 0xf9, 0x00, 0x01, 0x02,
  0xc6, 0x02, 0x00, 0x00, 0xff, 0x08, 0xc5, 0xfa, 0xfd, 0xde, 0x08, 0x03,
  0xff, 0x00, 0x06, 0x02, 0xfc, 0xf0, 0x03, 0x04, 0xf2, 0x05, 0xff, 0x02,
  0xff, 0x05, 0xff, 0x06, 0x01, 0x05, 0xf7, 0xfc, 0x00, 0x08, 0xff, 0x04,
  0x05, 0x03, 0x01, 0xfa, 0xcf, 0xcb, 0x04, 0xf9, 0x08, 0xfe, 0xfc, 0x00,
  0xee, 0xfd, 0x01, 0x0a, 0xf3, 0xfc, 0x02, 0xfb, 0x04, 0xfb, 0xff, 0xf7,
  0x02, 0x05, 0xe9, 0x02, 0x01, 0x00, 0xea, 0x07, 0xff, 0xfe, 0x0e, 0x00,
  0x03, 0xfe, 0x02, 0x06, 0x06, 0xfe, 0x07, 0xfb, 0xd6, 0x07, 0xfc, 0x04,
  0xf5, 0x01, 0x05, 0x04, 0xfd, 0x03, 0xff, 0xfe, 0xfc, 0xfb, 0xec, 0x04,
  0x05, 0x02, 0x00, 0x03, 0xfe, 0xc8, 0xe4, 0x00, 0xfb, 0xfd, 0xfc, 0xfb,
  0x03, 0xfb, 0xf6, 0xfc, 0x03, 0xff, 0xfe, 0x02, 0x04, 0xfe, 0x10, 0x01,
  0xfd, 0x01, 0xf9, 0x04, 0x00, 0x01, 0xeb, 0x01, 0x07, 0x02, 0xfb, 0xff,
  0xe3, 0x05, 0xff, 0xfa, 0x00, 0x01, 0x01, 0xfc, 0x01, 0x03, 0xfe, 0xfc,
  0xfa, 0xcc, 0xf8, 0x01, 0x05, 0xfd, 0xfe, 0xff, 0x02, 0x04, 0x13, 0x03,
  0x0a, 0x05, 0x03, 0x03, 0x02, 0x05, 0xfb, 0xff, 0xfa, 0xce, 0x0a, 0x07,
  0xfa, 0xde, 0xff, 0x00, 0x09, 0xfd, 0xfd, 0xf9, 0xfd, 0xfc, 0xfa, 0xfc,
  0xf7, 0x1f, 0xf2, 0xfb, 0xfa, 0x00, 0x11, 0x03, 0xf6, 0x01, 0x03, 0xf8,
  0x04, 0xfc, 0xfc, 0xff, 0x04, 0xfe, 0xff, 0xfd, 0xfd, 0x02, 0x05, 0xfe,
  0xff, 0x06, 0xfe, 0x00, 0x03, 0xff, 0x01, 0xff, 0xfd, 0x03, 0xff, 0x02,
  0xfd, 0x04, 0xfd, 0xfe, 0x02, 0xfc, 0xff, 0x00, 0xfe, 0x02, 0xfd, 0x00,
  0x05, 0x01, 0xfd, 0x02, 0xfc, 0xfe, 0x02, 0xfd, 0x03, 0xfe, 0x01, 0xfc,
  0xfe, 0xfb, 0x01, 0x01, 0xfe, 0x03, 0x03, 0xfe, 0x00, 0x00, 0x03, 0xfd,
  0x02, 0x01, 0x02, 0xfd, 0x03, 0x01, 0x03, 0xfe, 0x00, 0xfe, 0x03, 0x02,
  0xfd, 0xfc, 0xfc, 0x01, 0xfd, 0x04, 0xfc, 0x01, 0xfc, 0xff, 0xfc, 0xfd,
  0xfc, 0x03, 0x01, 0xfd, 0x04, 0xfe, 0xfc, 0x00, 0x00, 0xff, 0x01, 0xfe,
  0xfc, 0x00, 0xff, 0xff, 0xfe, 0xff, 0x04, 0xff, 0x02, 0x02, 0x02, 0x00,
  0xfd, 0xfc, 0x01, 0x01, 0xfe, 0xfe, 0xfe, 0x03, 0xfd, 0xfe, 0xff, 0xfe,
  0x03, 0x00, 0x02, 0xfe, 0xfd, 0x04, 0xfe, 0xfc, 0x01, 0x04, 0x02, 0x04,
  0x02, 0x02, 0x03, 0xfc, 0x03, 0x03, 0xfd, 0xfc, 0xff, 0x00, 0xff, 0xfb,
  0x03, 0x03, 0x02, 0xfe, 0xfd, 0xfe, 0xfe, 0x01, 0xff, 0x00, 0x02, 0xfe,
  0xfd, 0x01, 0xfd, 0x00, 0xfb, 0x03, 0x03, 0x02, 0xff, 0xfd, 0xfe, 0x01,
  0xfc, 0xfe, 0xfd, 0x02, 0x03, 0x02, 0x01, 0x01, 0xff, 0xfd, 0xfc, 0xff,
  0x00, 0x00, 0xff, 0x00, 0x03, 0xfc, 0x01, 0x02, 0xfd, 0xfc, 0x03, 0x01,
  0xfd, 0xfb, 0x00, 0x00, 0x03, 0x02, 0xfc, 0x00, 0xfc, 0x02, 0xfe, 0x00,
  0x02, 0x01, 0x04, 0x01, 0x03, 0x01, 0xfe, 0x00, 0x02, 0xfd, 0x02, 0xfe,
  0x05, 0xfe, 0x03, 0x04, 0xfe, 0x00, 0xfe, 0xfd, 0xfb, 0x03, 0xfb, 0xfe,
  0x02, 0x04, 0x02, 0xff, 0x00, 0xff, 0xfd, 0xfc, 0x00, 0xfc, 0x00, 0x02,
  0x03, 0x02, 0xfd, 0x02, 0x00, 0xfd, 0xfd, 0x00, 0xff, 0xfd, 0xfc, 0xfc,
  0x01, 0x03, 0x03, 0x03, 0xfc, 0xff, 0x02, 0xfd, 0xfb, 0xfc, 0x01, 0xff,
  0x00, 0xfc, 0x03, 0xff, 0x03, 0xfc, 0xfc, 0x01, 0xff, 0xfe, 0xfd, 0x00,
  0x02, 0xfc, 0xfe, 0x03, 0x04, 0xff, 0x02, 0xfc, 0x04, 0xfe, 0x00, 0x04,
  0x02, 0x01, 0xfc, 0xfd, 0x03, 0x02, 0x01, 0x00, 0x01, 0x00, 0x03, 0x02,
  0x04, 0x00, 0x01, 0x00, 0x02, 0xfd, 0x03, 0x00, 0xff, 0x00, 0xfb, 0x00,
  0x03, 0x00, 0xfc, 0x02, 0x00, 0x03, 0xff, 0xfb, 0x01, 0x04, 0xfb, 0xfc,
  0x04, 0xfd, 0xfe, 0x01, 0xfd, 0xff, 0xff, 0x01, 0x04, 0xff, 0x01, 0xfe,
  0xfd, 0x00, 0x00, 0xfc, 0x00, 0xfd, 0x03, 0x00, 0xff, 0x04, 0xff, 0xfc,
  0xfe, 0x00, 0x02, 0x02, 0x03, 0x03, 0x01, 0xfe, 0x02, 0x00, 0x01, 0xfd,
  0x03, 0x04, 0x01, 0x00, 0xfd, 0x01, 0x02, 0xfd, 0xff, 0x01, 0x02, 0x02,
  0x00, 0xfd, 0x05, 0x01, 0xff, 0xfd, 0x04, 0x03, 0xff, 0x03, 0x04, 0x04,
  0x02, 0xfe, 0x02, 0x03, 0xfe, 0xff, 0xfc, 0xfb, 0x00, 0xff, 0x02, 0x02,
  0xfd, 0xfe, 0x02, 0xfc, 0xfe, 0xfc, 0x02, 0x00, 0x01, 0xff, 0x04, 0xfe,
  0x02, 0x03, 0x03, 0x02, 0xff, 0xfd, 0x02, 0x00, 0x04, 0x03, 0xfc, 0x04,
  0x04, 0xfe, 0x02, 0x00, 0x01, 0x00, 0xfe, 0xfc, 0x00, 0xfc, 0xfe, 0xfe,
  0x01, 0xfc, 0xfc, 0x00, 0x03, 0x01, 0xfe, 0xfd, 0xfe, 0x00, 0x03, 0xfc,
  0x01, 0x00, 0xfb, 0xfe, 0xfd, 0xfd, 0xfd, 0x00, 0xfc, 0xfd, 0x02, 0x02,
  0xff, 0xfd, 0x00, 0x00, 0xfd, 0xff, 0xff, 0xfe, 0xfd, 0xff, 0x00, 0x03,
  0x02, 0xfe, 0xfd, 0xfd, 0xfe, 0xfe, 0xfc, 0xfc, 0x01, 0xfb, 0xfb, 0x03,
  0xfd, 0x01, 0x00, 0xfd, 0x02, 0xff, 0xff, 0x01, 0xfe, 0xfb, 0x00, 0xfd,
  0xff, 0xfd, 0x02, 0x02, 0x02, 0xfe, 0xfe, 0x01, 0x02, 0x01, 0xfe, 0x04,
  0xff, 0xfb, 0x04, 0xfe, 0xfb, 0xfd, 0xfe, 0xff, 0xff, 0xfb, 0xfe, 0x03,
  0x03, 0xfe, 0x02, 0x01, 0x01, 0xfe, 0xfe, 0x00, 0xfc, 0xff, 0x00, 0x01,
  0x01, 0x00, 0x02, 0xfd, 0xfd, 0xfb, 0x02, 0x00, 0x02, 0x01, 0xfc, 0xfc,
  0xfc, 0xff, 0xff, 0xfd, 0x00, 0x02, 0xfe, 0xfe, 0xfc, 0xfe, 0x04, 0xfb,
  0x02, 0xfd, 0x01, 0x01, 0xfc, 0x01, 0x00, 0x00, 0xfd, 0xfb, 0x03, 0x00,
  0x00, 0xfd, 0xfd, 0xfe, 0x03, 0x01, 0x02, 0x00, 0x02, 0x01, 0x02, 0xfb,
  0xfe, 0xfb, 0xff, 0x02, 0x01, 0xfd, 0xfd, 0x01, 0xfc, 0xfe, 0x02, 0xfc,
  0xff, 0xfb, 0xfd, 0x01, 0xfd, 0xfb, 0xfe, 0x00, 0xfc, 0x04, 0xfe, 0x00,
  0x02, 0xfd, 0xfb, 0xfe, 0x01, 0x03, 0x01, 0xfe, 0x03, 0xfc, 0x01, 0x00,
  0xfe, 0x00, 0xff, 0x01, 0xfc, 0xfe, 0x02, 0x01, 0x03, 0x02, 0xfc, 0x02,
  0x03, 0xfc, 0xfe, 0xff, 0xfc, 0xfd, 0x03, 0x04, 0x02, 0x02, 0x00, 0xff,
  0x03, 0x03, 0x00, 0xfc, 0x00, 0x00, 0xfd, 0x02, 0x03, 0xfc, 0xff, 0xfe,
  0xfe, 0xfc, 0xff, 0xff, 0xfc, 0x00, 0x00, 0xff, 0x02, 0x02, 0x03, 0xfc,
  0x01, 0x00, 0xfc, 0x02, 0x00, 0x00, 0x01, 0xfc, 0xfd, 0xfe, 0x02, 0xff,
  0x00, 0x02, 0xfb, 0xfb, 0x02, 0x02, 0x01, 0xff, 0x01, 0x01, 0xfc, 0xfc,
  0xfe, 0xfd, 0x02, 0xfe, 0xff, 0x05, 0xfd, 0x02, 0xfc, 0xff, 0xff, 0x01,
  0xfc, 0x00, 0x01, 0xfc, 0xfd, 0xfb, 0x02, 0x00, 0x03, 0xfd, 0xfc, 0x03,
  0xff, 0x01, 0x03, 0xff, 0x00, 0x03, 0xfd, 0x00, 0x04, 0x02, 0x01, 0x04,
  0xfd, 0xfd, 0x01, 0x00, 0x01, 0xfb, 0x03, 0x00, 0x01, 0x01, 0x03, 0x00,
  0xfe, 0xfb, 0x01, 0x00, 0xfe, 0x00, 0xfc, 0xfc, 0xff, 0xfc, 0xfc, 0xfc,
  0xfd, 0x01, 0x03, 0x00, 0x03, 0xff, 0xfc, 0x01, 0x00, 0xfc, 0x04, 0xff,
  0x02, 0xfc, 0xff, 0x04, 0xfd, 0x03, 0xfe, 0x03, 0xfc, 0xfb, 0xfd, 0x01,
  0xfe, 0xfb, 0xfe, 0x04, 0xfe, 0xfc, 0x01, 0x03, 0x02, 0x01, 0x00, 0x00,
  0x03, 0x02, 0xfd, 0xff, 0xfc, 0x03, 0x01, 0xfb, 0x02, 0x02, 0xfd, 0xfd,
  0xfe, 0xfc, 0xfc, 0x02, 0xfe, 0x02, 0xfc, 0x03, 0x03, 0xfc, 0xff, 0x01,
  0xff, 0xfb, 0x02, 0xfc, 0xfd, 0x02, 0xff, 0x01, 0xfd, 0x03, 0x00, 0x02,
  0xfd, 0xff, 0x02, 0x01, 0x02, 0xff, 0x01, 0x01, 0xfb, 0x02, 0x03, 0xfe,
  0xfc, 0x03, 0x04, 0xff, 0x02, 0xfd, 0x03, 0x03, 0xfc, 0x03, 0xff, 0x01,
  0xff, 0x01, 0x00, 0xff, 0x03, 0x03, 0xfe, 0x00, 0x01, 0x01, 0x02, 0x02,
  0x01, 0xfe, 0xfb, 0xfd, 0xff, 0x02, 0xfc, 0xfc, 0x04, 0xfe, 0x02, 0xfd,
  0xfd, 0x03, 0xfc, 0xfd, 0xfe, 0xff, 0xfe, 0xff, 0x04, 0xfe, 0x02, 0xfe,
  0xfc, 0xfd, 0x00, 0x02, 0x01, 0x03, 0x02, 0x01, 0xfe, 0xff, 0xfe, 0x02,
  0x01, 0xfc, 0x02, 0x01, 0xff, 0xfd, 0x03, 0xfc, 0x04, 0x02, 0xff, 0x00,
  0xfc, 0x02, 0x00, 0x00, 0xfd, 0xff, 0x00, 0x03, 0x00, 0x01, 0x03, 0x00,
  0xfd, 0x01, 0xfc, 0x00, 0x00, 0x02, 0xfb, 0x01, 0xfe, 0x03, 0xfe, 0xff,
  0x00, 0x01, 0xfd, 0x03, 0xfe, 0xff, 0xfb, 0x00, 0x03, 0xfd, 0xfd, 0x03,
  0xff, 0x03, 0xfd, 0x00, 0x02, 0xfd, 0x02, 0xff, 0x01, 0xfc, 0xfb, 0xfd,
  0xff, 0xfc, 0xfe, 0xfd, 0xfc, 0xfd, 0xfc, 0xfd, 0xff, 0xfb, 0xfc, 0xfe,
  0x01, 0x03, 0x01, 0xff, 0xff, 0xfe, 0xfc, 0x02, 0xff, 0xfd, 0x00, 0x01,
  0xfc, 0xfe, 0x03, 0x00, 0x01, 0x01, 0xfc, 0x02, 0xff, 0xfb, 0x04, 0x02,
  0x02, 0x00, 0xff, 0x02, 0x03, 0xfd, 0xfd, 0xfe, 0xfd, 0x01, 0x01, 0x04,
  0x01, 0x03, 0x00, 0xfc, 0x02, 0x02, 0xfc, 0xfc, 0xfb, 0xfb, 0x01, 0xfc,
  0xfc, 0x00, 0xfd, 0x00, 0x00, 0x02, 0x03, 0x01, 0x04, 0xfe, 0x00, 0x01,
  0x02, 0x03, 0xff, 0xff, 0x01, 0xff, 0xfe, 0x02, 0x03, 0x01, 0x02, 0x03,
  0x02, 0xfd, 0xfd, 0x02, 0x02, 0x01, 0x01, 0xff, 0x01, 0xfd, 0x03, 0x04,
  0x03, 0x00, 0xfd, 0xfe, 0x03, 0x01, 0xf8, 0x01, 0x00, 0x03, 0xff, 0xff,
  0x00, 0xfb, 0x05, 0x03, 0x05, 0x02, 0xff, 0x05, 0xfc, 0xff, 0x01, 0x05,
  0x04, 0x00, 0x00, 0xfa, 0x01, 0x06, 0xf7, 0x03, 0xfe, 0xf9, 0x00, 0xff,
  0x01, 0x00, 0x03, 0x03, 0xf8, 0xfc, 0xfe, 0xfd, 0xfb, 0xe9, 0x04, 0xf8,
  0xfd, 0xff, 0xfe, 0x00, 0xf9, 0xfc, 0x05, 0xef, 0x00, 0xfb, 0xfc, 0x01,
  0x04, 0xf5, 0x01, 0xfe, 0xff, 0x00, 0x01, 0xfe, 0x00, 0x02, 0xe9, 0x03,
  0xfe, 0xfa, 0xfb, 0x02, 0xfd, 0x01, 0x03, 0xfc, 0xfb, 0x00, 0xfd, 0x02,
  0xff, 0xfc, 0xfa, 0xfd, 0xfc, 0xfe, 0x00, 0xfe, 0xff, 0xfc, 0xfd, 0x05,
  0x02, 0x03, 0x01, 0x05, 0x00, 0x01, 0xfd, 0xfe, 0x03, 0x02, 0x03, 0xef,
  0x02, 0xfd, 0xfe, 0xfa, 0xf9, 0xfe, 0x00, 0x05, 0xff, 0x03, 0x03, 0xff,
  0xf1, 0xe3, 0x01, 0xff, 0x00, 0x04, 0x01, 0xfe, 0x00, 0xf9, 0xfc, 0x05,
  0xfa, 0xfb, 0xf5, 0x02, 0x02, 0xf9, 0xfd, 0xfc, 0xfe, 0x02, 0xfe, 0x00,
  0x06, 0xf1, 0x02, 0x05, 0x03, 0xfe, 0x00, 0xf2, 0x04, 0xfa, 0x03, 0xfd,
  0x02, 0xfc, 0xfd, 0x00, 0xfe, 0xfa, 0xfa, 0x05, 0x03, 0x04, 0xf8, 0xfe,
  0x03, 0x00, 0xf9, 0xff, 0x04, 0xfe, 0xfd, 0xfc, 0xf8, 0xfe, 0xfa, 0x00,
  0x00, 0xfc, 0xfe, 0xf6, 0xff, 0xfc, 0xf9, 0x01, 0xff, 0xfe, 0x00, 0x02,
  0xfe, 0x03, 0xfe, 0xf7, 0xff, 0xf7, 0xf2, 0xfb, 0xfa, 0x02, 0x03, 0xfe,
  0x02, 0xf4, 0xfd, 0xfb, 0xf9, 0x00, 0x03, 0xff, 0xfe, 0x02, 0x01, 0xf8,
  0xfc, 0x04, 0x03, 0xf9, 0x04, 0xf2, 0xfa, 0x00, 0x04, 0x07, 0xfc, 0x02,
  0x01, 0xfb, 0x01, 0x05, 0x00, 0x03, 0x01, 0xff, 0xfb, 0xf8, 0x04, 0x01,
  0x04, 0xfe, 0x05, 0x00, 0xf9, 0x03, 0x03, 0x01, 0xf8, 0x05, 0xfb, 0x01,
  0xfe, 0xcc, 0xfc, 0x03, 0xff, 0x03, 0x00, 0xfe, 0xf9, 0xfe, 0xfb, 0x01,
  0x07, 0xfe, 0x02, 0xfe, 0x03, 0xfe, 0xfe, 0xff, 0xf4, 0xf9, 0xfe, 0xfc,
  0x01, 0xfe, 0x03, 0xf7, 0x00, 0x04, 0xff, 0xfd, 0x02, 0xfa, 0xfc, 0xff,
  0xfa, 0xfe, 0xf8, 0xfe, 0x04, 0xfd, 0x01, 0xfc, 0xfd, 0xfe, 0x06, 0x03,
  0xfb, 0xf8, 0x01, 0x03, 0x02, 0xfe, 0xfa, 0x03, 0x01, 0x00, 0xfd, 0x01,
  0xfa, 0xee, 0xff, 0xfb, 0x02, 0xfe, 0x03, 0x03, 0xfa, 0xfe, 0xfe, 0xf6,
  0xf6, 0xfc, 0x04, 0xfe, 0x04, 0x01, 0xe0, 0x05, 0xfd, 0x00, 0xfd, 0x03,
  0x04, 0x02, 0x01, 0xfe, 0xfd, 0x05, 0xfb, 0x04, 0xf6, 0xf4, 0xfd, 0xfa,
  0xfa, 0xeb, 0xf5, 0x00, 0xfe, 0x00, 0x03, 0xe6, 0x02, 0x05, 0x04, 0x00,
  0xfe, 0xfa, 0xfc, 0xf5, 0x03, 0xfe, 0xfe, 0xf6, 0xfe, 0xfd, 0xfd, 0x01,
  0xfe, 0xfa, 0x00, 0xfe, 0x04, 0xff, 0xfd, 0x03, 0x05, 0xf4, 0x01, 0x02,
  0x03, 0xf9, 0xf3, 0xfb, 0xfb, 0x04, 0x07, 0xf7, 0x05, 0xfa, 0xf9, 0xff,
  0x04, 0xff, 0xfb, 0xfb, 0xfb, 0x00, 0xf6, 0xe9, 0x03, 0xab, 0xfb, 0xfa,
  0xfc, 0xfe, 0xfe, 0xfd, 0xfd, 0xfc, 0xf5, 0x00, 0xf6, 0xfe, 0x05, 0x02,
  0x00, 0xf9, 0x02, 0xf4, 0xff, 0xef, 0x01, 0xfd, 0xfd, 0x04, 0xfe, 0xfd,
  0xfc, 0xf9, 0x00, 0x03, 0x04, 0x03, 0x01, 0xee, 0xfd, 0x00, 0xfb, 0x04,
  0xfb, 0xf8, 0xea, 0xf6, 0xfd, 0xfc, 0x03, 0xff, 0xfe, 0x01, 0x03, 0x00,
  0xff, 0xff, 0xfe, 0x00, 0xfe, 0x06, 0xf7, 0xff, 0xfe, 0xfb, 0xfe, 0xfb,
  0xfe, 0x00, 0x05, 0x05, 0xfb, 0xfd, 0xff, 0xfe, 0xfb, 0x04, 0xfa, 0xeb,
  0xfc, 0xff, 0xfe, 0x02, 0xfd, 0x00, 0x06, 0xf6, 0x01, 0xf7, 0x02, 0x01,
  0x00, 0x01, 0xf7, 0x00, 0xf4, 0xf1, 0xfe, 0xf9, 0xf7, 0x03, 0xfc, 0x07,
  0xff, 0x02, 0xff, 0xfe, 0x02, 0xff, 0x03, 0x00, 0x02, 0x02, 0x01, 0x01,
  0x01, 0xff, 0x00, 0xfd, 0x04, 0x03, 0x01, 0xfc, 0xfd, 0x01, 0xfd, 0x02,
  0x00, 0xfd, 0xfd, 0x02, 0xfc, 0x00, 0x02, 0xfd, 0xfd, 0x04, 0x01, 0x03,
  0x01, 0x01, 0x03, 0xfc, 0xfc, 0xfd, 0x01, 0xfd, 0x01, 0xff, 0xff, 0x00,
  0x03, 0x01, 0x04, 0x04, 0xfc, 0xfe, 0xfe, 0xff, 0xfd, 0xfe, 0xfd, 0xfc,
  0xfc, 0xfe, 0x00, 0xfd, 0x01, 0xff, 0x01, 0x02, 0x03, 0xff, 0x04, 0xfc,
  0xfe, 0x04, 0x00, 0x02, 0xfd, 0xfc, 0x02, 0xfc, 0x04, 0x03, 0x03, 0xfe,
  0xff, 0x02, 0xfd, 0x02, 0x00, 0xfd, 0x03, 0x01, 0x04, 0x04, 0x01, 0xfc,
  0x02, 0x03, 0x02, 0xfd, 0xfd, 0x03, 0xfd, 0x03, 0xff, 0xff, 0xfd, 0x02,
  0xfc, 0x02, 0x00, 0xfd, 0xfe, 0x01, 0x03, 0x00, 0xfe, 0xfe, 0xfe, 0x00,
  0x00, 0xfe, 0xff, 0xfc, 0xff, 0xfe, 0xfe, 0xfd, 0xfc, 0xfc, 0x04, 0x03,
  0x04, 0xfc, 0xff, 0xfe, 0xfc, 0x01, 0xfe, 0xfd, 0xfc, 0xfc, 0x02, 0xfc,
  0x02, 0x04, 0x03, 0x01, 0x03, 0xff, 0xfd, 0xfd, 0x04, 0x00, 0x01, 0xff,
  0x01, 0x00, 0x00, 0x00, 0x01, 0x03, 0xfe, 0xff, 0x02, 0x03, 0x02, 0xff,
  0xfc, 0xff, 0xfe, 0x00, 0xfe, 0x03, 0xfe, 0xff, 0x00, 0xfc, 0x01, 0xfd,
  0xfe, 0xfe, 0x02, 0x03, 0x00, 0x01, 0x03, 0xfc, 0x04, 0xff, 0x03, 0xfe,
  0xfc, 0xfd, 0x03, 0xff, 0xfd, 0xfe, 0xfe, 0x04, 0x03, 0xfe, 0xff, 0xfe,
  0x04, 0x02, 0xfe, 0xff, 0x03, 0x03, 0x00, 0xff, 0x01, 0xfd, 0x03, 0xff,
  0xff, 0x04, 0xfc, 0x00, 0x02, 0xff, 0xff, 0x03, 0x00, 0xfe, 0xfc, 0x04,
  0xfd, 0x02, 0xfc, 0x00, 0x02, 0x01, 0x04, 0xfd, 0x03, 0xfc, 0x01, 0x01,
  0x03, 0xfd, 0xfe, 0x00, 0xfc, 0x03, 0xfd, 0x04, 0x04, 0xfd, 0xfd, 0xfd,
  0xfe, 0xfe, 0xfc, 0xfe, 0x03, 0x02, 0x00, 0xfc, 0xff, 0x04, 0xfd, 0xfe,
  0xfd, 0xfc, 0xff, 0x02, 0xfc, 0x02, 0x00, 0x03, 0xfe, 0x02, 0xff, 0x03,
  0x04, 0x00, 0x02, 0x01, 0xfc, 0x03, 0x02, 0x00, 0xff, 0xfd, 0x00, 0xfc,
  0xfd, 0xff, 0xff, 0xfc, 0x04, 0xff, 0xff, 0xff, 0xfe, 0x01, 0xfe, 0xff,
  0x04, 0x00, 0x01, 0xff, 0x01, 0xff, 0x00, 0xfd, 0xfe, 0x02, 0x04, 0x03,
  0xfc, 0xfd, 0xfd, 0xff, 0x01, 0xfe, 0xfc, 0x04, 0x03, 0x01, 0x03, 0x02,
  0xfd, 0x03, 0xfe, 0xfc, 0x04, 0x00, 0x02, 0xfe, 0xfe, 0x02, 0x00, 0x04,
  0xfe, 0x00, 0x04, 0xfe, 0xfe, 0x04, 0x01, 0x04, 0x04, 0xfe, 0xff, 0xfc,
  0x03, 0xfe, 0x00, 0x00, 0x00, 0x02, 0x02, 0xfc, 0xff, 0x02, 0xff, 0x00,
  0xff, 0x03, 0xfd, 0x04, 0xff, 0xfc, 0xff, 0xfe, 0xff, 0x00, 0xff, 0x00,
  0x01, 0xfc, 0x00, 0x00, 0xfd, 0xff, 0x03, 0x02, 0x02, 0x01, 0x01, 0x00,
  0x04, 0x00, 0xfd, 0x03, 0xfc, 0x03, 0xfc, 0x03, 0xfd, 0x04, 0x00, 0xfd,
  0xfe, 0xfd, 0xff, 0x01, 0xfd, 0xfd, 0xfd, 0xfd, 0x04, 0x03, 0x01, 0x04,
  0x00, 0xfd, 0x01, 0xff, 0x00, 0x00, 0x04, 0x02, 0xfc, 0x04, 0x02, 0xfc,
  0x02, 0xff, 0x04, 0xfc, 0x03, 0x00, 0x03, 0x02, 0xfd, 0xff, 0xfd, 0xfd,
  0x02, 0x00, 0xfd, 0x00, 0x01, 0xff, 0x00, 0xfd, 0x01, 0xff, 0x00, 0x03,
  0x03, 0x02, 0xfc, 0x02, 0x03, 0x03, 0x00, 0xfe, 0x01, 0xfd, 0x04, 0xff,
  0x02, 0xfd, 0x02, 0xfd, 0xfd, 0x04, 0xfd, 0xfe, 0x00, 0x03, 0xfe, 0x00,
  0x00, 0x02, 0x03, 0xff, 0x01, 0x01, 0xfd, 0xfc, 0x01, 0x01, 0xff, 0xff,
  0x02, 0xfc, 0xfe, 0xff, 0x04, 0xfe, 0x02, 0xfd, 0x00, 0x02, 0x02, 0x00,
  0x04, 0x04, 0xfc, 0xfd, 0x03, 0x02, 0xfe, 0xff, 0x03, 0x04, 0xfc, 0x01,
  0xfd, 0x01, 0xfe, 0xfd, 0x01, 0x02, 0x03, 0xfc, 0x00, 0xff, 0x03, 0xfe,
  0xfc, 0xfd, 0x01, 0x04, 0x02, 0x03, 0xfd, 0x03, 0x01, 0xef, 0x03, 0x00,
  0x05, 0xf0, 0xfc, 0xfe, 0x00, 0xf6, 0xfd, 0xff, 0x02, 0xff, 0x01, 0x02,
  0xfe, 0xfe, 0x02, 0x04, 0x00, 0xff, 0x03, 0x01, 0xfc, 0x00, 0x04, 0x02,
  0x02, 0xe7, 0xff, 0xff, 0xff, 0xf1, 0xfc, 0xf9, 0x02, 0x01, 0xf9, 0x02,
  0xfa, 0x01, 0xf4, 0xfe, 0xff, 0x03, 0xff, 0xf5, 0x04, 0x03, 0x05, 0xf0,
  0xfe, 0x02, 0xf6, 0xf7, 0x05, 0xfd, 0x05, 0x05, 0xfe, 0x01, 0xeb, 0xfe,
  0xf9, 0xf7, 0xfc, 0xfb, 0xfc, 0xea, 0x01, 0xfc, 0xff, 0x01, 0xea, 0x04,
  0xfc, 0x04, 0xf6, 0xe5, 0xfc, 0x00, 0xfe, 0x04, 0xff, 0x01, 0x00, 0x03,
  0xfe, 0x03, 0xfb, 0x00, 0xe9, 0x00, 0xfe, 0x00, 0xff, 0xef, 0x04, 0x03,
  0xfc, 0x04, 0x00, 0xfe, 0x00, 0xfe, 0xf7, 0x00, 0xf8, 0xfe, 0xf1, 0xf8,
  0xf9, 0x02, 0xf8, 0xfa, 0x03, 0xff, 0x02, 0xed, 0x04, 0x05, 0x04, 0xef,
  0x04, 0xff, 0xff, 0xfd, 0x00, 0x00, 0xfe, 0x01, 0xfe, 0x03, 0xfe, 0xfa,
  0x04, 0xfc, 0xfd, 0xf9, 0x03, 0xfd, 0x0a, 0xff, 0x02, 0xf2, 0x01, 0xfb,
  0x01, 0xfb, 0x03, 0xfe, 0xfe, 0x01, 0x03, 0x04, 0xfc, 0xfc, 0xfb, 0x04,
  0x02, 0xfb, 0xfc, 0x00, 0xff, 0x04, 0xfe, 0x03, 0x04, 0x01, 0xf6, 0x00,
  0xfa, 0xee, 0x06, 0xff, 0xea, 0xfe, 0xf4, 0xfc, 0x05, 0x02, 0x01, 0xf9,
  0xff, 0xed, 0x04, 0xf3, 0x01, 0xfa, 0x02, 0xfa, 0xfd, 0xfd, 0x02, 0xf8,
  0xff, 0xff, 0xfd, 0xfe, 0x03, 0x01, 0x02, 0xf8, 0x02, 0x01, 0xe9, 0x03,
  0xfe, 0xee, 0x08, 0x01, 0xef, 0xf5, 0xfe, 0xfd, 0x00, 0x02, 0xfd, 0xee,
  0x03, 0xfe, 0x00, 0xfd, 0xfd, 0x03, 0x01, 0xf6, 0x03, 0x01, 0x02, 0x05,
  0xf8, 0x00, 0x03, 0x04, 0x03, 0xf6, 0x04, 0xfd, 0x01, 0xed, 0xfe, 0x03,
  0x03, 0x04, 0xfa, 0x03, 0xfd, 0xf4, 0x00, 0x03, 0x05, 0xfd, 0x06, 0x03,
  0x0b, 0xfe, 0xf4, 0x01, 0x03, 0xff, 0x00, 0xfe, 0x00, 0xeb, 0x01, 0x04,
  0xfc, 0x03, 0xe8, 0x00, 0xf7, 0x01, 0x00, 0xfd, 0xfc, 0x05, 0xff, 0xfd,
  0x05, 0xfd, 0x03, 0xf7, 0xfb, 0x01, 0xff, 0xf4, 0x03, 0xfb, 0x00, 0xf8,
  0xfc, 0xfe, 0x00, 0x01, 0x02, 0x01, 0xfe, 0xf8, 0xff, 0xfd, 0xff, 0xfd,
  0x05, 0xf1, 0x02, 0x01, 0xfe, 0xfd, 0x04, 0xfe, 0x03, 0xfe, 0x03, 0xfd,
  0x01, 0xfe, 0x03, 0x04, 0x00, 0x05, 0xfe, 0xec, 0xfe, 0xf1, 0xfc, 0xfe,
  0xfa, 0xfd, 0xf3, 0x01, 0xfe, 0xf9, 0x05, 0xfb, 0x02, 0x05, 0xfe, 0xfa,
  0xff, 0x02, 0x00, 0x05, 0xfe, 0xfd, 0x00, 0x04, 0xfc, 0xff, 0xfd, 0xf5,
  0xf9, 0x04, 0xfe, 0x00, 0xe9, 0x00, 0x01, 0x03, 0xfd, 0x02, 0x00, 0xf7,
  0x03, 0xf5, 0x03, 0x00, 0xfd, 0xfb, 0xee, 0x00, 0xfd, 0xff, 0x04, 0x00,
  0xff, 0x00, 0x05, 0xfd, 0x02, 0x01, 0xfd, 0x00, 0xfb, 0xff, 0xff, 0xff,
  0xfd, 0xff, 0xfe, 0xf9, 0x06, 0xef, 0x01, 0x00, 0x03, 0xfd, 0x01, 0xfd,
  0x03, 0x01, 0xfc, 0x03, 0x03, 0xf5, 0x05, 0xfb, 0xfa, 0xfd, 0xfc, 0xfe,
  0x03, 0x00, 0x02, 0x02, 0x02, 0x00, 0xfa, 0xfb, 0x02, 0x04, 0xfb, 0x04,
  0xff, 0x04, 0x02, 0xfb, 0x00, 0x03, 0xe6, 0x02, 0x05, 0x02, 0xf6, 0xfe,
  0xfd, 0x02, 0xfd, 0xfb, 0x03, 0x01, 0x01, 0xfb, 0xfc, 0x04, 0x01, 0xfa,
  0xf9, 0x00, 0x01, 0xf6, 0xd0, 0xf3, 0xfc, 0xfe, 0x01, 0xfe, 0x03, 0x02,
  0xfd, 0xfb, 0xe3, 0xfe, 0x00, 0xf7, 0x02, 0x01, 0xf0, 0x02, 0xfe, 0x02,
  0xfe, 0xfe, 0x00, 0x02, 0xfe, 0xfe, 0xfd, 0xff, 0xfc, 0xff, 0xfe, 0x01,
  0x03, 0xfd, 0xfc, 0x04, 0xfa, 0xfd, 0x02, 0x02, 0xfa, 0xfe, 0x02, 0xfb,
  0x00, 0xfb, 0xfc, 0xff, 0xfc, 0xed, 0x02, 0xff, 0x04, 0x01, 0x04, 0xfe,
  0xfe, 0x04, 0xfc, 0x03, 0x08, 0x03, 0xfd, 0xfd, 0x07, 0x04, 0x02, 0x02,
  0x01, 0xff, 0x0a, 0x02, 0x00, 0x03, 0x02, 0x04, 0xf8, 0x03, 0x04, 0x06,
  0x06, 0x03, 0x01, 0x02, 0x00, 0x07, 0xf9, 0x09, 0xfd, 0x01, 0xf7, 0x05,
  0xff, 0xfe, 0xfe, 0x01, 0xe9, 0x00, 0x02, 0xfb, 0x02, 0xfb, 0x03, 0xfd,
  0xff, 0x01, 0xfc, 0x02, 0x03, 0xf8, 0x07, 0xfb, 0x07, 0xfb, 0xff, 0xff,
  0x07, 0xf4, 0x02, 0xfa, 0x00, 0xfe, 0x00, 0x01, 0x04, 0x05, 0xfd, 0xff,
  0x05, 0x03, 0xf7, 0x06, 0xfd, 0xf6, 0x06, 0xfe, 0xff, 0x00, 0xfe, 0x00,
  0x00, 0xf4, 0x03, 0x04, 0xfb, 0xf2, 0xff, 0xff, 0xf8, 0xfe, 0xf4, 0x02,
  0xff, 0x05, 0x04, 0x02, 0x03, 0x05, 0xfe, 0x03, 0xfc, 0xfd, 0xf8, 0xeb,
  0x03, 0x03, 0xff, 0x01, 0xf3, 0xfd, 0x05, 0x03, 0x05, 0xfc, 0x05, 0xf9,
  0xff, 0xe2, 0x04, 0x02, 0xfd, 0x03, 0x03, 0x03, 0x01, 0xfc, 0x03, 0x01,
  0xfe, 0x03, 0xf0, 0x03, 0x00, 0x01, 0x02, 0xfb, 0x00, 0x02, 0x04, 0x04,
  0x06, 0xf3, 0x03, 0x06, 0x00, 0xfd, 0x04, 0x02, 0x00, 0xf9, 0x04, 0xff,
  0x05, 0xfb, 0x03, 0x09, 0x00, 0xf1, 0xfa, 0x03, 0x01, 0x06, 0xf5, 0x00,
  0x03, 0xfb, 0x03, 0x02, 0x09, 0xfa, 0x03, 0x00, 0xff, 0x03, 0xfd, 0x00,
  0xff, 0xf6, 0xff, 0xf5, 0xfe, 0xf1, 0x02, 0x00, 0xfa, 0xfe, 0xfc, 0xfd,
  0xff, 0x05, 0xfc, 0xfb, 0xfb, 0xee, 0x01, 0xfc, 0xfa, 0x01, 0x07, 0x02,
  0x08, 0xfa, 0x03, 0x05, 0xf6, 0x03, 0xfe, 0xf8, 0x03, 0x06, 0x04, 0x01,
  0xf5, 0x01, 0xfe, 0xec, 0x05, 0xff, 0xf3, 0x07, 0x02, 0x03, 0xff, 0x00,
  0x04, 0xfc, 0x07, 0xff, 0xfe, 0xfd, 0x05, 0x01, 0xf9, 0xfc, 0x05, 0x03,
  0x02, 0x00, 0x02, 0x01, 0x00, 0xfc, 0xfb, 0xfe, 0xff, 0x09, 0xf7, 0x04,
  0xfb, 0xfb, 0xf8, 0x01, 0x09, 0x04, 0x08, 0x07, 0xfb, 0xfc, 0xff, 0xf8,
  0x05, 0xfd, 0x08, 0x02, 0x03, 0xff, 0xff, 0x02, 0xf7, 0xf7, 0x04, 0x02,
  0xfd, 0xff, 0x03, 0xfe, 0x00, 0x03, 0x06, 0xf7, 0xfb, 0x04, 0xfc, 0x04,
  0x00, 0xfb, 0xf0, 0x05, 0xfa, 0xfe, 0xff, 0xe8, 0xfc, 0x03, 0x02, 0x05,
  0xf9, 0xfd, 0x08, 0x04, 0xfc, 0xfe, 0xf6, 0xfb, 0x07, 0x03, 0xfd, 0x03,
  0xfc, 0xfc, 0x06, 0x02, 0x04, 0xed, 0x07, 0x01, 0xfc, 0xfc, 0xfa, 0xf3,
  0xf2, 0x02, 0xfc, 0x00, 0x04, 0x04, 0xdc, 0x04, 0xeb, 0x02, 0x01, 0xff,
  0x03, 0x03, 0x09, 0xfd, 0xf9, 0xff, 0x00, 0x07, 0xf0, 0xf3, 0x01, 0x00,
  0xfc, 0xff, 0xfe, 0xfe, 0xfe, 0x03, 0x02, 0xee, 0x01, 0xfd, 0x04, 0x01,
  0xfd, 0x00, 0xfc, 0xff, 0x03, 0x03, 0xff, 0xf5, 0xfc, 0xfb, 0xfb, 0x06,
  0x05, 0xf3, 0xf9, 0xf9, 0x03, 0x02, 0xfd, 0xf8, 0xfa, 0xea, 0x05, 0x07,
  0xff, 0xf9, 0xfa, 0x01, 0xf8, 0x00, 0x03, 0xfa, 0x01, 0x02, 0xf7, 0x04,
  0x03, 0x01, 0xfd, 0xff, 0xfc, 0xfd, 0xf3, 0xfd, 0x04, 0x90, 0xf3, 0xfa,
  0xff, 0x01, 0xff, 0x02, 0xec, 0xfd, 0xee, 0x04, 0xff, 0x00, 0xf9, 0x03,
  0x01, 0xf8, 0x05, 0xf5, 0x03, 0xfa, 0x02, 0xfc, 0xff, 0x03, 0x00, 0xfd,
  0xfb, 0xfc, 0xfe, 0xff, 0x03, 0x00, 0x00, 0xfb, 0x05, 0xfe, 0xf9, 0xfd,
  0xfc, 0xf8, 0xfe, 0xfd, 0x02, 0xff, 0xff, 0x05, 0xfe, 0x08, 0xff, 0x02,
  0xf4, 0x04, 0x01, 0xff, 0x02, 0x07, 0xf7, 0x03, 0x04, 0xf8, 0xf9, 0xf3,
  0x02, 0x02, 0x03, 0x02, 0xf8, 0xf8, 0xfb, 0x03, 0xfa, 0xfc, 0xfa, 0x02,
  0xfc, 0x05, 0xfd, 0x06, 0xfb, 0x00, 0xfd, 0xfb, 0x01, 0xff, 0x03, 0xff,
  0xfc, 0x02, 0xf0, 0xfd, 0xfd, 0xfb, 0x01, 0xfe, 0xfc, 0xfe, 0xfc, 0x09,
  0x02, 0x06, 0x03, 0x03, 0x01, 0xfc, 0x02, 0x00, 0x02, 0xfd, 0x03, 0x01,
  0xfe, 0xfc, 0x02, 0x00, 0x02, 0x03, 0xfe, 0x02, 0xff, 0xfd, 0x02, 0x01,
  0xfe, 0xfb, 0x03, 0x01, 0xfe, 0x01, 0x03, 0xfe, 0xfe, 0xfd, 0x02, 0x00,
  0x00, 0xfd, 0xfc, 0xfc, 0xff, 0xfe, 0x00, 0xff, 0xfe, 0x00, 0x00, 0x02,
  0x00, 0x00, 0xfc, 0xfd, 0xff, 0x00, 0x03, 0xff, 0x01, 0xfe, 0xfd, 0xff,
  0x02, 0xfe, 0xfe, 0xff, 0x01, 0x03, 0x04, 0xff, 0x00, 0x03, 0xfb, 0xfb,
  0x03, 0xfb, 0xfd, 0x00, 0x04, 0x02, 0x01, 0x01, 0xfc, 0x04, 0x01, 0x00,
  0xfc, 0x02, 0x00, 0x03, 0xfd, 0xfe, 0xfd, 0x00, 0xfd, 0x03, 0x02, 0x03,
