
#include "sin_model.h"

// We need to keep the data array aligned on some architectures.
#ifdef __has_attribute
#define HAVE_ATTRIBUTE(x) __has_attribute(x)
#else
#define HAVE_ATTRIBUTE(x) 0
#endif
#if HAVE_ATTRIBUTE(aligned) || (defined(__GNUC__) && !defined(__clang__))
#define DATA_ALIGN_ATTRIBUTE __attribute__((aligned(4)))
#else
#define DATA_ALIGN_ATTRIBUTE
#endif
/*
SinModel(
  (model): Sequential(
    (0): Linear(in_features=2, out_features=128, bias=True)
    (1): ReLU()
    (2): Linear(in_features=128, out_features=128, bias=True)
    (3): ReLU()
    (4): Linear(in_features=128, out_features=128, bias=True)
    (5): ReLU()
    (6): Linear(in_features=128, out_features=1, bias=True)
  )
)

Input details:
{
  "name": "serving_default_args_0:0",
  "index": 0,
  "shape": "[1 2]",
  "shape_signature": "[1 2]",
  "dtype": "<class 'numpy.int8'>",
  "quantization": [
    0.02462252601981163,
    -1
  ],
  "quantization_parameters": {
    "scales": "[0.02462253]",
    "zero_points": "[-1]",
    "quantized_dimension": 0
  },
  "sparsity_parameters": {}
}

Output details:
{
  "name": "StatefulPartitionedCall:0",
  "index": 12,
  "shape": "[1 1]",
  "shape_signature": "[1 1]",
  "dtype": "<class 'numpy.int8'>",
  "quantization": [
    0.00801820121705532,
    3
  ],
  "quantization_parameters": {
    "scales": "[0.0080182]",
    "zero_points": "[3]",
    "quantized_dimension": 0
  },
  "sparsity_parameters": {}
}
*/

unsigned const char sin_model[] DATA_ALIGN_ATTRIBUTE= {
  0x1c, 0x00, 0x00, 0x00, 0x54, 0x46, 0x4c, 0x33, 0x14, 0x00, 0x20, 0x00,
  0x1c, 0x00, 0x18, 0x00, 0x14, 0x00, 0x10, 0x00, 0x0c, 0x00, 0x00, 0x00,
  0x08, 0x00, 0x04, 0x00, 0x14, 0x00, 0x00, 0x00, 0x1c, 0x00, 0x00, 0x00,
  0x90, 0x00, 0x00, 0x00, 0xe8, 0x00, 0x00, 0x00, 0xac, 0x89, 0x00, 0x00,
  0xbc, 0x89, 0x00, 0x00, 0x58, 0x91, 0x00, 0x00, 0x03, 0x00, 0x00, 0x00,
  0x01, 0x00, 0x00, 0x00, 0x10, 0x00, 0x00, 0x00, 0x00, 0x00, 0x0a, 0x00,
  0x10, 0x00, 0x0c, 0x00, 0x08, 0x00, 0x04, 0x00, 0x0a, 0x00, 0x00, 0x00,
  0x0c, 0x00, 0x00, 0x00, 0x1c, 0x00, 0x00, 0x00, 0x3c, 0x00, 0x00, 0x00,
  0x0f, 0x00, 0x00, 0x00, 0x73, 0x65, 0x72, 0x76, 0x69, 0x6e, 0x67, 0x5f,
  0x64, 0x65, 0x66, 0x61, 0x75, 0x6c, 0x74, 0x00, 0x01, 0x00, 0x00, 0x00,
  0x04, 0x00, 0x00, 0x00, 0x98, 0xff, 0xff, 0xff, 0x0c, 0x00, 0x00, 0x00,
  0x04, 0x00, 0x00, 0x00, 0x0a, 0x00, 0x00, 0x00, 0x69, 0x64, 0x65, 0x6e,
  0x74, 0x69, 0x74, 0x79, 0x5f, 0x37, 0x00, 0x00, 0x01, 0x00, 0x00, 0x00,
  0x04, 0x00, 0x00, 0x00, 0xe6, 0x76, 0xff, 0xff, 0x04, 0x00, 0x00, 0x00,
  0x06, 0x00, 0x00, 0x00, 0x61, 0x72, 0x67, 0x73, 0x5f, 0x30, 0x00, 0x00,
  0x02, 0x00, 0x00, 0x00, 0x34, 0x00, 0x00, 0x00, 0x04, 0x00, 0x00, 0x00,
  0xdc, 0xff, 0xff, 0xff, 0x0f, 0x00, 0x00, 0x00, 0x04, 0x00, 0x00, 0x00,
  0x13, 0x00, 0x00, 0x00, 0x43, 0x4f, 0x4e, 0x56, 0x45, 0x52, 0x53, 0x49,
  0x4f, 0x4e, 0x5f, 0x4d, 0x45, 0x54, 0x41, 0x44, 0x41, 0x54, 0x41, 0x00,
  0x08, 0x00, 0x0c, 0x00, 0x08, 0x00, 0x04, 0x00, 0x08, 0x00, 0x00, 0x00,
  0x0e, 0x00, 0x00, 0x00, 0x04, 0x00, 0x00, 0x00, 0x13, 0x00, 0x00, 0x00,
  0x6d, 0x69, 0x6e, 0x5f, 0x72, 0x75, 0x6e, 0x74, 0x69, 0x6d, 0x65, 0x5f,
  0x76, 0x65, 0x72, 0x73, 0x69, 0x6f, 0x6e, 0x00, 0x10, 0x00, 0x00, 0x00,
  0xc0, 0x88, 0x00, 0x00, 0xb8, 0x88, 0x00, 0x00, 0xa4, 0x88, 0x00, 0x00,
  0x0c, 0x88, 0x00, 0x00, 0xfc, 0x85, 0x00, 0x00, 0xec, 0x45, 0x00, 0x00,
  0xdc, 0x43, 0x00, 0x00, 0xcc, 0x03, 0x00, 0x00, 0xbc, 0x01, 0x00, 0x00,
  0xac, 0x00, 0x00, 0x00, 0xa4, 0x00, 0x00, 0x00, 0x9c, 0x00, 0x00, 0x00,
  0x94, 0x00, 0x00, 0x00, 0x8c, 0x00, 0x00, 0x00, 0x6c, 0x00, 0x00, 0x00,
  0x04, 0x00, 0x00, 0x00, 0x9a, 0x77, 0xff, 0xff, 0x04, 0x00, 0x00, 0x00,
  0x58, 0x00, 0x00, 0x00, 0x0c, 0x00, 0x00, 0x00, 0x08, 0x00, 0x0e, 0x00,
  0x08, 0x00, 0x04, 0x00, 0x08, 0x00, 0x00, 0x00, 0x10, 0x00, 0x00, 0x00,
  0x28, 0x00, 0x00, 0x00, 0x00, 0x00, 0x06, 0x00, 0x08, 0x00, 0x04, 0x00,
  0x06, 0x00, 0x00, 0x00, 0x04, 0x00, 0x00, 0x00, 0x01, 0x00, 0x00, 0x00,
  0xeb, 0x03, 0x00, 0x00, 0x00, 0x00, 0x0a, 0x00, 0x10, 0x00, 0x0c, 0x00,
  0x08, 0x00, 0x04, 0x00, 0x0a, 0x00, 0x00, 0x00, 0x02, 0x00, 0x00, 0x00,
  0x02, 0x00, 0x00, 0x00, 0x04, 0x00, 0x00, 0x00, 0x06, 0x00, 0x00, 0x00,
  0x32, 0x2e, 0x31, 0x35, 0x2e, 0x31, 0x00, 0x00, 0xfe, 0x77, 0xff, 0xff,
  0x04, 0x00, 0x00, 0x00, 0x10, 0x00, 0x00, 0x00, 0x31, 0x2e, 0x31, 0x34,
  0x2e, 0x30, 0x00, 0x00, 0x00, 0x00, 0x00, 0x00, 0x00, 0x00, 0x00, 0x00,
  0x84, 0x77, 0xff, 0xff, 0x88, 0x77, 0xff, 0xff, 0x8c, 0x77, 0xff, 0xff,
  0x90, 0x77, 0xff, 0xff, 0x2a, 0x78, 0xff, 0xff, 0x04, 0x00, 0x00, 0x00,
  0x00, 0x01, 0x00, 0x00, 0x39, 0xcd, 0xb6, 0x5c, 0x0c, 0x96, 0x21, 0xeb,
  0x53, 0xa9, 0x30, 0x17, 0xcc, 0xcb, 0xe1, 0xe4, 0xf7, 0xf9, 0x0a, 0xef,
  0x0c, 0x2d, 0x9d, 0xda, 0xff, 0x10, 0xd9, 0x59, 0x60, 0x1f, 0x37, 0xcb,
  0x13, 0x1f, 0x8c, 0xd4, 0xe4, 0x36, 0x33, 0xc9, 0xd4, 0xe2, 0xcc, 0x23,
  0x11, 0x32, 0x62, 0xe3, 0x3e, 0x31, 0xfe, 0x94, 0xd4, 0xde, 0x28, 0xf3,
  0x69, 0x08, 0x0b, 0x08, 0x0b, 0x65, 0x5b, 0xda, 0xe4, 0x71, 0xe8, 0x1a,
  0x1d, 0x27, 0x8d, 0x0e, 0xeb, 0x61, 0x33, 0x3a, 0x03, 0x56, 0x02, 0xc3,
  0x14, 0xf9, 0xa9, 0x37, 0xcf, 0x74, 0xff, 0x00, 0xca, 0x00, 0xf9, 0x20,
  0x3c, 0x3a, 0x51, 0xa1, 0x0f, 0xc4, 0x4e, 0x4e, 0xc2, 0xdb, 0xa9, 0xc7,
  0x1f, 0x22, 0x4e, 0xc2, 0x00, 0xb7, 0xf2, 0x16, 0xfe, 0x59, 0x31, 0x12,
  0xb4, 0x66, 0xc6, 0xc2, 0xfb, 0xf2, 0xb8, 0xf3, 0xcf, 0xd8, 0x58, 0x57,
  0x41, 0xbb, 0x9d, 0x64, 0xd7, 0xcf, 0x6d, 0x21, 0xb3, 0x4b, 0x72, 0x1c,
  0xdf, 0x92, 0x3a, 0x2e, 0x4d, 0x43, 0x99, 0xcd, 0x2a, 0x01, 0x36, 0xc8,
  0x8c, 0x17, 0x63, 0xf4, 0x13, 0x1c, 0x08, 0xe4, 0x4d, 0x16, 0xe0, 0x22,
  0xfa, 0x2e, 0xcc, 0xcc, 0xa6, 0x5a, 0xf1, 0x71, 0x39, 0xc9, 0x1d, 0x39,
  0xca, 0x44, 0x05, 0x19, 0x08, 0x8d, 0xee, 0xd7, 0x29, 0xd3, 0x04, 0x06,
  0xd5, 0xc1, 0x4d, 0x50, 0xff, 0x14, 0x1e, 0xda, 0x95, 0x02, 0x81, 0x19,
  0x00, 0x01, 0x05, 0x4a, 0xf4, 0x2d, 0xe7, 0x0f, 0xca, 0xbd, 0x43, 0xca,
  0x0f, 0x2c, 0x0a, 0xe8, 0x1c, 0x2b, 0xfa, 0xff, 0x64, 0x0e, 0xf4, 0xa4,
  0x12, 0x7a, 0xac, 0x08, 0xa6, 0x05, 0xea, 0xef, 0x18, 0xbc, 0xf7, 0x97,
  0xd8, 0xc8, 0xed, 0x03, 0x47, 0xf4, 0x15, 0xd0, 0x00, 0x6e, 0xf0, 0xb0,
  0xd0, 0xee, 0x40, 0x49, 0x88, 0x2b, 0xb4, 0xc4, 0x36, 0x79, 0xff, 0xff,
  0x04, 0x00, 0x00, 0x00, 0x00, 0x02, 0x00, 0x00, 0xd4, 0x03, 0x00, 0x00,
  0xf5, 0x12, 0x00, 0x00, 0x70, 0xed, 0xff, 0xff, 0x1e, 0x0e, 0x00, 0x00,
  0x00, 0x04, 0x00, 0x00, 0xc7, 0x11, 0x00, 0x00, 0xba, 0xfc, 0xff, 0xff,
  0x42, 0x11, 0x00, 0x00, 0xdc, 0x12, 0x00, 0x00, 0xc5, 0xf0, 0xff, 0xff,
  0xc4, 0xf2, 0xff, 0xff, 0xff, 0xf3, 0xff, 0xff, 0x74, 0x01, 0x00, 0x00,
  0xe0, 0xed, 0xff, 0xff, 0xdb, 0xf6, 0xff, 0xff, 0x6a, 0xed, 0xff, 0xff,
  0x76, 0x04, 0x00, 0x00, 0x5a, 0xe5, 0xff, 0xff, 0x50, 0x0f, 0x00, 0x00,
  0x32, 0xe7, 0xff, 0xff, 0xe8, 0xf9, 0xff, 0xff, 0x55, 0x0c, 0x00, 0x00,
  0xc0, 0x12, 0x00, 0x00, 0x11, 0xf5, 0xff, 0xff, 0x18, 0x08, 0x00, 0x00,
  0x07, 0xf1, 0xff, 0xff, 0x3f, 0x12, 0x00, 0x00, 0x1a, 0xfc, 0xff, 0xff,
  0x43, 0xef, 0xff, 0xff, 0xb2, 0xf7, 0xff, 0xff, 0x0b, 0xea, 0xff, 0xff,
  0xf8, 0xed, 0xff, 0xff, 0x84, 0xec, 0xff, 0xff, 0x5c, 0xfd, 0xff, 0xff,
  0xc6, 0x10, 0x00, 0x00, 0xb5, 0xe9, 0xff, 0xff, 0x68, 0xfc, 0xff, 0xff,
  0xc6, 0x04, 0x00, 0x00, 0x65, 0xe9, 0xff, 0xff, 0xf5, 0x03, 0x00, 0x00,
  0x00, 0x05, 0x00, 0x00, 0xb9, 0x11, 0x00, 0x00, 0xdf, 0xee, 0xff, 0xff,
  0x90, 0xff, 0xff, 0xff, 0x1c, 0x03, 0x00, 0x00, 0xb8, 0x19, 0x00, 0x00,
  0xb1, 0xf7, 0xff, 0xff, 0x5d, 0x09, 0x00, 0x00, 0xd0, 0xef, 0xff, 0xff,
  0x45, 0xfe, 0xff, 0xff, 0x7b, 0xfd, 0xff, 0xff, 0x2f, 0xe4, 0xff, 0xff,
  0x5a, 0xf8, 0xff, 0xff, 0x4a, 0x13, 0x00, 0x00, 0x46, 0x07, 0x00, 0x00,
  0x47, 0xfa, 0xff, 0xff, 0x8c, 0xf3, 0xff, 0xff, 0xff, 0x0b, 0x00, 0x00,
  0x5f, 0x12, 0x00, 0x00, 0xc2, 0x01, 0x00, 0x00, 0x66, 0xf6, 0xff, 0xff,
  0x9e, 0x0b, 0x00, 0x00, 0xc9, 0xed, 0xff, 0xff, 0x02, 0x0c, 0x00, 0x00,
  0xf0, 0xf9, 0xff, 0xff, 0x66, 0xe5, 0xff, 0xff, 0x97, 0xe6, 0xff, 0xff,
  0x47, 0xf1, 0xff, 0xff, 0xfd, 0x00, 0x00, 0x00, 0xd2, 0xeb, 0xff, 0xff,
  0xaa, 0xf4, 0xff, 0xff, 0x49, 0xe5, 0xff, 0xff, 0xaf, 0x12, 0x00, 0x00,
  0x8a, 0xea, 0xff, 0xff, 0xaf, 0xf9, 0xff, 0xff, 0xe4, 0x13, 0x00, 0x00,
  0x9d, 0xfa, 0xff, 0xff, 0xb5, 0xec, 0xff, 0xff, 0x42, 0xf4, 0xff, 0xff,
  0xb1, 0xf3, 0xff, 0xff, 0x89, 0xea, 0xff, 0xff, 0xb4, 0x00, 0x00, 0x00,
  0xdc, 0x05, 0x00, 0x00, 0xbb, 0xef, 0xff, 0xff, 0x59, 0xf4, 0xff, 0xff,
  0x36, 0xeb, 0xff, 0xff, 0xb4, 0xf7, 0xff, 0xff, 0xea, 0xf4, 0xff, 0xff,
  0x41, 0xf0, 0xff, 0xff, 0x42, 0x04, 0x00, 0x00, 0x8a, 0xef, 0xff, 0xff,
  0x25, 0x0c, 0x00, 0x00, 0x3e, 0xf1, 0xff, 0xff, 0xc0, 0xfa, 0xff, 0xff,
  0x6f, 0xe6, 0xff, 0xff, 0x9d, 0xe7, 0xff, 0xff, 0xd0, 0x01, 0x00, 0x00,
  0x71, 0xe7, 0xff, 0xff, 0x98, 0xf2, 0xff, 0xff, 0x10, 0xfe, 0xff, 0xff,
  0x6e, 0xff, 0xff, 0xff, 0x60, 0xeb, 0xff, 0xff, 0xb9, 0x12, 0x00, 0x00,
  0x40, 0x1a, 0x00, 0x00, 0x61, 0x07, 0x00, 0x00, 0xfd, 0xef, 0xff, 0xff,
  0x10, 0xfc, 0xff, 0xff, 0xa4, 0xed, 0xff, 0xff, 0xa0, 0x04, 0x00, 0x00,
  0x7a, 0xed, 0xff, 0xff, 0x38, 0xeb, 0xff, 0xff, 0xb9, 0xed, 0xff, 0xff,
  0x50, 0xe9, 0xff, 0xff, 0x90, 0xf3, 0xff, 0xff, 0x12, 0xf4, 0xff, 0xff,
  0xb4, 0x1e, 0x00, 0x00, 0x94, 0xf7, 0xff, 0xff, 0x15, 0xef, 0xff, 0xff,
  0x0f, 0x0d, 0x00, 0x00, 0x19, 0x16, 0x00, 0x00, 0xb8, 0xf3, 0xff, 0xff,
  0xb7, 0x0e, 0x00, 0x00, 0xe9, 0xf3, 0xff, 0xff, 0xce, 0xfc, 0xff, 0xff,
  0x54, 0x0b, 0x00, 0x00, 0xd9, 0x08, 0x00, 0x00, 0x0d, 0xed, 0xff, 0xff,
  0x01, 0x0c, 0x00, 0x00, 0x42, 0x7b, 0xff, 0xff, 0x04, 0x00, 0x00, 0x00,
  0x00, 0x40, 0x00, 0x00, 0x02, 0xfb, 0xf9, 0x00, 0xfd, 0x00, 0x03, 0xfd,
  0xfe, 0x03, 0xfb, 0xfa, 0x00, 0xfe, 0xfb, 0x01, 0x02, 0xfb, 0x01, 0x02,
  0x02, 0xf9, 0x00, 0x04, 0xfc, 0x01, 0xfa, 0x06, 0xfb, 0xfc, 0xfd, 0x05,
  0xfc, 0x01, 0xfb, 0x04, 0x00, 0xfc, 0xfc, 0x03, 0xff, 0xfb, 0x02, 0xfe,
  0xfa, 0x04, 0x05, 0x06, 0xfd, 0x00, 0xfd, 0xfb, 0xf8, 0x04, 0x06, 0xfa,
  0xff, 0xfa, 0xfe, 0xfc, 0xfc, 0xf9, 0xf8, 0x02, 0xfe, 0xfb, 0x05, 0xfb,
  0xfe, 0x03, 0xfb, 0xfc, 0x03, 0xfc, 0x00, 0xf9, 0xfe, 0x01, 0xfb, 0x01,
  0x00, 0xff, 0x06, 0xfb, 0x02, 0x02, 0xfb, 0x05, 0x01, 0x02, 0xfc, 0x05,
  0xfd, 0xfe, 0x00, 0xf9, 0xfb, 0x03, 0xfb, 0x03, 0x04, 0xff, 0x02, 0x03,
  0xfe, 0xfd, 0xfd, 0x04, 0x01, 0xfd, 0xfa, 0xff, 0xfe, 0xff, 0x04, 0x04,
  0x05, 0xfc, 0xf9, 0xfc, 0xff, 0x02, 0x00, 0x00, 0x00, 0xfe, 0x00, 0x03,
  0x02, 0x03, 0xec, 0x06, 0xfd, 0x07, 0x04, 0x06, 0x15, 0xfa, 0xfe, 0xff,
  0x02, 0xe3, 0xfa, 0xef, 0x08, 0xfe, 0x04, 0xe2, 0x00, 0x04, 0x05, 0xee,
  0x02, 0xf7, 0x0d, 0xf8, 0xed, 0x01, 0xf6, 0xe8, 0xe4, 0x03, 0x0c, 0xd4,
  0xff, 0x0a, 0xe8, 0xff, 0x05, 0x04, 0xe7, 0x00, 0xf8, 0x19, 0x0c, 0x07,
  0xd4, 0x0e, 0x06, 0xf8, 0x03, 0x07, 0x04, 0xf7, 0xfa, 0x04, 0x08, 0x0e,
  0xef, 0x05, 0x02, 0x0a, 0xf5, 0xe2, 0xe9, 0xf9, 0x02, 0xfc, 0xf8, 0xe3,
  0x0d, 0x03, 0xf9, 0x01, 0xf4, 0xdf, 0xf7, 0xfb, 0xfa, 0x06, 0xfc, 0xfb,
  0xf8, 0xe0, 0xf6, 0x01, 0xf2, 0x04, 0xed, 0x06, 0xfa, 0x03, 0xf2, 0xf9,
  0x03, 0xb9, 0xf9, 0xf5, 0xfa, 0xed, 0x15, 0x20, 0x08, 0xf5, 0xfe, 0x04,
  0x0c, 0xfe, 0xf4, 0xf9, 0xf5, 0xf0, 0xf8, 0x15, 0xf8, 0xf6, 0x07, 0x1e,
  0xef, 0x08, 0x01, 0xf6, 0x0f, 0x07, 0xd9, 0x10, 0x08, 0x19, 0x05, 0x04,
  0x05, 0x0a, 0x01, 0xfb, 0x07, 0xfb, 0xfb, 0xd1, 0xdc, 0xfb, 0xfd, 0x06,
  0xff, 0xe2, 0xdf, 0x02, 0xf0, 0xfa, 0xf9, 0x0a, 0xfe, 0xfc, 0xfe, 0x02,
  0xff, 0xf3, 0x00, 0x04, 0xfe, 0xfb, 0xff, 0xfd, 0x02, 0x04, 0x03, 0x09,
  0x01, 0x06, 0x04, 0xf8, 0xc7, 0xf2, 0xfe, 0x00, 0x01, 0x01, 0xf2, 0xde,
  0xf1, 0x0b, 0x09, 0xfa, 0xf8, 0x02, 0x0a, 0xfe, 0x02, 0xf5, 0xe8, 0x00,
  0x0e, 0x06, 0xce, 0xfd, 0x01, 0xfc, 0xfa, 0xc8, 0xf9, 0xcd, 0x00, 0x0b,
  0xfe, 0x05, 0x00, 0xf4, 0xfc, 0xfb, 0xdb, 0xfb, 0xfc, 0x02, 0x0e, 0xb1,
  0x03, 0xf6, 0xfa, 0xfd, 0xfe, 0xf7, 0xf4, 0xeb, 0xe6, 0xce, 0xfa, 0xfb,
  0xe4, 0xfb, 0xfa, 0xfa, 0xfc, 0x0d, 0xc4, 0x02, 0xfd, 0xfa, 0xfb, 0x00,
  0xff, 0x03, 0xfb, 0xfd, 0x0a, 0x05, 0xfc, 0xf9, 0x08, 0x0b, 0xef, 0x05,
  0xf9, 0xfa, 0xfc, 0xfd, 0x16, 0x04, 0xfb, 0x10, 0x0c, 0xda, 0x04, 0x08,
  0x0e, 0x03, 0x01, 0xff, 0xdd, 0xef, 0xf8, 0xf5, 0xbe, 0xf4, 0x19, 0xef,
  0x01, 0x07, 0xc7, 0xef, 0xe2, 0xf8, 0x03, 0xf1, 0xdf, 0x00, 0xff, 0xec,
  0xec, 0x16, 0xc0, 0xe3, 0xe4, 0xe7, 0xfc, 0x02, 0xf7, 0x05, 0xe7, 0xfe,
  0xfe, 0x16, 0xfc, 0x02, 0xec, 0xf5, 0x00, 0xf6, 0x0b, 0x0f, 0x02, 0xf8,
  0xde, 0xe0, 0x13, 0x05, 0xf8, 0x0a, 0xf4, 0xe8, 0x0b, 0xf4, 0xe2, 0xf6,
  0x10, 0xf1, 0x00, 0xf0, 0xd5, 0xf6, 0xe5, 0x0b, 0xfd, 0xcc, 0xfe, 0xf2,
  0xfe, 0x15, 0xe1, 0xfe, 0x0e, 0xcd, 0xf6, 0x05, 0xfc, 0xd7, 0xfd, 0x09,
  0xf8, 0x01, 0xe8, 0xfa, 0xe3, 0x0a, 0xf5, 0xf5, 0xeb, 0xf5, 0x19, 0x10,
  0x05, 0xf6, 0xec, 0x00, 0xae, 0x06, 0x01, 0xfb, 0x02, 0xf1, 0xf7, 0x07,
  0xfe, 0xff, 0x06, 0x0e, 0xe5, 0x08, 0xd8, 0xfb, 0x07, 0xb5, 0xed, 0x09,
  0xef, 0xf7, 0x08, 0xef, 0xf9, 0xaf, 0x05, 0x02, 0xf3, 0xfa, 0x02, 0x0c,
  0xe5, 0xfb, 0x04, 0xd6, 0x01, 0x0d, 0xf9, 0xdd, 0x09, 0x01, 0xd9, 0xf8,
  0x02, 0x0b, 0x01, 0x00, 0x09, 0x04, 0x04, 0xf2, 0xff, 0x03, 0xf6, 0x02,
  0xff, 0x00, 0x0a, 0x00, 0xf0, 0x02, 0x03, 0x03, 0xff, 0xf5, 0x03, 0xfa,
  0x29, 0xfb, 0x03, 0x0e, 0xfb, 0xf8, 0xff, 0xe8, 0xfd, 0xff, 0xf4, 0x09,
  0x0e, 0x02, 0x0c, 0xfd, 0xed, 0xf3, 0x17, 0x02, 0xf1, 0x05, 0x04, 0x11,
  0x02, 0x0d, 0x00, 0xf1, 0x03, 0x08, 0x04, 0x1c, 0x04, 0xfa, 0xd2, 0x07,
  0xf7, 0xfb, 0xff, 0x02, 0xbb, 0xfd, 0x0d, 0xfe, 0x02, 0x05, 0x15, 0x06,
  0xdc, 0x02, 0x0d, 0x09, 0xfb, 0x07, 0xf7, 0xf8, 0x02, 0xee, 0xff, 0x01,
  0x05, 0x00, 0x06, 0x0d, 0x04, 0x08, 0x02, 0xf2, 0xff, 0x0e, 0x04, 0xf5,
  0x05, 0x00, 0xff, 0x01, 0x07, 0xfb, 0x04, 0xfd, 0x00, 0x06, 0xf0, 0x00,
  0x09, 0x0c, 0x08, 0x08, 0x11, 0xfe, 0xf1, 0xf9, 0xf9, 0xfd, 0xfd, 0xf5,
  0x02, 0xff, 0x0b, 0xeb, 0xfd, 0x0c, 0x0b, 0xf6, 0x02, 0xf4, 0x04, 0xfb,
  0xf7, 0xfc, 0xe1, 0xf9, 0xf8, 0x07, 0x07, 0xe5, 0x02, 0x0e, 0xe2, 0xfd,
  0x07, 0x09, 0xfe, 0xff, 0xfd, 0x0b, 0x09, 0x03, 0xed, 0x0a, 0xf9, 0xfa,
  0xfa, 0x06, 0x03, 0xff, 0xef, 0x06, 0x0c, 0x09, 0xf9, 0xfd, 0xfe, 0x0e,
  0x08, 0xf5, 0xf1, 0xf2, 0x05, 0xf5, 0xff, 0xe3, 0x06, 0xfc, 0xfe, 0x00,
  0xf4, 0xf6, 0xfd, 0xfb, 0xf8, 0x07, 0x05, 0x05, 0x03, 0xf3, 0x04, 0xf3,
  0x00, 0x08, 0xf9, 0x09, 0xfe, 0x07, 0xf8, 0xed, 0x00, 0x9d, 0xf3, 0xf8,
  0x00, 0xdb, 0x04, 0x0c, 0xfd, 0xfe, 0x01, 0x04, 0x04, 0x02, 0xe1, 0xf1,
  0xf0, 0xed, 0xf4, 0x12, 0xff, 0xf2, 0x00, 0x1a, 0xf4, 0x08, 0xf2, 0x04,
  0x00, 0x04, 0xfd, 0x05, 0xff, 0x05, 0x00, 0xfd, 0xfc, 0xff, 0x06, 0xfd,
  0x00, 0x00, 0xfa, 0xfa, 0x02, 0x02, 0xfa, 0xfd, 0xfa, 0x01, 0x02, 0xfd,
  0xfd, 0xfa, 0xfc, 0x05, 0x04, 0x01, 0xfa, 0xfd, 0x03, 0x03, 0x04, 0xfe,
  0x00, 0x04, 0xfd, 0xff, 0xfc, 0xfd, 0xfc, 0x01, 0x00, 0x05, 0x03, 0x03,
  0x00, 0x02, 0xfc, 0x03, 0x04, 0x05, 0xff, 0xfc, 0xfb, 0x02, 0xfb, 0x02,
  0x02, 0xff, 0xff, 0xfd, 0xfd, 0xfe, 0x03, 0x05, 0xfc, 0xfc, 0xf9, 0x01,
  0x01, 0x04, 0x03, 0x07, 0xfe, 0xfb, 0x04, 0xff, 0xff, 0xfa, 0x02, 0xfa,
  0x03, 0xf9, 0xfb, 0xfc, 0xfc, 0xfd, 0xfa, 0x06, 0x06, 0x01, 0xff, 0x05,
  0x06, 0x00, 0x04, 0xfb, 0xfc, 0x01, 0xfb, 0xfe, 0xff, 0x00, 0xfe, 0xfb,
  0xfa, 0xfb, 0x01, 0x04, 0x03, 0xfc, 0x04, 0xfd, 0x00, 0x01, 0xfb, 0xfc,
  0x00, 0xfb, 0xfc, 0x02, 0xfc, 0xfe, 0x03, 0x06, 0x01, 0xfa, 0x03, 0xfb,
  0x00, 0x05, 0x04, 0xfd, 0xfd, 0x04, 0xfa, 0x01, 0xfd, 0x01, 0x06, 0xfd,
  0xfc, 0x02, 0x01, 0x03, 0x01, 0xfd, 0xfc, 0xf9, 0x03, 0x02, 0xfa, 0x00,
  0x06, 0x05, 0xfd, 0x01, 0x05, 0xfc, 0xfe, 0xff, 0xfd, 0x02, 0xff, 0xfd,
  0xfa, 0xfa, 0xff, 0x04, 0xfa, 0x02, 0x05, 0x00, 0xff, 0x00, 0x00, 0xff,
  0x00, 0x03, 0x03, 0xfc, 0xff, 0x00, 0xfd, 0x04, 0x07, 0x00, 0xfa, 0x03,
  0xff, 0xfe, 0xfc, 0xff, 0x05, 0x05, 0x01, 0xfe, 0xfd, 0x04, 0xfc, 0xfc,
  0x00, 0xfe, 0xfb, 0xfc, 0x01, 0xfe, 0xfd, 0x01, 0x01, 0x00, 0xfc, 0x06,
  0xfc, 0xfc, 0x01, 0x05, 0xfb, 0x00, 0xfe, 0xfc, 0x05, 0x03, 0xff, 0xfb,
  0x06, 0x05, 0x06, 0x00, 0xfb, 0x00, 0xfe, 0xfb, 0xfc, 0xfe, 0xfc, 0x06,
  0xfc, 0xfd, 0x06, 0xfe, 0xfe, 0x05, 0x06, 0x00, 0xff, 0x07, 0xf9, 0xfc,
  0xfc, 0xfe, 0xfe, 0xfb, 0x04, 0x01, 0x05, 0x04, 0x03, 0xcf, 0xfe, 0x03,
  0x01, 0xfa, 0x0e, 0xf8, 0x00, 0xfd, 0xbc, 0x02, 0xf7, 0xfe, 0xfd, 0xf0,
  0x09, 0xfc, 0xf7, 0xdc, 0xff, 0xe5, 0x02, 0xfa, 0x03, 0x03, 0xfc, 0xfd,
  0x04, 0x0f, 0x93, 0xf9, 0xfd, 0x02, 0xff, 0x04, 0xaf, 0x02, 0xea, 0xf8,
  0x04, 0xd8, 0xff, 0xfe, 0xf7, 0xfb, 0x10, 0xfb, 0xfc, 0x08, 0x01, 0x01,
  0x08, 0x03, 0xff, 0xf8, 0x9b, 0xfc, 0xc6, 0x03, 0xfa, 0x06, 0x0d, 0x0a,
  0x04, 0x00, 0x04, 0x00, 0x0e, 0x08, 0x01, 0x09, 0x01, 0x07, 0x03, 0xfa,
  0xb5, 0xfe, 0x97, 0xfb, 0x04, 0x06, 0xf3, 0x13, 0xfd, 0x04, 0x01, 0xfe,
  0xf9, 0x0a, 0xff, 0xfe, 0xf2, 0x06, 0x11, 0x07, 0xfc, 0xc4, 0xc4, 0xc0,
  0xf9, 0xef, 0xf3, 0xfd, 0x0b, 0xff, 0xfe, 0xfe, 0x07, 0x02, 0x04, 0xfe,
  0xb8, 0x9c, 0xb4, 0x01, 0xfb, 0x05, 0x07, 0x07, 0xfe, 0x03, 0xd7, 0x01,
  0x04, 0x06, 0x07, 0x06, 0x01, 0xfa, 0xff, 0xfa, 0xfc, 0x02, 0xfa, 0xfc,
  0x05, 0x03, 0x05, 0xfd, 0x06, 0xfa, 0x06, 0x04, 0xfd, 0x05, 0xfb, 0x04,
  0xfa, 0xfb, 0xfc, 0x05, 0xfb, 0xfa, 0xfa, 0x03, 0xfa, 0xfe, 0xff, 0x04,
  0xfd, 0x05, 0x05, 0xfe, 0x05, 0x01, 0xfc, 0x02, 0xfc, 0x00, 0x06, 0xf9,
  0x02, 0xfa, 0x05, 0xfa, 0x03, 0xfd, 0x02, 0xfd, 0xff, 0xf9, 0x05, 0xff,
  0xfc, 0xfc, 0x05, 0xfe, 0xfd, 0x02, 0x00, 0xfe, 0x01, 0x03, 0x01, 0x02,
  0xfb, 0x05, 0x05, 0x03, 0xff, 0x05, 0x02, 0x03, 0xfc, 0xfe, 0xfb, 0xff,
  0x00, 0x02, 0x04, 0x02, 0xfb, 0xfb, 0xff, 0x02, 0xfe, 0x02, 0x06, 0x00,
  0xfc, 0xfd, 0x02, 0x01, 0xff, 0xfa, 0xfc, 0xf9, 0xfd, 0x07, 0x01, 0xfe,
  0xfd, 0x03, 0xff, 0xff, 0x05, 0xfc, 0x02, 0x01, 0xfd, 0x05, 0x03, 0xfc,
  0xfe, 0x06, 0x05, 0xfc, 0xfb, 0x05, 0x00, 0x00, 0x05, 0xfc, 0x01, 0x00,
  0xff, 0x03, 0x04, 0xfe, 0x00, 0xfd, 0xfa, 0xf7, 0xf3, 0x06, 0x04, 0xf9,
  0xfe, 0x06, 0x01, 0xfa, 0xff, 0xf6, 0x03, 0x01, 0x02, 0x07, 0xf9, 0xfd,
  0xfc, 0xfb, 0x01, 0x01, 0xf7, 0xff, 0x07, 0xfa, 0xfb, 0x04, 0xf9, 0x00,
  0xfa, 0x03, 0xfc, 0xf9, 0xf7, 0xfc, 0xfc, 0xf9, 0xf1, 0xf9, 0x00, 0x04,
  0x05, 0xff, 0xf6, 0xfc, 0x05, 0x00, 0x04, 0x02, 0xfd, 0xff, 0xfc, 0x01,
  0x03, 0xf5, 0x07, 0xfd, 0xf8, 0xf7, 0x01, 0xfe, 0x05, 0x02, 0xfa, 0x05,
  0xf6, 0x01, 0x00, 0xfb, 0xfe, 0xfd, 0x05, 0xfc, 0x04, 0x06, 0x05, 0xfb,
  0xfd, 0xfb, 0x00, 0x04, 0x04, 0xff, 0x02, 0x03, 0x02, 0x04, 0x08, 0x05,
  0x01, 0xf7, 0xf7, 0xfd, 0x04, 0xfe, 0x04, 0xf4, 0xf9, 0xfc, 0xfc, 0x00,
  0x05, 0xff, 0x00, 0x01, 0xfe, 0x03, 0xfd, 0xf4, 0xf7, 0x04, 0x02, 0xf7,
  0xfc, 0x00, 0xfe, 0xf8, 0xfe, 0xfb, 0x01, 0x03, 0xfd, 0x07, 0xf7, 0x0a,
  0x0d, 0x03, 0xfd, 0xeb, 0x1f, 0x05, 0xf2, 0x00, 0xff, 0xe4, 0xf8, 0xfd,
  0x06, 0x03, 0x0e, 0xf7, 0x09, 0x09, 0x05, 0xfe, 0x08, 0x02, 0xd7, 0xf9,
  0xef, 0xfc, 0xea, 0xe3, 0xef, 0x08, 0x09, 0xfc, 0x03, 0x05, 0xec, 0xf8,
  0x05, 0x15, 0xf5, 0xe5, 0xc5, 0x10, 0x01, 0x0a, 0xf9, 0x04, 0x25, 0xfb,
  0xf9, 0x01, 0xf0, 0x03, 0xf6, 0x0a, 0x05, 0x01, 0xfd, 0xc8, 0x04, 0x0a,
  0xf2, 0xec, 0xfc, 0xfc, 0x07, 0xfb, 0xeb, 0xd9, 0x0a, 0xfe, 0xf9, 0x0e,
  0xbf, 0xef, 0xf2, 0xf6, 0xee, 0x03, 0x00, 0xfa, 0xed, 0xed, 0xfd, 0x01,
  0xef, 0x01, 0x03, 0xe7, 0xfe, 0xfb, 0xfb, 0xf4, 0x05, 0xd3, 0x2d, 0xcf,
  0x05, 0xe4, 0x0d, 0x0f, 0xe6, 0xfc, 0xfb, 0x02, 0x00, 0xf9, 0xf4, 0xca,
  0xf4, 0x2c, 0x2a, 0x1a, 0xfc, 0xf0, 0xe0, 0x1d, 0xf4, 0x11, 0xff, 0xf5,
  0xc9, 0x0a, 0xd0, 0xe3, 0xfd, 0xfa, 0x03, 0xfc, 0xfc, 0xfb, 0x00, 0xfc,
  0xff, 0xfd, 0xfa, 0xfa, 0xff, 0x00, 0xfe, 0x01, 0x02, 0xfe, 0xfd, 0xfb,
  0xff, 0xfd, 0xff, 0x02, 0x00, 0x06, 0x02, 0x03, 0xfe, 0xfc, 0xfb, 0xfb,
  0x05, 0xfe, 0x04, 0xff, 0xff, 0x04, 0xfe, 0x04, 0x01, 0xfa, 0xfb, 0xf9,
  0xfd, 0x03, 0xfa, 0xff, 0x05, 0xff, 0x07, 0xfb, 0x06, 0xfa, 0x03, 0x00,
  0xfe, 0xfe, 0x05, 0x00, 0xff, 0xfd, 0xff, 0xfa, 0x06, 0x05, 0xfa, 0xff,
  0x01, 0x01, 0xfa, 0x03, 0xfd, 0xff, 0x06, 0xff, 0xfc, 0xfa, 0x01, 0xfa,
  0xfd, 0x06, 0x05, 0x06, 0x03, 0x06, 0x04, 0xfc, 0xfa, 0xff, 0xff, 0xff,
  0x06, 0xfd, 0xfe, 0xfe, 0x05, 0x06, 0xfc, 0x04, 0x01, 0x06, 0x05, 0xfa,
  0xfa, 0x03, 0xfe, 0x00, 0x06, 0xfe, 0x03, 0x01, 0x04, 0xff, 0xff, 0x04,
  0xff, 0xfe, 0x07, 0xfa, 0xfa, 0x05, 0xfe, 0x01, 0xfc, 0xfa, 0x00, 0x02,
  0xfd, 0x02, 0xfd, 0xff, 0xfe, 0xfc, 0xfe, 0xf8, 0xfd, 0xfc, 0xff, 0x03,
  0xf5, 0xfc, 0x06, 0xfc, 0xfb, 0xfa, 0xf9, 0xf9, 0xfa, 0xf6, 0xf6, 0xfc,
  0xfe, 0xf8, 0xf7, 0xf8, 0xfc, 0xf7, 0xf8, 0x01, 0x04, 0x09, 0x02, 0xf0,
  0xfb, 0xf7, 0xfb, 0xf8, 0xfb, 0xf6, 0xfe, 0xff, 0xf5, 0x08, 0x04, 0x01,
  0xfc, 0xff, 0xf9, 0xf9, 0xfc, 0xfd, 0x02, 0x00, 0xee, 0xfc, 0x07, 0xfb,
  0xfa, 0x00, 0xf8, 0xfa, 0x04, 0x07, 0xfb, 0x04, 0xff, 0x02, 0xf9, 0xed,
  0xfd, 0x00, 0xfd, 0xfe, 0xfb, 0xf7, 0xf9, 0x01, 0xf7, 0x04, 0xf2, 0x02,
  0x09, 0xf1, 0x03, 0xf2, 0x05, 0xfb, 0xfa, 0xff, 0x03, 0xfa, 0xfe, 0xfb,
  0xf0, 0x07, 0xf8, 0x00, 0xfc, 0xf0, 0x03, 0x04, 0xf9, 0xff, 0xec, 0xfb,
  0x03, 0xfe, 0xfd, 0xf9, 0xef, 0xfa, 0xfa, 0x04, 0x00, 0xf6, 0xf9, 0xfa,
  0xf7, 0x04, 0xf3, 0xfd, 0xf5, 0xf7, 0xf8, 0xf9, 0x00, 0x03, 0xbc, 0xff,
  0x03, 0x06, 0x03, 0x01, 0x0c, 0x05, 0xf6, 0xfa, 0xfa, 0xf7, 0x02, 0xf7,
  0xfb, 0xf8, 0xf7, 0xe9, 0x04, 0x0b, 0x04, 0x07, 0x01, 0xb3, 0x00, 0x06,
  0x0a, 0x08, 0xf0, 0x01, 0xe1, 0x04, 0x00, 0xf9, 0xf8, 0xfe, 0xd6, 0xf0,
  0x01, 0x09, 0xf7, 0xfe, 0x00, 0x06, 0x07, 0x0a, 0xb7, 0x02, 0x01, 0xf6,
  0x0b, 0x03, 0xe7, 0xff, 0xea, 0x01, 0x00, 0x00, 0xf9, 0x03, 0xf2, 0xfa,
  0x0c, 0x00, 0xe8, 0x08, 0x02, 0x0a, 0xc9, 0x02, 0xfd, 0xf6, 0x03, 0x00,
  0xfc, 0x00, 0xff, 0xf7, 0x04, 0x07, 0xf6, 0xf1, 0x00, 0xca, 0x12, 0xf9,
  0x08, 0xfe, 0xbc, 0xff, 0xfd, 0x08, 0xf6, 0x09, 0xf7, 0xfa, 0x01, 0x01,
  0xfd, 0xd3, 0x00, 0x08, 0xff, 0x0b, 0xf1, 0xfd, 0x03, 0xfd, 0x09, 0x15,
  0xec, 0xf7, 0x02, 0x09, 0xea, 0xa0, 0xff, 0x02, 0xff, 0xfd, 0xf2, 0xd1,
  0x03, 0xfd, 0xfd, 0x06, 0x01, 0xfd, 0x05, 0xf8, 0x00, 0xfc, 0xfc, 0xfe,
  0xf4, 0x04, 0x05, 0x06, 0x05, 0x02, 0x05, 0xfb, 0xfc, 0xfd, 0xf8, 0x05,
  0x02, 0xf5, 0x03, 0x00, 0xf8, 0x04, 0x05, 0xfa, 0xf8, 0x05, 0x05, 0x00,
  0x02, 0xfd, 0xfc, 0xf7, 0xfd, 0xfd, 0x03, 0xfb, 0xfe, 0xf4, 0x07, 0xff,
  0xfb, 0xfd, 0x02, 0xfc, 0x03, 0x02, 0x07, 0xfb, 0x06, 0xfe, 0xfb, 0x01,
  0x08, 0xfe, 0xf7, 0x02, 0x02, 0xfe, 0xfd, 0x01, 0x04, 0xfa, 0xfd, 0xfd,
  0xfe, 0x04, 0x04, 0x0f, 0x03, 0x03, 0x03, 0xf9, 0xf2, 0xf9, 0xff, 0x04,
  0x00, 0xf7, 0xfa, 0x07, 0xf8, 0x01, 0x02, 0x06, 0xfe, 0xf8, 0x02, 0x03,
  0x02, 0x05, 0x01, 0x04, 0x03, 0xed, 0xff, 0xf3, 0x04, 0x0a, 0xfb, 0xf5,
  0x04, 0xfa, 0x02, 0x03, 0x01, 0xfe, 0x05, 0x00, 0x01, 0xf6, 0xfb, 0xf9,
  0xfc, 0x03, 0x05, 0xf5, 0x00, 0x02, 0x07, 0xfc, 0x01, 0xfb, 0xf9, 0x03,
  0xed, 0xfb, 0x0c, 0xe6, 0x03, 0xff, 0xfd, 0xff, 0xff, 0x03, 0xfe, 0xfb,
  0x07, 0xff, 0x01, 0x04, 0x01, 0x03, 0x04, 0xfb, 0xfa, 0xfe, 0x00, 0xf8,
  0xfc, 0x05, 0xf9, 0xfe, 0xfe, 0x07, 0xfe, 0xfe, 0x01, 0xff, 0x06, 0xf7,
  0x00, 0x02, 0xfb, 0xff, 0xf9, 0x05, 0xfa, 0xfd, 0x00, 0xfe, 0xfc, 0x04,
  0x0e, 0x02, 0x02, 0x08, 0x00, 0xf0, 0xf8, 0xfb, 0xff, 0xfe, 0x04, 0xff,
  0x00, 0x03, 0x08, 0xfd, 0xf9, 0x02, 0x11, 0xf8, 0x01, 0xfe, 0x04, 0xf8,
  0xfd, 0x01, 0xfb, 0xf4, 0x03, 0x01, 0xfe, 0x07, 0xf1, 0xfa, 0x03, 0xfe,
  0xff, 0xf8, 0xff, 0xfa, 0x04, 0x02, 0x06, 0xfa, 0xf6, 0x08, 0x07, 0xfd,
  0xfd, 0x08, 0xf8, 0x05, 0xfb, 0xfc, 0x00, 0xfd, 0x00, 0xf7, 0x06, 0xfa,
  0xfd, 0xfe, 0xfa, 0x04, 0xf9, 0x04, 0xfc, 0xfb, 0x02, 0x02, 0xfc, 0x01,
  0xfa, 0xf4, 0xfd, 0xfd, 0xff, 0x07, 0xff, 0x03, 0xfa, 0xf9, 0x01, 0xfa,
  0xfd, 0x01, 0x02, 0x04, 0x01, 0x06, 0x01, 0xff, 0x07, 0x04, 0x06, 0x07,
  0x02, 0x00, 0xfb, 0x03, 0xfd, 0x04, 0xfe, 0x01, 0xfa, 0xfd, 0x02, 0xff,
  0x04, 0x06, 0xfd, 0xfa, 0x02, 0xfe, 0x02, 0xfb, 0x04, 0xfc, 0x06, 0x00,
  0x03, 0xfe, 0x03, 0xfc, 0xfa, 0xfc, 0x02, 0x05, 0xfc, 0xfc, 0x03, 0xfa,
  0x00, 0xfd, 0xfb, 0xfc, 0x02, 0xfc, 0x02, 0x06, 0xfe, 0x03, 0x03, 0xfa,
  0x05, 0x06, 0x04, 0x06, 0x03, 0xfa, 0xfe, 0x02, 0xfa, 0x01, 0xfe, 0xfa,
  0xfe, 0x07, 0x03, 0x00, 0x02, 0x05, 0xff, 0xfe, 0xfd, 0xfc, 0xfe, 0x05,
  0xfc, 0x01, 0xfb, 0x06, 0x03, 0xfb, 0xfc, 0x05, 0xff, 0xff, 0xfa, 0xfc,
  0x00, 0x00, 0xfa, 0x07, 0xfb, 0xf9, 0xfe, 0x02, 0x03, 0x02, 0xfd, 0x00,
  0x04, 0x03, 0x06, 0x01, 0x04, 0x01, 0xfc, 0xff, 0xfd, 0xfc, 0xfd, 0xfd,
  0x01, 0xfd, 0xfa, 0x03, 0x03, 0x08, 0xfa, 0xff, 0x08, 0x0b, 0xfc, 0xe4,
  0x03, 0x06, 0xf6, 0xfb, 0x06, 0xfa, 0x07, 0x05, 0x04, 0x04, 0x02, 0xce,
  0xff, 0x07, 0x01, 0xfe, 0x07, 0x00, 0xcd, 0xf8, 0xf3, 0x03, 0xf6, 0xff,
  0x02, 0x06, 0x04, 0xf3, 0x01, 0x07, 0xf6, 0xbe, 0x03, 0x06, 0xfc, 0xe5,
  0xc0, 0x07, 0x07, 0x04, 0xfb, 0x02, 0x01, 0x06, 0x09, 0x03, 0xc9, 0x05,
  0xf8, 0x00, 0x03, 0xf8, 0xfd, 0xd5, 0xfc, 0x01, 0x01, 0xfb, 0x06, 0xf8,
  0x02, 0xfd, 0xfc, 0xd0, 0x08, 0xfb, 0xf7, 0xfb, 0xc7, 0xf9, 0xee, 0xff,
  0xea, 0x03, 0x00, 0x01, 0xfc, 0xff, 0x01, 0xfd, 0x02, 0xff, 0xff, 0xdd,
  0x03, 0x00, 0xfa, 0xfe, 0x05, 0x01, 0x00, 0xd4, 0x06, 0xf2, 0xff, 0x03,
  0x41, 0x0a, 0x05, 0x06, 0x01, 0x06, 0xf1, 0xfa, 0xf6, 0x02, 0x02, 0x0c,
  0xbb, 0xf8, 0xd0, 0x06, 0xf8, 0x01, 0xf8, 0xf1, 0xd6, 0x0b, 0xeb, 0x01,
  0xfc, 0xfa, 0x00, 0x05, 0x06, 0xfc, 0xfa, 0xfc, 0xff, 0xfa, 0xfa, 0xff,
  0xfd, 0x06, 0x04, 0xfc, 0xfd, 0x00, 0xfc, 0x01, 0xff, 0x02, 0xf9, 0xfa,
  0x03, 0x06, 0xff, 0xfd, 0xfd, 0xfb, 0x05, 0x03, 0x02, 0x01, 0x04, 0x05,
  0xff, 0xf9, 0xfd, 0xfd, 0xfe, 0xfd, 0x01, 0x04, 0x05, 0xf9, 0xfc, 0x06,
  0x04, 0x04, 0xfd, 0x04, 0x06, 0xfc, 0xfe, 0x01, 0xfa, 0x04, 0xfa, 0x00,
  0xfb, 0x02, 0x01, 0xf9, 0xfc, 0x04, 0xff, 0xf9, 0x01, 0xfa, 0xfa, 0x01,
  0xfa, 0xfb, 0xfe, 0xfe, 0xfb, 0x06, 0xfe, 0xfe, 0x00, 0xff, 0x04, 0xfb,
  0x05, 0x04, 0x06, 0x05, 0xfc, 0xfb, 0x03, 0xfc, 0xf9, 0xfa, 0x03, 0xfa,
  0x02, 0xfe, 0x03, 0xfe, 0xfb, 0xfa, 0x03, 0xfe, 0x03, 0xff, 0xf9, 0x00,
  0xfb, 0xfa, 0x00, 0xff, 0xfd, 0x01, 0x06, 0xfd, 0x03, 0x00, 0xff, 0x05,
  0x05, 0xfa, 0x03, 0x02, 0x04, 0x00, 0x03, 0xfa, 0xfd, 0xfa, 0xff, 0x01,
  0x01, 0xdc, 0x07, 0xee, 0xe5, 0x03, 0x12, 0x07, 0x00, 0x0f, 0x08, 0x07,
  0xf1, 0x16, 0xfc, 0x0c, 0x05, 0xfb, 0xf2, 0x03, 0xea, 0x04, 0xed, 0x0b,
  0x04, 0x01, 0x1e, 0x06, 0x07, 0x01, 0xf2, 0x13, 0x0b, 0xf5, 0x22, 0x03,
  0x05, 0x04, 0x07, 0xfa, 0x04, 0xed, 0xf3, 0xfb, 0x0f, 0xea, 0x05, 0x00,
  0xea, 0xfe, 0x02, 0xfe, 0x06, 0xe4, 0xfd, 0xf0, 0x05, 0xfc, 0xf8, 0xea,
  0xfd, 0x14, 0xff, 0x05, 0x01, 0x00, 0xfd, 0xf7, 0xe7, 0x10, 0x07, 0xfc,
  0x00, 0x0c, 0x09, 0x02, 0x16, 0x09, 0x05, 0xff, 0x0d, 0x0d, 0x06, 0x10,
  0x0d, 0xf9, 0x05, 0xdb, 0x08, 0xfb, 0xfa, 0xfa, 0x05, 0x1b, 0x0e, 0x07,
  0x03, 0x22, 0xfd, 0xf5, 0xe5, 0x0b, 0x06, 0xfc, 0xee, 0xfd, 0x06, 0x08,
  0x10, 0x06, 0x03, 0xec, 0xfd, 0x00, 0xe6, 0xf5, 0x0c, 0xf9, 0x09, 0xff,
  0xf3, 0xf1, 0x0d, 0xed, 0xf9, 0xfe, 0xf2, 0xf8, 0x00, 0xfb, 0x01, 0xf9,
  0x06, 0x00, 0x06, 0xf2, 0xfe, 0xf9, 0x01, 0xfe, 0xf7, 0xfb, 0xf8, 0xfd,
  0xfd, 0x00, 0xff, 0x01, 0xff, 0xf7, 0xfe, 0xf3, 0xf9, 0x06, 0xf3, 0x02,
  0xf9, 0x01, 0xf9, 0xee, 0x00, 0xff, 0xee, 0xf9, 0xfa, 0xfd, 0xfc, 0x04,
  0xf6, 0xfa, 0x07, 0xfd, 0xfd, 0xfd, 0xfd, 0x05, 0x00, 0xf6, 0xff, 0xff,
  0xfc, 0xfb, 0xfe, 0x02, 0x00, 0xfb, 0x07, 0xfc, 0xfe, 0xfc, 0xee, 0xfa,
  0x03, 0xfa, 0xfb, 0xe8, 0xfe, 0xf8, 0xfb, 0xff, 0xf4, 0xf7, 0x03, 0x00,
  0xfc, 0xfe, 0xf6, 0x04, 0x02, 0xfd, 0xfd, 0xf9, 0xf5, 0xfd, 0xf2, 0xf7,
  0x01, 0x03, 0xf3, 0xfa, 0xf6, 0xe6, 0xfc, 0xf9, 0xfe, 0xe9, 0xfc, 0xfa,
  0xf9, 0xf7, 0x02, 0xfd, 0xf8, 0xff, 0xee, 0xfb, 0xfb, 0xfc, 0xfc, 0x08,
  0xfa, 0xfd, 0xf9, 0x04, 0xfa, 0xf6, 0xf7, 0x01, 0xfc, 0x01, 0xfa, 0x02,
  0x08, 0x0e, 0xf1, 0x08, 0x07, 0x09, 0xfe, 0x08, 0x16, 0x04, 0xf3, 0xff,
  0x04, 0x00, 0xf6, 0xf7, 0x05, 0xf1, 0x0a, 0xea, 0x00, 0x08, 0x0a, 0xf5,
  0x01, 0xee, 0x0b, 0xf5, 0xea, 0xfb, 0xe1, 0xf9, 0xf0, 0x04, 0x0f, 0xe3,
  0xf2, 0x0a, 0xd9, 0xfd, 0xff, 0x03, 0xf9, 0x00, 0x01, 0x1d, 0x05, 0x09,
  0xf0, 0x06, 0xfb, 0xfb, 0x00, 0x0c, 0x06, 0x01, 0xf9, 0xfd, 0x0b, 0x09,
  0xf2, 0xfe, 0xfc, 0x07, 0xff, 0xee, 0xdb, 0xf8, 0x04, 0xf2, 0xf4, 0xd7,
  0x05, 0xfe, 0xef, 0x0b, 0xf5, 0xe8, 0xf2, 0xf3, 0xf2, 0x0a, 0x05, 0xfd,
  0x06, 0xe9, 0x05, 0xfa, 0xfc, 0x05, 0xf0, 0x06, 0xf7, 0xff, 0xe8, 0xee,
  0x04, 0x9d, 0xf0, 0xf5, 0xff, 0xe3, 0x08, 0x1d, 0x04, 0x02, 0xf8, 0xff,
  0x07, 0x01, 0xe6, 0xe4, 0xeb, 0xe7, 0xee, 0x1d, 0xf2, 0xee, 0x07, 0x19,
  0xf1, 0x0e, 0xfd, 0xf9, 0x05, 0x0c, 0xf3, 0x0a, 0x03, 0xf5, 0xff, 0x07,
  0xfd, 0xf7, 0xfb, 0x08, 0x0d, 0x07, 0x00, 0xf7, 0x07, 0xf9, 0xf5, 0xff,
  0xea, 0xe2, 0xfd, 0xf4, 0xf7, 0xfb, 0xee, 0xf9, 0xed, 0xfd, 0x03, 0xfa,
  0xe9, 0x00, 0xff, 0xfd, 0xff, 0x09, 0xec, 0xcb, 0xf0, 0xf5, 0x00, 0xfe,
  0x08, 0xf8, 0xfc, 0xfd, 0xf9, 0x0c, 0xfb, 0x08, 0xf4, 0xeb, 0x00, 0xeb,
  0x05, 0x04, 0xff, 0xfa, 0xfd, 0xfb, 0xfd, 0x06, 0xd9, 0x05, 0xf7, 0xec,
  0xfd, 0xfe, 0xd6, 0xe8, 0xfc, 0xd7, 0x06, 0xf7, 0xee, 0xec, 0xfc, 0x07,
  0xe2, 0xe4, 0x02, 0x07, 0xfc, 0xfb, 0x03, 0x01, 0xf9, 0xfe, 0x01, 0xfc,
  0x01, 0x00, 0xf9, 0x06, 0xfd, 0xf5, 0xeb, 0xfe, 0x04, 0xe8, 0xd5, 0xf2,
  0x04, 0xfc, 0xf4, 0x07, 0x08, 0x05, 0x07, 0xfb, 0xdc, 0x00, 0xe5, 0xf7,
  0xf9, 0xcb, 0xd3, 0x0c, 0xfe, 0x03, 0x06, 0x0d, 0xf9, 0x05, 0x07, 0xff,
  0xfe, 0xea, 0xd9, 0x08, 0xf6, 0x01, 0xfe, 0xfa, 0x08, 0x00, 0xf1, 0xfa,
  0x09, 0xfd, 0xff, 0xec, 0xf7, 0x02, 0xf6, 0xf2, 0xfd, 0x08, 0x02, 0xed,
  0xfb, 0xfb, 0xff, 0xfa, 0x02, 0xf1, 0xf5, 0xf9, 0xf2, 0xfb, 0xf8, 0x00,
  0x01, 0x02, 0xfe, 0xee, 0xf3, 0xfa, 0xf9, 0xf3, 0xfb, 0xfb, 0x01, 0xfa,
  0xeb, 0x00, 0xfe, 0xfe, 0xf8, 0xf7, 0x01, 0x03, 0xf8, 0xfb, 0xee, 0xfe,
  0x02, 0x02, 0xf6, 0xf5, 0x04, 0xf7, 0x0c, 0x00, 0xff, 0xea, 0x04, 0xfc,
  0x04, 0xf3, 0xfc, 0xfb, 0xfc, 0x06, 0xf9, 0xfd, 0xe8, 0xfd, 0xf8, 0xff,
  0xfc, 0xff, 0xf5, 0x03, 0xfc, 0xfd, 0x00, 0xf7, 0xfa, 0xff, 0xf8, 0xef,
  0xfe, 0x01, 0xfd, 0xfe, 0xf8, 0xfa, 0xf7, 0xec, 0xfc, 0xfb, 0x03, 0x05,
  0x00, 0xf7, 0xfd, 0xfb, 0xfc, 0x05, 0xf5, 0x04, 0x00, 0xff, 0xfe, 0x0e,
  0xf0, 0xf6, 0x0b, 0x02, 0xf9, 0xfc, 0xfa, 0xf4, 0xf2, 0xfd, 0xec, 0x02,
  0x03, 0x05, 0xf3, 0x09, 0x0b, 0xf8, 0x01, 0x09, 0x07, 0xfa, 0x04, 0x04,
  0xfe, 0xe7, 0xfd, 0xfb, 0x02, 0xfb, 0x03, 0xea, 0x02, 0x00, 0xfa, 0xf5,
  0x02, 0xeb, 0x03, 0xf5, 0xed, 0x02, 0xf3, 0xf5, 0xf6, 0x06, 0xf9, 0xff,
  0xe5, 0x08, 0x04, 0xfc, 0x07, 0xfe, 0xe5, 0x03, 0xfc, 0x0a, 0x07, 0xfe,
  0xfe, 0x05, 0x03, 0xf6, 0x09, 0x08, 0x04, 0x04, 0xfb, 0x00, 0x07, 0x04,
  0x00, 0xfa, 0xfd, 0x01, 0x0c, 0xf3, 0xd0, 0xf3, 0x09, 0xf4, 0xf6, 0xec,
  0x02, 0x01, 0xf1, 0x07, 0xfd, 0xe7, 0xf1, 0xf4, 0xee, 0x00, 0xfa, 0x07,
  0x03, 0x03, 0x02, 0x06, 0xf2, 0xf5, 0xee, 0xfd, 0xfe, 0x10, 0xdc, 0x01,
  0xfe, 0xb4, 0xf6, 0xf9, 0xf8, 0x0f, 0x02, 0x09, 0x09, 0x09, 0x00, 0x00,
  0xfe, 0x06, 0xe1, 0xe6, 0x04, 0xf2, 0xf4, 0x05, 0x01, 0xeb, 0x01, 0x03,
  0xef, 0x03, 0xfa, 0xfb, 0xfb, 0x03, 0x05, 0x07, 0x01, 0xfb, 0x02, 0xfe,
  0xff, 0x03, 0x00, 0x01, 0xf4, 0x02, 0x05, 0x07, 0x04, 0x04, 0x05, 0xfc,
  0x02, 0x02, 0xf5, 0x00, 0x03, 0xfd, 0x03, 0x01, 0x03, 0x03, 0xfa, 0x02,
  0x01, 0x05, 0x03, 0xfa, 0x04, 0xf8, 0xf8, 0x00, 0xfd, 0xff, 0x07, 0xf8,
  0x01, 0x01, 0xfd, 0x05, 0xfd, 0xfe, 0x04, 0xf9, 0x04, 0x02, 0x07, 0x07,
  0x06, 0xf7, 0xf9, 0x02, 0x05, 0xfd, 0xfa, 0x06, 0x03, 0xfc, 0x06, 0xf8,
  0xf6, 0xfd, 0x0a, 0xfa, 0xf9, 0x06, 0x03, 0x08, 0x02, 0x03, 0x04, 0xfb,
  0x02, 0xfc, 0xfb, 0xf8, 0x06, 0xf5, 0xfd, 0x01, 0x00, 0x08, 0xf9, 0x03,
  0x02, 0x05, 0xff, 0xff, 0xf9, 0x00, 0x03, 0x05, 0xfa, 0xff, 0xff, 0xff,
  0xfe, 0x07, 0xf2, 0xf6, 0x04, 0xf9, 0xfa, 0x02, 0xfb, 0xf9, 0x06, 0x05,
  0xfe, 0x04, 0xfb, 0xf9, 0xf9, 0x05, 0xfa, 0xfd, 0x02, 0xf6, 0xfc, 0x06,
  0xfa, 0x01, 0xfc, 0xfc, 0x01, 0xff, 0x00, 0x03, 0x04, 0xfe, 0xfc, 0xfd,
  0x02, 0x03, 0xfb, 0xfc, 0x04, 0x03, 0xfb, 0x04, 0xf9, 0xfe, 0xff, 0xfd,
  0xfd, 0xfe, 0xfd, 0xfc, 0xfd, 0xfa, 0xfc, 0xf9, 0xfc, 0x00, 0x04, 0xfa,
  0x02, 0x02, 0xfc, 0xfa, 0xfd, 0x01, 0x02, 0x00, 0xff, 0xfa, 0xfd, 0xfb,
  0x02, 0x05, 0xfb, 0x04, 0x03, 0xfe, 0xff, 0xfc, 0x04, 0x00, 0x02, 0x02,
  0x04, 0x02, 0x02, 0x03, 0xfc, 0x02, 0x02, 0x00, 0xfb, 0x05, 0x04, 0xff,
  0xfa, 0xfb, 0xfe, 0x05, 0xf8, 0xfb, 0x05, 0xfb, 0x05, 0xfc, 0x07, 0xfa,
  0x02, 0xfd, 0x02, 0xfd, 0xfb, 0x02, 0xfa, 0xfe, 0x05, 0xf8, 0xfe, 0x00,
  0xfb, 0x05, 0x01, 0x00, 0xfc, 0xff, 0x00, 0xf9, 0x03, 0x02, 0x04, 0xf8,
  0xfa, 0x05, 0x03, 0x03, 0xfd, 0xff, 0x05, 0x02, 0x00, 0x04, 0xfd, 0xfb,
  0xfb, 0xf9, 0x05, 0x00, 0xfd, 0xfb, 0xff, 0x04, 0xf9, 0xff, 0x03, 0x01,
  0xfb, 0x04, 0x05, 0xfb, 0x05, 0x00, 0xfc, 0xf7, 0x01, 0x05, 0x02, 0xe7,
  0x02, 0x03, 0xf8, 0xfd, 0xfe, 0xf3, 0x00, 0xf5, 0xdb, 0x03, 0x06, 0x00,
  0xfe, 0x06, 0xf7, 0xf5, 0xf6, 0xfe, 0xf5, 0xfd, 0xfa, 0x0a, 0x03, 0xf5,
  0x01, 0xfc, 0xf5, 0xef, 0x04, 0x0a, 0xfb, 0xf3, 0xe2, 0x01, 0x00, 0x04,
  0x08, 0xfb, 0xe8, 0xf2, 0x02, 0x04, 0xf2, 0x04, 0xfd, 0x02, 0xfd, 0x01,
  0xf8, 0xe1, 0xf7, 0xfd, 0x03, 0xfc, 0xe8, 0xf7, 0x08, 0xfa, 0xff, 0xdc,
  0x00, 0xec, 0xef, 0xfa, 0xda, 0x05, 0xfc, 0xf6, 0xef, 0x02, 0x07, 0xfb,
  0x08, 0xfd, 0x04, 0xfe, 0x00, 0x01, 0x02, 0xf5, 0xfe, 0x02, 0x0b, 0xf7,
  0x00, 0xca, 0xff, 0xe0, 0xfa, 0xf9, 0x05, 0x05, 0x03, 0x04, 0xfb, 0xfe,
  0xfc, 0xff, 0xf0, 0xf8, 0xf2, 0x03, 0xfc, 0xfc, 0xfa, 0x01, 0xff, 0xff,
  0xfb, 0xfc, 0xf5, 0x02, 0xdb, 0xfa, 0xd3, 0xf6, 0x05, 0xfe, 0xfe, 0x04,
  0x0b, 0x09, 0x01, 0x01, 0x08, 0xfc, 0xef, 0xd4, 0xdf, 0x06, 0xff, 0x02,
  0x02, 0xe1, 0xe4, 0xec, 0xe5, 0xf3, 0x05, 0x07, 0xff, 0xfd, 0x02, 0x02,
  0x04, 0xf6, 0x04, 0x03, 0xf9, 0x06, 0xfc, 0x01, 0xfd, 0x00, 0xfc, 0x0a,
  0x08, 0xf5, 0xfb, 0xf0, 0xbf, 0xfb, 0xfc, 0x05, 0xfb, 0xfd, 0xed, 0xeb,
  0xfa, 0x02, 0x09, 0x04, 0xff, 0x04, 0x0b, 0xff, 0x00, 0xf4, 0xf6, 0xf8,
  0x09, 0x02, 0xf5, 0xff, 0xfc, 0xfe, 0x02, 0xc2, 0x04, 0xd9, 0x02, 0x04,
  0xfb, 0xfc, 0xfd, 0xf5, 0xfc, 0x02, 0xdb, 0xf2, 0x03, 0x01, 0x0e, 0xbf,
  0xfb, 0xfc, 0x00, 0xff, 0x08, 0x00, 0xfe, 0xf3, 0xd5, 0xcb, 0xf7, 0xfe,
  0xe0, 0x03, 0xf9, 0xf9, 0x06, 0x10, 0xbd, 0x01, 0xf7, 0xfb, 0xfd, 0xfb,
  0xf9, 0xfd, 0xf8, 0x06, 0x02, 0xfa, 0xfd, 0x01, 0x04, 0x07, 0xcc, 0x03,
  0xfb, 0x00, 0x06, 0xff, 0x03, 0xfd, 0xf9, 0x01, 0xfc, 0x06, 0x04, 0x01,
  0x06, 0x00, 0x05, 0xfc, 0x01, 0xfa, 0xfd, 0xfb, 0xfd, 0x05, 0xff, 0xfd,
  0xfc, 0xf9, 0xfb, 0xfe, 0xfd, 0x03, 0x05, 0xfc, 0xfb, 0x03, 0x05, 0xff,
  0xfa, 0x00, 0xff, 0xfe, 0x06, 0x02, 0x02, 0xff, 0xfb, 0xfe, 0xfd, 0x04,
  0x06, 0x00, 0x01, 0x05, 0x03, 0x03, 0x01, 0x04, 0xfa, 0xfb, 0x02, 0xfd,
  0x03, 0xfc, 0xf9, 0xff, 0xfc, 0xfc, 0xfb, 0x00, 0xff, 0x06, 0xfa, 0xff,
  0xff, 0x02, 0xfc, 0x01, 0xfc, 0x04, 0x01, 0xfd, 0xfd, 0x04, 0xfd, 0x02,
  0xfe, 0x04, 0xfd, 0xfc, 0x00, 0xff, 0xfb, 0xfa, 0x05, 0x01, 0x03, 0x03,
  0x03, 0x01, 0x01, 0xff, 0x05, 0xfd, 0x05, 0xf9, 0x06, 0x02, 0x02, 0x03,
  0x00, 0xfb, 0x06, 0x04, 0xff, 0xfa, 0xfe, 0xff, 0xfe, 0xfb, 0x01, 0x03,
  0x01, 0xfd, 0xfe, 0x02, 0xfb, 0xf9, 0xff, 0x02, 0xfa, 0x03, 0xfb, 0xf9,
  0xfd, 0x04, 0x02, 0xfc, 0x01, 0x04, 0xf6, 0xf8, 0x03, 0x06, 0xfe, 0xfc,
  0xff, 0x00, 0x03, 0xfe, 0x01, 0xf3, 0x04, 0xf3, 0xf6, 0xff, 0xfd, 0xfa,
  0x01, 0xfe, 0xf7, 0xf9, 0xf6, 0x01, 0xf6, 0x02, 0xff, 0x01, 0x01, 0x03,
  0xf9, 0x04, 0xfa, 0xf3, 0x06, 0xfb, 0xff, 0xfc, 0xff, 0x00, 0x03, 0xfb,
  0xfa, 0xf8, 0xf5, 0xfe, 0xfe, 0xff, 0xea, 0xfc, 0xf9, 0x02, 0x01, 0xfa,
  0xfd, 0x02, 0x02, 0xfd, 0xfa, 0xfe, 0xf9, 0xff, 0x02, 0x00, 0xf8, 0xf5,
  0xfc, 0xfd, 0xfb, 0xfd, 0xff, 0xfb, 0xfe, 0xf9, 0xf7, 0x01, 0x03, 0x03,
  0x05, 0x00, 0xfb, 0x00, 0x01, 0x00, 0x02, 0xf6, 0x00, 0x00, 0x00, 0xfd,
  0xfb, 0xfa, 0xff, 0x02, 0xfd, 0xf9, 0x05, 0xfc, 0xf6, 0xfc, 0xfb, 0x01,
  0xf9, 0x02, 0x00, 0xfb, 0xfb, 0x04, 0xfd, 0xfe, 0xea, 0xfc, 0xfc, 0x03,
  0x02, 0xff, 0xf8, 0xfd, 0xf9, 0x05, 0x03, 0xfb, 0x06, 0xfc, 0xfb, 0x03,
  0x00, 0xf6, 0xfd, 0xfb, 0x04, 0x04, 0x01, 0xf8, 0xfb, 0xfe, 0xed, 0xff,
  0x00, 0x00, 0x03, 0x09, 0xfb, 0xfb, 0xfc, 0x05, 0x03, 0xfa, 0xfd, 0xe2,
  0xff, 0x00, 0x02, 0x02, 0x01, 0xfc, 0x03, 0xfd, 0x04, 0xfb, 0xfb, 0xfa,
  0xfb, 0xfa, 0x00, 0xfa, 0x05, 0xfb, 0xf8, 0xff, 0x01, 0xfc, 0xfe, 0x05,
  0xfe, 0xfc, 0xfe, 0x04, 0xfe, 0xeb, 0x01, 0xfb, 0x02, 0x03, 0x04, 0x07,
  0xff, 0x04, 0xf7, 0xf8, 0xff, 0xf2, 0x01, 0x04, 0xfd, 0x02, 0xe2, 0xfb,
  0x00, 0xef, 0x05, 0x0a, 0xf4, 0xff, 0x00, 0x03, 0x01, 0x04, 0x04, 0xfd,
  0x02, 0x05, 0xfa, 0x06, 0x01, 0x02, 0x00, 0xe3, 0xf8, 0xf6, 0xfc, 0xfe,
  0xfc, 0xf9, 0xfa, 0x02, 0x05, 0xfd, 0x05, 0xfa, 0xfd, 0x03, 0x01, 0xfb,
  0x03, 0xfe, 0xf8, 0x05, 0x04, 0xf9, 0x06, 0xff, 0xe7, 0x01, 0x00, 0x01,
  0x02, 0x02, 0x01, 0x04, 0x05, 0x07, 0xf9, 0x00, 0x0a, 0x08, 0x06, 0xfe,
  0x15, 0xfc, 0x00, 0xdb, 0xff, 0xf1, 0xfb, 0xf6, 0x06, 0xcd, 0xfe, 0xe8,
  0xe1, 0x01, 0x09, 0xfe, 0xfc, 0xf2, 0x00, 0x04, 0xee, 0x00, 0xf4, 0xf7,
  0xfd, 0x05, 0x0d, 0xb7, 0x03, 0x06, 0xef, 0xff, 0x00, 0x01, 0xff, 0xe7,
  0xdc, 0x0c, 0xfe, 0x0b, 0xe4, 0x07, 0xf2, 0xe6, 0x05, 0x0b, 0x05, 0x0a,
  0xfe, 0x09, 0xfe, 0x02, 0xfa, 0xf0, 0xf2, 0x06, 0x03, 0x09, 0xcb, 0xfd,
  0x0a, 0xf2, 0xf8, 0xe8, 0x04, 0xd5, 0xff, 0x08, 0xef, 0xea, 0xfb, 0xf7,
  0xef, 0x06, 0x07, 0xed, 0x00, 0xef, 0x06, 0xfb, 0x03, 0xfe, 0xf2, 0x00,
  0xfb, 0x00, 0x09, 0xfd, 0xf9, 0xbb, 0xbc, 0xeb, 0x00, 0xee, 0x03, 0x1a,
  0x05, 0x01, 0x03, 0xfb, 0xff, 0x05, 0xe9, 0xf9, 0xfe, 0xbf, 0xc7, 0x0f,
  0x01, 0xf8, 0x0a, 0x11, 0xf3, 0x0b, 0xfc, 0x01, 0xe7, 0x03, 0xf8, 0xff,
  0x09, 0x07, 0xdb, 0xff, 0x09, 0xfb, 0x0c, 0x07, 0x10, 0xfe, 0x07, 0x00,
  0x04, 0x04, 0xf4, 0x07, 0xff, 0xfd, 0x02, 0xd6, 0x07, 0x08, 0x01, 0x0a,
  0x02, 0xd6, 0x02, 0x02, 0xec, 0x00, 0xf0, 0x18, 0x03, 0xfc, 0x00, 0xea,
  0xf9, 0xff, 0xf2, 0xd8, 0x00, 0x07, 0xfa, 0xfc, 0xfa, 0x06, 0x03, 0x0b,
  0xda, 0x03, 0xfd, 0x11, 0xfb, 0x03, 0xdf, 0x07, 0xfb, 0xf9, 0x09, 0x0d,
  0xe7, 0xfd, 0x0d, 0x02, 0x14, 0x06, 0xcf, 0xf5, 0x0a, 0xf3, 0xe5, 0xd8,
  0xfe, 0xff, 0xf5, 0x0d, 0x01, 0x09, 0xf7, 0xe1, 0xf0, 0x08, 0x05, 0x05,
  0x03, 0xf5, 0x12, 0xfd, 0xfb, 0x02, 0xc9, 0x05, 0x0c, 0x02, 0xd8, 0xf6,
  0x03, 0xff, 0xf4, 0x02, 0x00, 0xfa, 0x06, 0x0c, 0x11, 0x0a, 0x01, 0xfc,
  0x01, 0x01, 0xe9, 0xe8, 0xf6, 0xfa, 0xf7, 0x12, 0xd4, 0xcd, 0xff, 0x09,
  0x04, 0xfa, 0xf8, 0xdd, 0xfb, 0x05, 0xf2, 0x04, 0x01, 0xff, 0xfe, 0x01,
  0xfc, 0xf2, 0x0c, 0x06, 0xff, 0xfe, 0xf5, 0x06, 0xdf, 0xc9, 0x1c, 0xfb,
  0xfb, 0xfe, 0x02, 0xd9, 0x06, 0xfc, 0xf6, 0xd6, 0x01, 0xf7, 0x0a, 0xc8,
  0xea, 0xfa, 0x02, 0xe3, 0xaf, 0xfe, 0xee, 0xfc, 0xbe, 0x14, 0xfe, 0x0a,
  0x01, 0x04, 0xbf, 0xfe, 0x08, 0xfd, 0xe0, 0xfd, 0x01, 0x1f, 0x0e, 0x00,
  0xe2, 0xfb, 0x01, 0xf9, 0xf9, 0xea, 0x07, 0x01, 0x00, 0x0b, 0xfd, 0x0c,
  0x0a, 0x03, 0xd6, 0xde, 0xff, 0xb6, 0x01, 0x06, 0x08, 0x04, 0xd6, 0x00,
  0xf5, 0xf3, 0xf3, 0x03, 0xff, 0x00, 0xf6, 0x01, 0xf9, 0xf9, 0xf8, 0xf3,
  0xf9, 0xf3, 0xfc, 0x0b, 0x01, 0xfc, 0xd9, 0xfa, 0xe4, 0xf4, 0x00, 0x00,
  0xe9, 0x00, 0xfc, 0x04, 0x0a, 0xf2, 0xe4, 0xfc, 0x06, 0xfd, 0x02, 0xf4,
  0x02, 0xf9, 0xf5, 0x00, 0xfe, 0xfb, 0x09, 0x0a, 0xb9, 0xff, 0xf8, 0x04,
  0x07, 0x0d, 0xf9, 0x05, 0xfd, 0x08, 0xe9, 0xfd, 0x04, 0x05, 0x08, 0x0a,
  0x04, 0x05, 0xc0, 0xfb, 0xef, 0xfc, 0x04, 0xf9, 0x03, 0xf8, 0x06, 0xdf,
  0x04, 0x08, 0xfe, 0xfc, 0xfd, 0xf1, 0x07, 0x00, 0xf7, 0xfd, 0xd0, 0xfd,
  0xed, 0x07, 0x00, 0xf6, 0xf7, 0x06, 0xe8, 0xf9, 0x01, 0xfd, 0xf9, 0x03,
  0xff, 0x0b, 0x0c, 0x06, 0xd6, 0x0d, 0x06, 0xf7, 0x08, 0xfe, 0x02, 0x02,
  0xbf, 0xfa, 0x00, 0x06, 0xf6, 0xff, 0xf9, 0x02, 0x00, 0x00, 0xe8, 0xf9,
  0x02, 0x03, 0xf7, 0xf1, 0x07, 0xf5, 0xff, 0xff, 0x00, 0xfc, 0xd5, 0xf3,
  0x15, 0x00, 0xf2, 0x02, 0x03, 0xbf, 0xfe, 0xe2, 0x02, 0xfc, 0xf8, 0x0b,
  0x02, 0x05, 0xee, 0xff, 0xf1, 0xe4, 0xfd, 0xf8, 0xf5, 0xff, 0x0a, 0x0c,
  0x05, 0xfa, 0xde, 0x04, 0x0f, 0xfd, 0x06, 0xf6, 0xd3, 0xf3, 0xfb, 0x09,
  0xf4, 0xf1, 0x08, 0x08, 0xfb, 0xfb, 0xcb, 0xfc, 0x08, 0x09, 0xf4, 0x0d,
  0xf8, 0xf8, 0xfa, 0xf8, 0xfd, 0xfa, 0x06, 0x08, 0xf9, 0x00, 0x07, 0xfb,
  0x03, 0x01, 0x00, 0xfd, 0x04, 0xf7, 0x01, 0xf8, 0xfd, 0x02, 0xf8, 0xf7,
  0x03, 0xfd, 0xff, 0xfd, 0xf4, 0xff, 0x04, 0xff, 0xfa, 0x07, 0xf6, 0xfe,
  0xff, 0xfc, 0x02, 0xff, 0x02, 0xf9, 0xfe, 0x07, 0xfd, 0x00, 0x02, 0x03,
  0xf1, 0x06, 0x04, 0x02, 0x01, 0x03, 0x05, 0xfb, 0xfd, 0xf8, 0x03, 0xfd,
  0xfa, 0x07, 0x05, 0xff, 0x01, 0xf9, 0xeb, 0x05, 0x00, 0x02, 0x04, 0x02,
  0xf9, 0x02, 0x00, 0x02, 0xf9, 0xf5, 0xf8, 0xf6, 0x08, 0x04, 0xff, 0x02,
  0x07, 0xfe, 0xf9, 0x00, 0xfc, 0xf8, 0xfa, 0x06, 0x01, 0xfc, 0xf8, 0xfc,
  0xff, 0xe2, 0xfe, 0xfa, 0xf9, 0x09, 0x00, 0xf9, 0x02, 0xfa, 0x03, 0x03,
  0x06, 0xfe, 0x04, 0xf7, 0x06, 0xf8, 0xfa, 0xfd, 0xf8, 0x00, 0xff, 0x06,
  0xfa, 0x00, 0xfd, 0xfb, 0x06, 0x04, 0x00, 0x00, 0xfb, 0x0d, 0xf8, 0x0d,
  0x05, 0x0c, 0xfe, 0x01, 0x16, 0xfe, 0xfd, 0xef, 0x02, 0xea, 0xfe, 0xfa,
  0x04, 0xed, 0x05, 0xf0, 0xfb, 0x04, 0x0d, 0xf3, 0x0a, 0xf9, 0xfe, 0xfb,
  0xf3, 0x06, 0xf2, 0xf3, 0xf8, 0x00, 0x07, 0xbe, 0xfd, 0x08, 0xef, 0x00,
  0x09, 0x0b, 0xf3, 0xf0, 0xe7, 0x12, 0x03, 0x0f, 0xef, 0x04, 0x04, 0xde,
  0x03, 0x02, 0xfe, 0x04, 0xfd, 0x02, 0x05, 0x06, 0xf6, 0xf6, 0xf5, 0x09,
  0x05, 0xf0, 0xd3, 0xf8, 0x0a, 0xf7, 0xfe, 0xef, 0x08, 0xe2, 0xfa, 0x08,
  0xf5, 0xe9, 0xf8, 0x00, 0xea, 0x01, 0x05, 0xf4, 0xfb, 0xeb, 0x01, 0xfa,
  0xf3, 0x02, 0xf6, 0xfd, 0xfd, 0x02, 0x0a, 0xf3, 0x04, 0xe9, 0xce, 0xf0,
  0x05, 0xe9, 0x0c, 0x13, 0x04, 0xfe, 0xfc, 0xfe, 0xff, 0xfb, 0xf6, 0xf9,
  0xf7, 0xce, 0xd2, 0x17, 0xf9, 0xfd, 0x04, 0x16, 0xf3, 0x0c, 0xf9, 0xf7,
  0xf2, 0x02, 0xf4, 0x04, 0xfc, 0x01, 0xf8, 0x00, 0xf9, 0xf0, 0x05, 0x04,
  0xfe, 0xff, 0x03, 0x00, 0xe7, 0xf4, 0x04, 0xfd, 0x03, 0x02, 0x01, 0xfc,
  0xf9, 0x02, 0xf4, 0x00, 0x13, 0x01, 0x01, 0xdf, 0xfc, 0x06, 0x03, 0xfb,
  0xed, 0x00, 0xee, 0xf1, 0xe0, 0xf2, 0x03, 0xfd, 0xf8, 0xfe, 0xef, 0xfb,
  0xf9, 0x02, 0xfc, 0x03, 0xfc, 0x01, 0xfb, 0x00, 0x04, 0xfa, 0x06, 0xfd,
  0x00, 0xef, 0xff, 0x05, 0x03, 0xfb, 0xff, 0x02, 0xff, 0xfd, 0xec, 0x04,
  0xfd, 0x04, 0x04, 0x04, 0xf9, 0xf7, 0xdf, 0x01, 0x00, 0xfa, 0xff, 0xfd,
  0xf9, 0x02, 0x03, 0xfb, 0xfb, 0xf6, 0x02, 0x06, 0xf7, 0xf9, 0xf5, 0xfb,
  0xfd, 0x01, 0xf2, 0x01, 0xf0, 0xfa, 0xf4, 0x01, 0xeb, 0xfa, 0x04, 0x00,
  0x04, 0xfb, 0xf3, 0x02, 0x08, 0xfc, 0xfe, 0xf5, 0xfb, 0xfb, 0xfc, 0x05,
  0xff, 0xff, 0xfe, 0xfc, 0xd8, 0x06, 0x02, 0xfb, 0x05, 0x04, 0xf4, 0xf9,
  0x00, 0x02, 0xdd, 0xff, 0xfa, 0x07, 0x01, 0x00, 0x06, 0xfe, 0xb0, 0x00,
  0xdf, 0xab, 0x02, 0x01, 0xf9, 0x0b, 0xfe, 0xff, 0x0b, 0x00, 0xfa, 0x07,
  0x08, 0xe9, 0x02, 0x09, 0x07, 0xf1, 0xa1, 0x00, 0x8f, 0xfd, 0x00, 0xfe,
  0xbd, 0x0c, 0xcf, 0xf6, 0x00, 0xfd, 0xb3, 0x04, 0x07, 0x07, 0x01, 0x00,
  0xf2, 0x03, 0x02, 0x05, 0xf1, 0x05, 0x04, 0xf4, 0xba, 0x02, 0xfe, 0x06,
  0xf4, 0x05, 0x0a, 0x0a, 0x03, 0xf7, 0xd8, 0x0d, 0x04, 0x09, 0xfd, 0xec,
  0x01, 0x0b, 0x09, 0xfd, 0x02, 0x04, 0xa8, 0xdc, 0x0c, 0x01, 0xf5, 0x0a,
  0xfb, 0x0c, 0x06, 0xec, 0xeb, 0xed, 0xea, 0x06, 0xfe, 0x03, 0xcd, 0xf2,
  0xe2, 0xbb, 0xfc, 0x09, 0xea, 0xf2, 0x03, 0x04, 0x02, 0x08, 0xe9, 0x05,
  0x07, 0x02, 0x04, 0xcc, 0xbd, 0x04, 0xfe, 0x08, 0xef, 0xdc, 0xfe, 0x0a,
  0x09, 0x00, 0xda, 0xf5, 0x05, 0x01, 0xfb, 0x0c, 0x03, 0x08, 0xb4, 0xfa,
  0x05, 0x00, 0xf0, 0xef, 0x06, 0x05, 0x02, 0xff, 0x01, 0x10, 0x06, 0x17,
  0xfa, 0x04, 0x00, 0xeb, 0x03, 0x06, 0x04, 0x04, 0xff, 0xb8, 0xdf, 0xfb,
  0xf3, 0xf4, 0xfc, 0x0c, 0x03, 0x0b, 0xff, 0xf1, 0xff, 0xf9, 0xfc, 0xe8,
  0x07, 0x06, 0x09, 0xfc, 0xd7, 0xfc, 0x00, 0x08, 0xa8, 0xff, 0x01, 0x05,
  0xf7, 0x06, 0xe1, 0x0c, 0x01, 0x02, 0xfd, 0xfe, 0xf7, 0xdb, 0x05, 0xfe,
  0x11, 0x14, 0xff, 0xf8, 0x0d, 0xf8, 0xe7, 0xd4, 0x03, 0x06, 0xfa, 0x07,
  0xcb, 0x0a, 0xf1, 0xf3, 0xf4, 0x05, 0xfe, 0xfa, 0x15, 0x03, 0x13, 0xf9,
  0x15, 0x02, 0xb8, 0xeb, 0x18, 0x05, 0xfa, 0xfa, 0xf7, 0xf9, 0xfe, 0xd4,
  0xfb, 0xff, 0x02, 0xfb, 0x3d, 0x1b, 0xf2, 0xfe, 0x03, 0xfc, 0xfb, 0xfe,
  0xf9, 0xf3, 0xfd, 0x08, 0xe4, 0xd1, 0xd2, 0x07, 0x0e, 0x09, 0xf5, 0xbf,
  0xdc, 0xfd, 0xc0, 0x0e, 0x00, 0xf6, 0xff, 0x0a, 0x0a, 0x00, 0xfd, 0x02,
  0x03, 0xfb, 0xf8, 0xda, 0xdd, 0xfb, 0xfd, 0xfd, 0xfd, 0xe3, 0xf2, 0xe6,
  0xe9, 0xee, 0x02, 0x07, 0x01, 0xf3, 0x02, 0xfe, 0xf6, 0x00, 0xfe, 0xff,
  0x06, 0xec, 0x07, 0x00, 0x32, 0xf9, 0x00, 0x01, 0x01, 0xec, 0x06, 0xf5,
  0xce, 0x05, 0x01, 0x09, 0xfc, 0x06, 0xf4, 0xfb, 0xfd, 0x02, 0x07, 0x04,
  0x01, 0x08, 0x02, 0x04, 0xfe, 0xf9, 0xf4, 0xfc, 0xfe, 0xfc, 0xe6, 0x01,
  0xfd, 0xff, 0x03, 0xc3, 0xfb, 0xe6, 0x00, 0x06, 0x35, 0xfb, 0x04, 0xf2,
  0xfe, 0x20, 0xe1, 0xf4, 0x02, 0xfb, 0x0b, 0xc6, 0xfd, 0x00, 0xf9, 0x0a,
  0x00, 0xfe, 0x0c, 0xfb, 0xda, 0xd9, 0xf2, 0xed, 0xe7, 0x01, 0xf6, 0x04,
  0x05, 0x03, 0xcd, 0x03, 0x05, 0x03, 0xff, 0xf8, 0xea, 0xf9, 0xf5, 0x01,
  0xfe, 0xfa, 0xfc, 0x00, 0xf5, 0x01, 0xc8, 0x05, 0xfc, 0x03, 0xf9, 0x05,
  0xfb, 0xf8, 0xf4, 0x02, 0x08, 0xff, 0xfe, 0x03, 0xfe, 0xfe, 0xfb, 0xf5,
  0xfe, 0x03, 0xf2, 0xfa, 0xf9, 0xfe, 0xfb, 0xec, 0xfc, 0xfd, 0xfd, 0xfc,
  0x01, 0xf8, 0xfe, 0xf7, 0xf6, 0xfb, 0xf1, 0xfe, 0x01, 0x09, 0x02, 0xf4,
  0xff, 0x02, 0xf6, 0xf7, 0xf7, 0xf7, 0xf8, 0xfd, 0xfc, 0x04, 0xfe, 0x01,
  0xed, 0x02, 0xfa, 0xff, 0xfd, 0x05, 0xf9, 0xfa, 0xfc, 0xfd, 0x05, 0x02,
  0xfd, 0xf9, 0x04, 0x03, 0x01, 0x03, 0xea, 0xf5, 0x02, 0xf8, 0xff, 0xfa,
  0xfe, 0xfc, 0xfb, 0xfe, 0xf5, 0xf0, 0x00, 0x04, 0xfa, 0x02, 0xfe, 0xfc,
  0x02, 0xf7, 0xfc, 0xfe, 0x08, 0xfd, 0xf2, 0xfb, 0xff, 0x01, 0xf4, 0xfc,
  0xf9, 0xe8, 0xf5, 0xfa, 0xfd, 0xee, 0xf8, 0x06, 0x02, 0x03, 0x04, 0xfb,
  0x02, 0xfb, 0xec, 0xf0, 0xf3, 0xfa, 0xfb, 0x03, 0xfa, 0xf3, 0x02, 0x04,
  0xf5, 0xfc, 0x01, 0xfe, 0xfa, 0xfc, 0xfd, 0x05, 0xdb, 0xf3, 0x08, 0xe8,
  0xf7, 0xf8, 0xfa, 0xfd, 0xf3, 0x03, 0x02, 0x09, 0xfa, 0x00, 0x05, 0x00,
  0x04, 0x02, 0xce, 0xf9, 0xfb, 0xfe, 0xfb, 0xf6, 0xff, 0x02, 0x00, 0x03,
  0xfe, 0xfb, 0xf8, 0xfc, 0xf5, 0xf0, 0xfa, 0x07, 0xfa, 0x04, 0xfc, 0x02,
  0xfb, 0x00, 0xfc, 0xfc, 0x04, 0xe1, 0xfd, 0xf8, 0x1a, 0xfd, 0x05, 0x04,
  0xfb, 0xe6, 0xfb, 0xfd, 0x00, 0x03, 0xec, 0xff, 0x08, 0xff, 0x08, 0x05,
  0xf9, 0xf6, 0x0f, 0x05, 0xe7, 0x03, 0x06, 0x06, 0x05, 0x00, 0xfd, 0xf5,
  0x01, 0xfb, 0xfe, 0xfe, 0xfd, 0xea, 0xf7, 0x09, 0xe3, 0xf9, 0xf7, 0xfc,
  0xfa, 0x03, 0x00, 0xfa, 0x05, 0x01, 0x10, 0xfd, 0xff, 0xfe, 0x0a, 0xff,
  0xf8, 0x04, 0xe0, 0xfb, 0x00, 0x05, 0xfb, 0xfa, 0xfb, 0xfd, 0xfb, 0x05,
  0xfb, 0x0b, 0x04, 0xf4, 0x05, 0x07, 0x00, 0xf3, 0x03, 0xf6, 0xfe, 0xfb,
  0x02, 0xfe, 0x09, 0xfc, 0xfa, 0xfb, 0x02, 0xf1, 0xf8, 0xfb, 0xff, 0xf6,
  0xf9, 0xfc, 0x08, 0x05, 0x01, 0x03, 0xfe, 0xff, 0x03, 0xff, 0xf4, 0x01,
  0x07, 0xfe, 0x01, 0xfa, 0xfc, 0xff, 0xff, 0x02, 0xff, 0xfc, 0x08, 0xfe,
  0x08, 0xf4, 0xff, 0x0b, 0xfb, 0x04, 0x08, 0xff, 0xff, 0xfd, 0x02, 0x04,
  0x00, 0xf2, 0x07, 0xf1, 0x03, 0x02, 0x00, 0xff, 0xfe, 0xf5, 0x01, 0x02,
  0xff, 0xff, 0xf1, 0x00, 0x04, 0x02, 0x06, 0xfe, 0xfa, 0xf9, 0x07, 0x03,
  0xf6, 0x06, 0x04, 0x08, 0xfc, 0x09, 0x07, 0xfc, 0x02, 0x0a, 0x02, 0x03,
  0x0a, 0xf9, 0x02, 0x01, 0xf5, 0x00, 0xf2, 0x01, 0xf8, 0xfe, 0xff, 0xff,
  0xfe, 0xfb, 0x07, 0x02, 0xf9, 0x03, 0x00, 0xfd, 0xfb, 0x0f, 0xf1, 0xef,
  0x05, 0xfd, 0x05, 0x04, 0xfe, 0x06, 0x01, 0x08, 0x09, 0x0a, 0x04, 0xfb,
  0x06, 0x07, 0xfb, 0xf9, 0x05, 0xfa, 0x02, 0xff, 0xfb, 0x00, 0x0b, 0xf9,
  0xeb, 0xf9, 0x09, 0xe8, 0xf8, 0xdd, 0xfd, 0xf2, 0xe8, 0x07, 0x0d, 0x0c,
  0x01, 0x06, 0x00, 0x00, 0x02, 0x0b, 0xf8, 0x02, 0x06, 0xfd, 0xf2, 0xef,
  0xd8, 0x07, 0xf9, 0xfb, 0x04, 0x07, 0x20, 0xf9, 0x14, 0x04, 0xef, 0x14,
  0x0b, 0xf5, 0x22, 0xfd, 0xf5, 0x04, 0x12, 0x05, 0x01, 0xec, 0xf6, 0x02,
  0x17, 0xe9, 0xfd, 0x04, 0x02, 0xf0, 0x05, 0x01, 0x0a, 0xdd, 0xff, 0xf1,
  0x07, 0xfe, 0x05, 0xf3, 0xfa, 0x0b, 0x12, 0x03, 0x02, 0xf8, 0x04, 0x04,
  0xe1, 0x11, 0xfd, 0xf9, 0x09, 0x03, 0x0b, 0x04, 0x00, 0x06, 0x00, 0xfd,
  0x07, 0x19, 0xfb, 0x0b, 0x0b, 0xff, 0x01, 0xe5, 0x05, 0xfb, 0x0d, 0xf2,
  0x06, 0xfe, 0x09, 0xfd, 0x09, 0x1d, 0xf3, 0xf7, 0xef, 0x00, 0x06, 0xfe,
  0xf7, 0x01, 0xfc, 0x0f, 0x19, 0x0c, 0x0b, 0xea, 0x04, 0x08, 0xf6, 0xf3,
  0x04, 0x02, 0x07, 0x06, 0xff, 0xeb, 0x0e, 0xf6, 0xfc, 0x08, 0xf7, 0x05,
  0x02, 0x07, 0x00, 0x08, 0x07, 0x06, 0xf8, 0xd9, 0xef, 0xfc, 0xf6, 0xe2,
  0xfa, 0xf2, 0xf8, 0xe2, 0xe9, 0xff, 0xfe, 0xf9, 0xfa, 0xf4, 0x00, 0xfd,
  0xf2, 0xf7, 0x03, 0xfa, 0xfe, 0xc6, 0x09, 0xff, 0xe2, 0xfd, 0xfb, 0x06,
  0x01, 0xfe, 0x06, 0xf9, 0xea, 0x08, 0xfc, 0x08, 0xf0, 0xf8, 0xed, 0xf1,
  0xe8, 0x00, 0x09, 0xfc, 0x08, 0x04, 0x08, 0xfe, 0x02, 0xf6, 0xe5, 0xfb,
  0xf8, 0x02, 0xfb, 0x02, 0xda, 0xfd, 0xfc, 0xe5, 0x00, 0xb8, 0xf9, 0x05,
  0xe3, 0xf6, 0xfe, 0xfa, 0xd5, 0xf1, 0xf0, 0xdc, 0xa6, 0x03, 0xf7, 0xe1,
  0x02, 0x00, 0xf0, 0xfe, 0xec, 0x03, 0xed, 0xe2, 0xf8, 0xec, 0x02, 0xde,
  0xfd, 0xf9, 0xfc, 0x05, 0x01, 0x0c, 0xea, 0xfb, 0x02, 0xfd, 0xea, 0x01,
  0xe5, 0xfc, 0x04, 0x09, 0xfa, 0xf8, 0xf9, 0x08, 0xfa, 0xff, 0xf0, 0xf7,
  0xfe, 0x06, 0x01, 0x01, 0xfc, 0x05, 0xef, 0x03, 0x09, 0x0d, 0x03, 0x09,
  0x11, 0x03, 0xfc, 0xfa, 0x05, 0x01, 0xf3, 0xf8, 0x06, 0xf8, 0x03, 0xec,
  0xf6, 0x03, 0x0c, 0xf5, 0x01, 0xf2, 0x0d, 0xfc, 0xf0, 0x02, 0xe9, 0x00,
  0xf8, 0x04, 0x06, 0xe6, 0xf6, 0x0b, 0xe5, 0xf8, 0xff, 0x07, 0xf7, 0x03,
  0x01, 0x0b, 0xfe, 0x01, 0xf4, 0x09, 0xf7, 0xfc, 0xff, 0x03, 0x00, 0xfe,
  0xf3, 0xff, 0x02, 0x0b, 0xed, 0xff, 0xf5, 0x0a, 0x0b, 0xf0, 0xe8, 0xfa,
  0x0d, 0xee, 0xfb, 0xde, 0x09, 0xfe, 0xfd, 0x07, 0xf7, 0xf4, 0xf6, 0xf9,
  0xf6, 0x08, 0x03, 0x00, 0x05, 0xf3, 0x08, 0xfe, 0xff, 0xfe, 0xfe, 0x08,
  0xfc, 0x04, 0xf4, 0xf6, 0x01, 0x99, 0xf8, 0xf6, 0x04, 0xdc, 0x0b, 0x13,
  0x01, 0xfd, 0x04, 0x01, 0x00, 0xfc, 0xeb, 0xf1, 0xec, 0xf0, 0xef, 0x12,
  0xf7, 0xf1, 0x09, 0x13, 0xf5, 0x0a, 0xf5, 0xf9, 0x02, 0x0a, 0xf5, 0x02,
  0x03, 0x02, 0xee, 0x07, 0x05, 0x07, 0x00, 0x0b, 0x13, 0xfc, 0xee, 0xe8,
  0xe6, 0x0c, 0xff, 0x00, 0x05, 0xee, 0xf6, 0xf0, 0xf9, 0xff, 0x11, 0x03,
  0x02, 0xfa, 0x0e, 0xfa, 0xee, 0xfc, 0xea, 0xf9, 0x0e, 0xfe, 0x04, 0x04,
  0xe8, 0x01, 0x05, 0xfe, 0x03, 0x02, 0x04, 0xf3, 0xe1, 0x1e, 0x01, 0x07,
  0xf0, 0xfe, 0xf5, 0xf1, 0xf5, 0x0b, 0x06, 0x00, 0xf6, 0x01, 0x02, 0x01,
  0xec, 0xfd, 0xf1, 0x05, 0xfb, 0xdf, 0xd3, 0xfd, 0x0c, 0xf0, 0x00, 0xc4,
  0x0a, 0xe9, 0xf5, 0x0c, 0xe4, 0xf9, 0xf0, 0xf4, 0xdb, 0x0e, 0xec, 0xf6,
  0xfe, 0x08, 0xf9, 0xe6, 0xfd, 0xf4, 0xf4, 0x0e, 0x01, 0xfc, 0xeb, 0xe5,
  0xe3, 0xc5, 0xe7, 0xed, 0xf0, 0x0b, 0xf2, 0x1e, 0x04, 0x01, 0xeb, 0x05,
  0x08, 0x03, 0xec, 0xeb, 0xec, 0xec, 0xe6, 0x17, 0xf8, 0xef, 0x08, 0x17,
  0xf5, 0x0d, 0xf4, 0xfb, 0xf2, 0x03, 0xf0, 0x07, 0xfc, 0x0a, 0xef, 0x0e,
  0xfe, 0x0e, 0x06, 0x08, 0x17, 0xfb, 0xf6, 0xff, 0xfb, 0xe6, 0xfe, 0xf8,
  0x0c, 0xfd, 0x0b, 0xda, 0xfc, 0x09, 0x0d, 0xf3, 0x07, 0xfb, 0x09, 0xf5,
  0xf1, 0xfd, 0xf6, 0xe7, 0xef, 0xfb, 0x0d, 0xdd, 0xfa, 0x0a, 0xef, 0xfa,
  0xf9, 0x0a, 0xea, 0xfe, 0xfb, 0x14, 0x01, 0x04, 0xcf, 0x06, 0x07, 0x02,
  0xfe, 0x09, 0x07, 0xf6, 0xed, 0x09, 0x0a, 0x0c, 0xf2, 0x08, 0x02, 0x06,
  0xfa, 0xea, 0xf0, 0xf5, 0x00, 0xf0, 0xf7, 0xe0, 0x10, 0x00, 0xf8, 0x08,
  0xf8, 0xe7, 0xf1, 0xf9, 0xe8, 0xff, 0x02, 0x06, 0xf6, 0xe3, 0xf7, 0xf5,
  0xeb, 0x0b, 0xf3, 0x07, 0xf6, 0x07, 0xf5, 0xf9, 0x00, 0x81, 0xf2, 0xfb,
  0xfc, 0xe1, 0x05, 0x15, 0x09, 0xf5, 0xf7, 0xfc, 0x0d, 0xfb, 0xf3, 0xf5,
  0xf8, 0xe5, 0xec, 0x1b, 0xf0, 0xf6, 0x0a, 0x15, 0xea, 0x0a, 0xf7, 0xfd,
  0x0b, 0x09, 0xe2, 0x05, 0xf9, 0xfe, 0xfd, 0xea, 0xfd, 0xfa, 0xfe, 0x05,
  0xfe, 0x00, 0xfb, 0xfb, 0xfb, 0x02, 0xfd, 0xfd, 0xf9, 0xfb, 0x01, 0x06,
  0x00, 0x02, 0x04, 0xff, 0xf9, 0x01, 0xfe, 0x00, 0xff, 0xfb, 0xf5, 0xfe,
  0xff, 0x00, 0x00, 0xf5, 0x01, 0xfa, 0xf1, 0xf9, 0xf2, 0x01, 0xf8, 0xf8,
  0xf8, 0x01, 0xfa, 0xfb, 0xfa, 0xff, 0xfb, 0xfe, 0xfc, 0xfa, 0xf9, 0x02,
  0xff, 0xf9, 0x04, 0xfc, 0xfe, 0xfc, 0x03, 0xfc, 0x03, 0x03, 0x01, 0xec,
  0x00, 0xf8, 0xf8, 0xfb, 0xff, 0x00, 0xf9, 0xf3, 0xfb, 0x03, 0xf8, 0x05,
  0xed, 0x03, 0xff, 0xfb, 0xf9, 0xf5, 0xfe, 0xf8, 0xf7, 0xfe, 0x04, 0x06,
  0xff, 0x04, 0x04, 0xfa, 0x02, 0x00, 0x00, 0x01, 0x00, 0xfb, 0xfa, 0xfc,
  0x04, 0x06, 0xf8, 0x02, 0xfb, 0x06, 0x03, 0xfa, 0x02, 0x00, 0xfc, 0xff,
  0x00, 0x00, 0x03, 0xff, 0x02, 0xf7, 0xfb, 0xf8, 0xf9, 0xf8, 0xf9, 0xfa,
  0x06, 0xfb, 0xfc, 0xfe, 0x04, 0x02, 0xfb, 0x02, 0xfd, 0x01, 0x02, 0xfb,
  0x03, 0xfc, 0xfc, 0x06, 0x06, 0x04, 0x01, 0xfd, 0xfa, 0xfa, 0xfd, 0x01,
  0xff, 0x06, 0x03, 0xfd, 0x04, 0xfc, 0x02, 0x00, 0x00, 0xfc, 0xff, 0x03,
  0xf9, 0xfc, 0xfb, 0xfa, 0xf9, 0xfa, 0x04, 0x00, 0xff, 0xfb, 0x01, 0x02,
  0x05, 0x06, 0xfa, 0xfe, 0x01, 0xff, 0xfc, 0x03, 0xff, 0xfc, 0xfd, 0xfa,
  0xfe, 0x01, 0x00, 0xfb, 0xfc, 0x00, 0x03, 0x00, 0xff, 0xfc, 0xfd, 0x00,
  0xfc, 0x07, 0x03, 0x01, 0xff, 0x03, 0xfc, 0xfc, 0xfc, 0xf9, 0xfd, 0x02,
  0xfc, 0x03, 0x01, 0xfa, 0x02, 0xf9, 0x00, 0xfa, 0xfe, 0xfe, 0xf9, 0x03,
  0xff, 0x00, 0xfc, 0xfd, 0x03, 0x07, 0x01, 0x06, 0xfa, 0x00, 0x04, 0xfe,
  0x06, 0x02, 0x00, 0x00, 0x05, 0xff, 0x02, 0xfa, 0x00, 0xfd, 0xff, 0x00,
  0x05, 0xfe, 0x03, 0xfc, 0x03, 0xfc, 0xfb, 0xfd, 0xf9, 0x03, 0xec, 0xea,
  0xfb, 0xf1, 0x07, 0xf9, 0xf8, 0x00, 0x04, 0x01, 0x00, 0xff, 0x03, 0xff,
  0x00, 0xfc, 0x02, 0xfb, 0xff, 0xfe, 0xf8, 0x03, 0xf1, 0xdf, 0xfc, 0xfc,
  0x01, 0xfa, 0x0a, 0xfd, 0x06, 0xfa, 0xfd, 0x08, 0xf9, 0xf7, 0x08, 0x06,
  0xf9, 0xfa, 0xf9, 0xfd, 0xfe, 0x03, 0xff, 0xfa, 0x06, 0x05, 0xff, 0x05,
  0x02, 0x01, 0x01, 0x02, 0x06, 0xec, 0xfe, 0xff, 0x03, 0x02, 0x03, 0xf9,
  0x00, 0x05, 0xf5, 0xfb, 0x03, 0xf8, 0x03, 0xf8, 0xf9, 0xfe, 0xf8, 0xdf,
  0x04, 0xff, 0x06, 0x04, 0xff, 0xfb, 0x01, 0x07, 0xfd, 0x00, 0xfd, 0xfa,
  0x02, 0xf8, 0xe5, 0xf9, 0x01, 0x00, 0xe5, 0xeb, 0xf8, 0x04, 0x04, 0x01,
  0xfc, 0x04, 0xf9, 0xf8, 0xf9, 0x04, 0x05, 0xfe, 0xf7, 0x02, 0xfd, 0xdf,
  0x03, 0x05, 0x07, 0xff, 0xf8, 0xd5, 0x03, 0xff, 0xfb, 0xfa, 0x08, 0x06,
  0x02, 0xfd, 0x09, 0xfc, 0x00, 0xff, 0x03, 0x02, 0xfa, 0xfb, 0x06, 0x05,
  0xfb, 0xfa, 0x04, 0x02, 0xfb, 0x05, 0xf9, 0xfd, 0xfc, 0xfd, 0xfa, 0x01,
  0x03, 0xff, 0x02, 0x00, 0xfe, 0x05, 0x01, 0x02, 0x00, 0x02, 0x02, 0x05,
  0x02, 0xf9, 0x04, 0xff, 0xff, 0x01, 0x04, 0xfa, 0xfa, 0x00, 0x06, 0xfd,
  0xfa, 0x05, 0xfe, 0x05, 0xfc, 0x02, 0x04, 0x02, 0x01, 0x06, 0xfa, 0x02,
  0x00, 0xfa, 0x00, 0xfb, 0x02, 0xfc, 0x07, 0x01, 0x03, 0x05, 0x06, 0xf9,
  0xfb, 0x04, 0x01, 0xfd, 0x00, 0xfd, 0x00, 0xfb, 0xfa, 0xfc, 0x00, 0x01,
  0x03, 0x01, 0x06, 0x04, 0xf9, 0xfa, 0x01, 0x04, 0x04, 0xfd, 0xfe, 0xff,
  0xfd, 0xfc, 0xfc, 0xfd, 0xfc, 0x00, 0xff, 0xf9, 0x05, 0xfb, 0x04, 0x03,
  0xfc, 0x02, 0x05, 0xff, 0x00, 0xfa, 0x01, 0x00, 0xfe, 0x03, 0x02, 0xfa,
  0x02, 0xfe, 0x02, 0xf9, 0x00, 0x05, 0x03, 0xfc, 0xfe, 0xfa, 0x01, 0x00,
  0xeb, 0xea, 0x0d, 0xf3, 0xd8, 0xfc, 0xff, 0xfa, 0xda, 0xfe, 0x08, 0x01,
  0xfb, 0x02, 0x03, 0xf1, 0xf8, 0x04, 0xfa, 0x02, 0xfc, 0xe7, 0xff, 0x08,
  0x02, 0xfe, 0x02, 0x02, 0x0b, 0x08, 0x13, 0x03, 0xfe, 0xe5, 0x01, 0x10,
  0x06, 0x06, 0x0e, 0x03, 0xfe, 0xce, 0x00, 0x04, 0x04, 0xe5, 0x05, 0xdf,
  0x20, 0xfe, 0x06, 0x03, 0xfd, 0xed, 0xfd, 0x03, 0x0a, 0xff, 0xf0, 0xfa,
  0x09, 0xff, 0x05, 0x01, 0xda, 0xf2, 0x0d, 0x03, 0xec, 0x09, 0xff, 0x1e,
  0xfb, 0x08, 0x01, 0xe7, 0x06, 0x15, 0x08, 0xff, 0x10, 0xf1, 0xf6, 0xff,
  0xc7, 0x0e, 0xf4, 0x00, 0xb6, 0x01, 0xff, 0x00, 0xcc, 0x00, 0x07, 0x0b,
  0x03, 0xff, 0x0a, 0xfd, 0x03, 0x1d, 0xed, 0xe5, 0x05, 0xa8, 0xfa, 0xfd,
  0x05, 0x06, 0x0f, 0x06, 0x04, 0x0a, 0x02, 0xd2, 0x01, 0x0a, 0x03, 0xe1,
  0x0f, 0xd1, 0x08, 0x00, 0xf7, 0xfe, 0x01, 0x03, 0x07, 0x09, 0x03, 0x04,
  0x07, 0x06, 0x02, 0xe4, 0x0d, 0x02, 0xf6, 0xfc, 0xff, 0x04, 0xff, 0x0a,
  0x04, 0xfe, 0x05, 0x8c, 0xff, 0x09, 0x03, 0x08, 0xfc, 0xf8, 0xe0, 0xfa,
  0xf1, 0xfb, 0xf0, 0x0e, 0xff, 0x04, 0x04, 0xf4, 0xfb, 0xfd, 0xf3, 0xb1,
  0x00, 0x08, 0x0a, 0xf0, 0xc7, 0x09, 0x05, 0x0a, 0xf3, 0xfe, 0x04, 0xff,
  0x02, 0x00, 0xbd, 0x00, 0xf6, 0x07, 0x00, 0x10, 0xfe, 0xd6, 0x02, 0xfc,
  0x0e, 0x0b, 0xff, 0xfc, 0x0e, 0xf6, 0xfe, 0xd1, 0x07, 0x02, 0xf2, 0xff,
  0xc5, 0x05, 0xf2, 0xf5, 0xeb, 0x08, 0xfe, 0x04, 0x09, 0xfe, 0x0c, 0x00,
  0x0c, 0x05, 0xfc, 0xd8, 0xfe, 0x03, 0xfe, 0xf4, 0x00, 0x05, 0x03, 0xd0,
  0x02, 0xfc, 0x01, 0x0a, 0x08, 0x0f, 0x04, 0x05, 0xfc, 0x04, 0xf3, 0x02,
  0xee, 0x00, 0xfa, 0x0d, 0x85, 0xf6, 0xfd, 0x0c, 0x06, 0x0a, 0xfa, 0x16,
  0xd4, 0xfc, 0xc8, 0x11, 0x18, 0x07, 0xff, 0xea, 0x0f, 0x0d, 0x07, 0x0d,
  0x04, 0x06, 0x19, 0x03, 0x06, 0x00, 0xcc, 0xff, 0xfb, 0x06, 0x04, 0x05,
  0x07, 0xfd, 0x00, 0xfc, 0x0a, 0x0c, 0x07, 0xfb, 0x14, 0x01, 0xfd, 0xfe,
  0xf5, 0x03, 0x01, 0xe7, 0xf8, 0x05, 0x08, 0xc1, 0xe8, 0x07, 0xf9, 0x01,
  0x05, 0x03, 0x08, 0x0c, 0xff, 0x00, 0x03, 0x06, 0x04, 0xfa, 0xe5, 0xff,
  0xf8, 0xfc, 0x06, 0x10, 0x03, 0x06, 0x09, 0x05, 0x02, 0xfd, 0xd7, 0xca,
  0x03, 0xcf, 0xab, 0xdf, 0x02, 0x06, 0x09, 0xf4, 0xf7, 0x29, 0x0f, 0xfd,
  0xd6, 0xfd, 0x05, 0x01, 0x00, 0xec, 0xfd, 0x06, 0xf8, 0xff, 0x1f, 0x14,
  0xf8, 0x02, 0xf1, 0xfc, 0x05, 0xfc, 0xee, 0xf9, 0x01, 0x05, 0x08, 0x00,
  0x0c, 0xd4, 0x03, 0x02, 0x08, 0x03, 0x08, 0xfc, 0xfc, 0xf0, 0xee, 0x05,
  0x22, 0x09, 0x0e, 0x02, 0x1a, 0xe8, 0xf2, 0xb4, 0x04, 0x09, 0xf3, 0x08,
  0xfe, 0x01, 0xfd, 0x00, 0x02, 0xec, 0xfa, 0xf4, 0xf5, 0xfb, 0x06, 0xf9,
  0xf8, 0x07, 0xfb, 0x01, 0x02, 0x03, 0xfe, 0xfa, 0x02, 0xfe, 0xf3, 0xfe,
  0xec, 0xfa, 0xfd, 0xf8, 0xfb, 0x01, 0x0a, 0xfe, 0x05, 0x03, 0xf3, 0x0c,
  0x04, 0xfe, 0x19, 0x01, 0xf7, 0xff, 0x07, 0x02, 0x00, 0xfe, 0xfa, 0xfb,
  0xfc, 0x01, 0x00, 0x06, 0x07, 0x05, 0xfd, 0xfc, 0x00, 0xec, 0xf9, 0x00,
  0x02, 0xfd, 0x03, 0xf6, 0x01, 0xfe, 0xfe, 0xff, 0x05, 0xf2, 0xfd, 0x04,
  0xef, 0x07, 0xed, 0x01, 0xfd, 0xf4, 0x0a, 0x07, 0xfe, 0x03, 0xfb, 0xfc,
  0x03, 0x0c, 0xff, 0x07, 0x02, 0xf9, 0x04, 0xf6, 0x05, 0xfa, 0xfc, 0xf3,
  0x03, 0x01, 0x05, 0xfa, 0xfb, 0x10, 0xfa, 0x00, 0x00, 0x06, 0xfd, 0xff,
  0xfa, 0x05, 0x04, 0xfb, 0x0b, 0x01, 0xfc, 0xfe, 0xff, 0x01, 0x00, 0xfc,
  0xf6, 0x08, 0x05, 0x08, 0xfa, 0xff, 0x06, 0xf9, 0x04, 0xfa, 0xfe, 0xff,
  0x01, 0xff, 0x02, 0x02, 0x04, 0x03, 0x06, 0xfb, 0x07, 0xfa, 0xfb, 0xfd,
  0xfd, 0x01, 0xfc, 0x04, 0x05, 0xfe, 0x06, 0xff, 0xfb, 0xfd, 0xff, 0x03,
  0xfb, 0xf9, 0x06, 0xf9, 0x03, 0xfb, 0x01, 0xff, 0xfc, 0xf9, 0xfb, 0xfe,
  0xfc, 0xfc, 0x05, 0xfe, 0xfc, 0xfb, 0x06, 0x04, 0xfb, 0x04, 0x06, 0xfa,
  0x06, 0xfa, 0xfe, 0xfc, 0x03, 0x01, 0x06, 0x04, 0x01, 0xfa, 0x00, 0xff,
  0xfc, 0xfe, 0xff, 0x06, 0xfb, 0x04, 0xfa, 0x01, 0x01, 0xfa, 0x05, 0x02,
  0xfb, 0x04, 0xff, 0x06, 0xfa, 0x04, 0x01, 0x04, 0x03, 0x02, 0x02, 0xfe,
  0x07, 0xfd, 0xfc, 0x00, 0x01, 0xfb, 0x04, 0xff, 0xfc, 0xf9, 0xfe, 0x05,
  0x02, 0xfb, 0xfe, 0xfe, 0x03, 0xf9, 0x07, 0xfa, 0x03, 0xfe, 0x04, 0x00,
  0xff, 0x01, 0xff, 0x01, 0x03, 0xfc, 0x02, 0xff, 0x00, 0x03, 0xf9, 0x01,
  0x04, 0xfa, 0x01, 0xfc, 0x02, 0x07, 0xf0, 0x01, 0x00, 0xfd, 0x02, 0xf8,
  0x06, 0x00, 0xea, 0x00, 0xe5, 0xe2, 0xfd, 0xfd, 0xfb, 0xfb, 0x01, 0xf7,
  0x04, 0xf6, 0xfd, 0xff, 0x04, 0xf3, 0x03, 0xf9, 0xfb, 0xfd, 0x03, 0xf6,
  0xf3, 0x0e, 0xfd, 0xe7, 0xe0, 0x05, 0x00, 0x00, 0xf7, 0xfd, 0xed, 0x00,
  0xfd, 0x10, 0x07, 0x00, 0xf5, 0x0e, 0x02, 0xf7, 0xf9, 0xfe, 0xfe, 0xe6,
  0xfd, 0xfa, 0x0b, 0xfb, 0xf8, 0xfb, 0x00, 0x05, 0x01, 0xee, 0xe2, 0xfe,
  0x07, 0xf8, 0xfe, 0xd8, 0xf8, 0xfd, 0x00, 0x04, 0xf8, 0xf5, 0x08, 0xfc,
  0xdb, 0x0e, 0xde, 0xf8, 0x0e, 0xf1, 0x04, 0xec, 0xe4, 0xed, 0xf4, 0x02,
  0xff, 0x0c, 0xee, 0xf4, 0xe8, 0xc7, 0xff, 0xf4, 0xf0, 0x02, 0xfd, 0x06,
  0x00, 0xff, 0xf4, 0x00, 0xfe, 0xfb, 0xf2, 0xea, 0x09, 0xf2, 0xfd, 0x03,
  0xfa, 0xf0, 0x02, 0xfb, 0xf2, 0xfe, 0xf0, 0xf7, 0xfd, 0xf9, 0xfb, 0x01,
  0xfa, 0xfc, 0xfc, 0xfa, 0x03, 0xfc, 0x04, 0xfe, 0xfc, 0xfa, 0xfe, 0xfb,
  0xff, 0x00, 0xfd, 0xfa, 0x01, 0xfa, 0xfd, 0xfb, 0x00, 0xff, 0x00, 0xfd,
  0x00, 0x01, 0xf9, 0xfe, 0xfa, 0xfa, 0xff, 0xfb, 0x02, 0x05, 0xfe, 0xfd,
  0xff, 0xff, 0xfe, 0xfd, 0xfb, 0xfb, 0xff, 0xff, 0x05, 0x02, 0x06, 0x05,
  0x02, 0xfc, 0xff, 0xfc, 0x06, 0x06, 0x03, 0xfa, 0xfc, 0xfd, 0xfa, 0xfe,
  0xfd, 0x01, 0x01, 0xfa, 0x00, 0x00, 0x05, 0xfc, 0x00, 0xfd, 0x06, 0xfc,
  0xfa, 0x05, 0xfd, 0xfe, 0x06, 0xfa, 0xfc, 0x00, 0xfe, 0xfc, 0xfe, 0xfa,
  0xfc, 0xfc, 0xfe, 0x00, 0xfe, 0xfe, 0xfe, 0xfc, 0xfa, 0xfc, 0xfd, 0x00,
  0xff, 0xfc, 0x00, 0x06, 0xfe, 0xfb, 0x00, 0x02, 0xfc, 0x00, 0xfb, 0x02,
  0x00, 0x00, 0xfc, 0x02, 0x01, 0x01, 0xfc, 0xfc, 0x00, 0x04, 0x03, 0x01,
  0xfb, 0x03, 0xfc, 0xff, 0x05, 0xfe, 0x03, 0xff, 0x09, 0x01, 0xfd, 0xff,
  0x04, 0x05, 0xfb, 0xff, 0xfe, 0x03, 0xfe, 0xfe, 0xfe, 0x0e, 0x07, 0xe7,
  0x02, 0x04, 0xfe, 0xae, 0xff, 0x03, 0x08, 0x06, 0x09, 0x05, 0xf7, 0x02,
  0xfb, 0xff, 0x03, 0x06, 0x02, 0x00, 0x03, 0xf1, 0xf7, 0x04, 0x04, 0xc9,
  0xfe, 0xfd, 0x03, 0xf9, 0xc4, 0x05, 0x0c, 0xfe, 0xf9, 0x07, 0xfc, 0x06,
  0x09, 0xf8, 0xd4, 0x04, 0xff, 0x02, 0xff, 0xfa, 0xf7, 0xda, 0x03, 0x0a,
  0x04, 0xe5, 0xff, 0x04, 0x04, 0x00, 0x02, 0x08, 0x00, 0x05, 0x00, 0xf6,
  0xc8, 0x06, 0x02, 0xf3, 0x0b, 0xfe, 0xfc, 0x02, 0x05, 0x03, 0x08, 0x01,
  0xff, 0x02, 0xfe, 0xe7, 0xf1, 0x08, 0xfe, 0x05, 0x01, 0x03, 0xfc, 0xd2,
  0xfd, 0xfd, 0xfa, 0xf6, 0xfb, 0xfd, 0x05, 0xfd, 0x0a, 0x04, 0xfd, 0xfa,
  0x07, 0xf9, 0xfb, 0xf1, 0xa8, 0xfe, 0xe1, 0xf4, 0x0a, 0xf7, 0x05, 0xfd,
  0xe3, 0x03, 0xd9, 0xfc, 0x02, 0x04, 0xea, 0x00, 0x05, 0x00, 0x03, 0x09,
  0x0c, 0xff, 0xfe, 0xf5, 0xff, 0xff, 0xf9, 0xfb, 0x0b, 0xf6, 0x0b, 0xf2,
  0xfe, 0x0b, 0x08, 0xfe, 0x0a, 0xfc, 0x0b, 0xf9, 0xf4, 0xfc, 0xe6, 0xfc,
  0xef, 0x0e, 0x04, 0xe5, 0xf5, 0x09, 0xe8, 0x04, 0xfd, 0x0a, 0xfa, 0xff,
  0xfc, 0x18, 0xfd, 0x0b, 0xf7, 0x0c, 0xfa, 0xff, 0xfb, 0xfd, 0xfe, 0x06,
  0xf7, 0x07, 0x0c, 0x09, 0xfb, 0xfc, 0xfe, 0x08, 0x09, 0xe8, 0xe3, 0xf4,
  0x13, 0xf9, 0xf5, 0xe5, 0x01, 0xf7, 0xfd, 0x00, 0xf1, 0xec, 0xf9, 0xf3,
  0xfb, 0x0d, 0x01, 0xff, 0x0a, 0xe6, 0x06, 0xf6, 0x03, 0x00, 0xf3, 0x0a,
  0xff, 0xfc, 0xf2, 0xf9, 0x02, 0xb6, 0xf0, 0xf9, 0xfd, 0xe9, 0x09, 0x15,
  0x07, 0xfb, 0xfd, 0xfe, 0x0a, 0xfa, 0xe5, 0xf0, 0xf2, 0xf0, 0xf0, 0x0a,
  0xf5, 0xf8, 0x0a, 0x0c, 0xee, 0x0e, 0xfd, 0x04, 0x07, 0x03, 0xf8, 0x02,
  0x01, 0xff, 0xf1, 0xf5, 0xf2, 0xfd, 0x00, 0x0a, 0xd7, 0x05, 0x07, 0x03,
  0xf8, 0x05, 0xfb, 0x03, 0x01, 0xfb, 0xfb, 0x05, 0xff, 0xee, 0x02, 0x03,
  0xf9, 0xf1, 0x09, 0x02, 0x04, 0x00, 0x0c, 0x04, 0x01, 0xfd, 0x02, 0x02,
  0xfe, 0xf9, 0x0f, 0x01, 0xfc, 0xea, 0x00, 0xf8, 0x00, 0xfc, 0x02, 0xf4,
  0xfd, 0x05, 0x03, 0xfb, 0x06, 0xfb, 0x04, 0xfe, 0x05, 0x01, 0xf4, 0x03,
  0xff, 0xf9, 0x01, 0x04, 0x04, 0xf3, 0xfd, 0x05, 0xfb, 0x05, 0xf9, 0x0d,
  0xff, 0x01, 0xfe, 0xfd, 0xfc, 0xfc, 0x0a, 0x09, 0x0a, 0xf9, 0x01, 0xfa,
  0x0a, 0x03, 0xf7, 0x06, 0x07, 0x04, 0xf9, 0x09, 0xfc, 0x01, 0x07, 0x02,
  0xf7, 0x03, 0xfd, 0xf7, 0xf8, 0x14, 0xf7, 0xf6, 0x02, 0xf8, 0x06, 0x02,
  0xfe, 0x05, 0x06, 0xf8, 0xfe, 0x04, 0xfe, 0xd2, 0x00, 0xf3, 0x01, 0xe6,
  0x06, 0xf0, 0x01, 0xff, 0xf9, 0xfa, 0xfe, 0xfc, 0xfe, 0xfb, 0x02, 0xfc,
  0x04, 0x06, 0x00, 0x00, 0x01, 0x01, 0xfe, 0xfd, 0xfd, 0xfa, 0x04, 0x05,
  0xfc, 0x00, 0xf7, 0x02, 0xff, 0x02, 0x05, 0x02, 0xfd, 0xf8, 0x01, 0x03,
  0xfb, 0xff, 0xff, 0xff, 0xfb, 0x00, 0xfb, 0xfe, 0x03, 0x03, 0x00, 0x00,
  0xff, 0xff, 0x05, 0xf9, 0xf9, 0xfe, 0x01, 0xfc, 0xf9, 0xfe, 0xff, 0x01,
  0xfd, 0x00, 0xfa, 0xfb, 0x03, 0x00, 0xfd, 0xfa, 0x00, 0xfc, 0xf7, 0xfc,
  0x03, 0xfd, 0xff, 0x00, 0xfe, 0x01, 0xff, 0x04, 0x02, 0x05, 0x02, 0xff,
  0xfa, 0xfa, 0x03, 0x01, 0xff, 0xfd, 0x02, 0x04, 0x04, 0x02, 0x02, 0xfa,
  0xff, 0x01, 0x05, 0xf9, 0x01, 0xfe, 0x02, 0x01, 0xff, 0x10, 0xf9, 0x05,
  0xf2, 0xfa, 0xf8, 0xf6, 0x02, 0x06, 0xf6, 0xff, 0x04, 0xfa, 0x06, 0x05,
  0xfa, 0xfc, 0xf9, 0xf8, 0x05, 0x03, 0xfb, 0xf9, 0xfe, 0xfb, 0xf9, 0xfd,
  0x02, 0x00, 0x01, 0xfc, 0xf7, 0x02, 0xfc, 0xf9, 0xf7, 0xff, 0x02, 0xfe,
  0xff, 0x00, 0x02, 0x05, 0x02, 0x03, 0xfc, 0xfc, 0xfb, 0x00, 0x05, 0xfa,
  0xff, 0xfe, 0xff, 0xf5, 0x02, 0xf2, 0x04, 0xf6, 0xf8, 0xfc, 0xf7, 0xf3,
  0x01, 0x01, 0x00, 0xfe, 0xf9, 0xfe, 0xfa, 0xe6, 0x02, 0x03, 0xf6, 0x04,
  0x02, 0x03, 0x00, 0xfd, 0x04, 0x02, 0x05, 0xf8, 0x02, 0xf1, 0xf9, 0x05,
  0x01, 0xfb, 0x00, 0x03, 0xf2, 0x04, 0xf8, 0x02, 0xfc, 0xfc, 0xe6, 0x00,
  0xff, 0x02, 0xec, 0x03, 0xfe, 0xf9, 0xf5, 0xeb, 0xf8, 0xf3, 0xf7, 0xfd,
  0x00, 0xfa, 0x05, 0x04, 0x04, 0xf6, 0xf8, 0x05, 0xfa, 0xff, 0x01, 0x03,
  0x06, 0x05, 0xf1, 0x03, 0xfb, 0x04, 0x00, 0x04, 0xf8, 0x07, 0x03, 0xff,
  0xfd, 0x00, 0xf9, 0xfd, 0x04, 0x06, 0x03, 0xfb, 0xfe, 0xfd, 0x04, 0xff,
  0x01, 0xfc, 0x00, 0xfa, 0xf5, 0xee, 0xff, 0xea, 0xfb, 0x03, 0xfe, 0xfe,
  0xff, 0x00, 0xfe, 0x03, 0xfd, 0xfd, 0xfe, 0xff, 0x05, 0xfd, 0xfa, 0xf5,
  0xf6, 0xf5, 0xf8, 0xf8, 0xff, 0xff, 0xfc, 0xf8, 0xf5, 0xfd, 0x01, 0xff,
  0xfb, 0xf7, 0xf8, 0xfd, 0xfd, 0xfc, 0xf3, 0x00, 0xf7, 0xf7, 0xfc, 0xf0,
  0x00, 0xff, 0xf0, 0xf5, 0x01, 0xf8, 0xff, 0x01, 0xf8, 0x04, 0xff, 0xfb,
  0xef, 0xfa, 0xf5, 0x02, 0x00, 0xfb, 0xf6, 0xfe, 0xfd, 0x01, 0x03, 0x01,
  0x04, 0x00, 0x04, 0x01, 0xfc, 0xf6, 0xf8, 0xfb, 0x02, 0xf3, 0xfe, 0xf9,
  0xff, 0xfc, 0xf7, 0x04, 0xfa, 0xf5, 0xf8, 0x01, 0xf6, 0x01, 0x02, 0xfe,
  0xfa, 0xf0, 0xfd, 0xf9, 0xf8, 0x01, 0xfc, 0xfc, 0xfb, 0xff, 0xfd, 0xfe,
  0x01, 0xe9, 0xf2, 0xfd, 0xfe, 0xee, 0xfd, 0xf9, 0xfa, 0xfd, 0xfc, 0x02,
  0xfe, 0x00, 0xf5, 0xfa, 0xfd, 0xef, 0xfb, 0x00, 0xfa, 0xf8, 0xf8, 0x06,
  0xf8, 0xfd, 0xfb, 0xfc, 0xf5, 0xfb, 0xfe, 0xfd, 0x06, 0x06, 0xe2, 0x01,
  0x0c, 0x00, 0x07, 0x05, 0x10, 0x06, 0x17, 0xfe, 0xfc, 0xfd, 0xf7, 0x06,
  0xfb, 0x06, 0x01, 0xee, 0xfa, 0x02, 0x0a, 0xfb, 0x0a, 0xe3, 0x01, 0xfe,
  0xf1, 0xfd, 0xf4, 0x02, 0xf6, 0xff, 0x01, 0xe3, 0xf5, 0x0a, 0x05, 0xf3,
  0xf9, 0x0a, 0xf6, 0x01, 0x02, 0x07, 0x06, 0x05, 0xef, 0x05, 0x05, 0xff,
  0x09, 0x00, 0xf6, 0x05, 0xf9, 0x03, 0x03, 0x0d, 0x06, 0xff, 0xfa, 0x04,
  0x02, 0xf9, 0xd1, 0xf3, 0xfd, 0xf5, 0xe9, 0xcf, 0x09, 0x02, 0xfc, 0xfe,
  0xf8, 0xf7, 0xf6, 0x03, 0xfd, 0x04, 0xff, 0xfa, 0xfa, 0xe8, 0x06, 0xfb,
  0xfb, 0xff, 0xe2, 0x0c, 0x03, 0x05, 0xd8, 0xed, 0xfa, 0xdf, 0xf0, 0xff,
  0xfa, 0xff, 0x08, 0x09, 0x07, 0x04, 0xf9, 0xfe, 0x06, 0xf9, 0xef, 0xff,
  0xf7, 0xea, 0xee, 0x0f, 0xfb, 0xee, 0x08, 0x04, 0xfd, 0x00, 0xf7, 0xe9,
  0x02, 0xff, 0xfb, 0x0b, 0x01, 0xfe, 0x03, 0x06, 0x00, 0x02, 0x05, 0xfa,
  0x04, 0xff, 0xfb, 0xfd, 0x00, 0x02, 0xe3, 0x03, 0xf7, 0xfa, 0xff, 0x02,
  0x03, 0xfe, 0xfd, 0xfb, 0xf9, 0xf9, 0x05, 0xf6, 0x02, 0x03, 0xfb, 0x05,
  0x00, 0x07, 0xfe, 0x00, 0x01, 0xfd, 0xfe, 0xcb, 0xef, 0xfd, 0xf7, 0x02,
  0x06, 0xfb, 0xf9, 0xff, 0x03, 0xfd, 0xfc, 0x03, 0x06, 0xbc, 0xf2, 0x01,
  0xf5, 0x02, 0x05, 0xf8, 0x05, 0xfc, 0xf9, 0xf2, 0x04, 0x02, 0xd8, 0xe2,
  0x05, 0xe5, 0xd0, 0xfb, 0xff, 0xfa, 0xf8, 0xe7, 0x06, 0xfe, 0x00, 0xff,
  0xf6, 0x03, 0xfa, 0xf7, 0xfb, 0xfc, 0x01, 0xf6, 0xfd, 0xfe, 0x04, 0xff,
  0xf9, 0x03, 0xe6, 0xf8, 0x00, 0xff, 0x06, 0x00, 0xfc, 0xfc, 0x05, 0x03,
  0x04, 0xfd, 0xee, 0x03, 0xf2, 0x03, 0xf7, 0x05, 0x01, 0xfd, 0xfd, 0x04,
  0xff, 0xfc, 0xfa, 0xfe, 0xfa, 0xf4, 0xf1, 0xc7, 0x02, 0xfa, 0x06, 0xff,
  0x09, 0x00, 0xf7, 0xfb, 0xfe, 0xe1, 0x07, 0x00, 0x0a, 0xfe, 0xfa, 0x07,
  0xd8, 0xd4, 0x03, 0x00, 0x34, 0xf9, 0xfd, 0xeb, 0x01, 0x04, 0xe8, 0xd1,
  0xf4, 0xf5, 0xff, 0xb9, 0x00, 0x05, 0xf9, 0xe2, 0xc4, 0x07, 0xd8, 0xf8,
  0xbc, 0x04, 0x06, 0x01, 0x01, 0xfd, 0xca, 0xfc, 0x07, 0xfd, 0xfb, 0x02,
  0xfe, 0x02, 0x08, 0xfa, 0xfb, 0x01, 0xfe, 0x0f, 0xfa, 0xdd, 0x00, 0x07,
  0x03, 0x05, 0xf6, 0xe8, 0x02, 0xff, 0xd2, 0xfd, 0x03, 0x01, 0x03, 0xfb,
  0xf9, 0xf9, 0xc7, 0xfd, 0xfb, 0xfb, 0xf6, 0x0a, 0xfc, 0x0a, 0xf5, 0x04,
  0x08, 0xfb, 0x07, 0x02, 0xff, 0xdd, 0xf8, 0x00, 0xfd, 0xfd, 0xdc, 0x02,
  0xdf, 0x04, 0xf7, 0xf9, 0xe9, 0x00, 0x06, 0x09, 0x05, 0xfd, 0xfd, 0x04,
  0x28, 0x05, 0xfa, 0xf7, 0x03, 0x01, 0x03, 0xff, 0x07, 0xf7, 0x0a, 0x07,
  0xb9, 0x05, 0xfb, 0x02, 0x09, 0x01, 0x00, 0x0a, 0xfc, 0x02, 0x00, 0xfe,
  0xfe, 0xfe, 0x03, 0x00, 0x01, 0x03, 0x00, 0x00, 0xfc, 0x01, 0x05, 0xf9,
  0xff, 0xfb, 0x02, 0xf9, 0xfa, 0x02, 0x04, 0xfc, 0xfd, 0x00, 0xfc, 0x00,
  0x03, 0xff, 0x06, 0x05, 0x00, 0xf9, 0x00, 0xfb, 0xf9, 0xfb, 0x02, 0xf9,
  0xfc, 0x02, 0x05, 0xff, 0x00, 0xf9, 0xf9, 0xfc, 0xfa, 0x01, 0x00, 0x02,
  0xfc, 0xff, 0x05, 0xfc, 0xfa, 0x01, 0xfe, 0xfa, 0xfe, 0xff, 0xff, 0xfe,
  0x05, 0x00, 0x02, 0xfa, 0xfa, 0xfc, 0xfd, 0xfb, 0xfa, 0xfc, 0x04, 0xfe,
  0x05, 0x03, 0x02, 0xff, 0x00, 0xfc, 0x00, 0x01, 0xf9, 0x04, 0x06, 0x00,
  0xff, 0x04, 0x04, 0x05, 0x06, 0xf9, 0x00, 0xfd, 0xff, 0xf8, 0x02, 0xf9,
  0xfd, 0xf9, 0x05, 0xfe, 0xfa, 0x03, 0x02, 0xfd, 0x06, 0x05, 0x01, 0xfb,
  0x02, 0x01, 0xfc, 0x04, 0x03, 0x00, 0xfd, 0xff, 0x06, 0xfa, 0xfe, 0x05,
  0x02, 0x03, 0xfb, 0x02, 0x03, 0x03, 0xf8, 0x03, 0xfd, 0xfd, 0xfe, 0xff,
  0x03, 0x02, 0xf9, 0xf2, 0x06, 0x06, 0xf0, 0x03, 0xfe, 0xef, 0xfe, 0xf6,
  0xfc, 0xff, 0x05, 0xfe, 0xf7, 0x01, 0xfa, 0x01, 0xf6, 0x05, 0xf3, 0xfc,
  0x04, 0x02, 0xff, 0xf6, 0x00, 0x04, 0xf4, 0xfc, 0xfc, 0x01, 0x05, 0xf9,
  0x01, 0x01, 0xfd, 0x04, 0xfe, 0xfc, 0xf8, 0x02, 0x00, 0xfa, 0xfd, 0x02,
  0x03, 0xf9, 0x02, 0xf8, 0xfa, 0x00, 0xff, 0xfb, 0x00, 0xfb, 0xf8, 0xfd,
  0x02, 0xf3, 0xfe, 0xf2, 0xfb, 0xf8, 0xfb, 0x04, 0x02, 0xf4, 0x04, 0xfd,
  0xf7, 0x04, 0xfb, 0xfb, 0xfa, 0x00, 0x00, 0xf6, 0xfc, 0xfb, 0x00, 0x04,
  0xf9, 0x08, 0xfa, 0xf6, 0x04, 0x05, 0xf9, 0xf6, 0x03, 0xf3, 0xff, 0x07,
  0x04, 0xfc, 0x01, 0x00, 0xf9, 0xfd, 0xfa, 0x00, 0xfb, 0xf6, 0xf8, 0x05,
  0xfb, 0xf9, 0xff, 0xfb, 0xf9, 0xfd, 0xfa, 0xfd, 0x00, 0xfc, 0x03, 0xfc,
  0x04, 0x07, 0xf0, 0xfe, 0x09, 0x08, 0xf9, 0x0b, 0x07, 0x04, 0xec, 0xe2,
  0xea, 0x08, 0xf7, 0xf8, 0x05, 0xf4, 0xf2, 0xfa, 0xef, 0x08, 0x05, 0x01,
  0xfe, 0xef, 0x00, 0x03, 0xff, 0xf9, 0xff, 0x06, 0x06, 0x06, 0x08, 0xbd,
  0xfa, 0xfe, 0x00, 0x03, 0x07, 0x0c, 0x0a, 0x02, 0xed, 0x09, 0xf7, 0x08,
  0xf6, 0xfa, 0xf7, 0xf5, 0xfb, 0xfe, 0x00, 0x0b, 0x03, 0x05, 0x0a, 0xfa,
  0x04, 0x08, 0xf0, 0x03, 0x03, 0xe1, 0xf3, 0xfa, 0x11, 0xfa, 0xfa, 0xec,
  0xfb, 0xec, 0x01, 0x06, 0xe9, 0xfb, 0x08, 0x01, 0xf6, 0x0b, 0xf3, 0xf9,
  0x00, 0x18, 0xfe, 0xc0, 0xff, 0xfc, 0xf1, 0x01, 0xfa, 0x01, 0x04, 0xe8,
  0xe8, 0xef, 0xea, 0xec, 0xf4, 0xe0, 0xf8, 0x07, 0x00, 0x01, 0xe6, 0xfb,
  0xfb, 0xff, 0xf6, 0xf7, 0xdf, 0xf2, 0xf3, 0x03, 0xfa, 0xf6, 0xfe, 0x0a,
  0x01, 0xfd, 0xe6, 0xfe, 0x01, 0xfe, 0xdc, 0xfc, 0xf8, 0xf5, 0x01, 0xee,
  0xf1, 0x03, 0xfe, 0xfe, 0xed, 0xff, 0x03, 0x01, 0x04, 0xff, 0xfc, 0xf1,
  0xfb, 0x05, 0xfd, 0x03, 0x04, 0xf3, 0x00, 0xfa, 0x06, 0xfe, 0x03, 0x01,
  0x0a, 0xff, 0x07, 0xfe, 0xfe, 0xed, 0xff, 0x01, 0x06, 0x05, 0x07, 0x01,
  0x00, 0xf2, 0xff, 0x05, 0x06, 0xf4, 0xfe, 0xfa, 0x0f, 0x03, 0x03, 0x06,
  0x04, 0xf9, 0xfc, 0xf8, 0x02, 0xfb, 0xf3, 0xff, 0xfe, 0x00, 0x02, 0xfd,
  0xf6, 0xf5, 0x14, 0x04, 0xf8, 0x00, 0x02, 0x13, 0x01, 0x02, 0xff, 0xf0,
  0xff, 0x01, 0xfb, 0x02, 0x0e, 0xed, 0xfc, 0x08, 0xf3, 0x08, 0xfb, 0x04,
  0xf7, 0xfa, 0x05, 0xf9, 0xf4, 0x02, 0x0e, 0x0a, 0xff, 0xfb, 0x06, 0x04,
  0xfe, 0x06, 0xf7, 0xf0, 0xfd, 0xf4, 0xff, 0xfa, 0x06, 0xfd, 0x07, 0x00,
  0x07, 0x0a, 0x03, 0xef, 0x06, 0x0b, 0xff, 0xfa, 0x01, 0xf8, 0x02, 0x02,
  0xfe, 0xfd, 0x06, 0xfd, 0xfd, 0x00, 0x03, 0x00, 0x03, 0xfa, 0x06, 0x01,
  0xff, 0x04, 0xfd, 0x04, 0xfd, 0x01, 0xff, 0x00, 0xfc, 0x01, 0xf7, 0xfb,
  0x05, 0x01, 0xfa, 0xf8, 0x04, 0x06, 0xfa, 0x02, 0x00, 0xfb, 0xfe, 0xfa,
  0xfd, 0xfb, 0xfa, 0x05, 0xff, 0xfd, 0x05, 0x02, 0xfc, 0xfd, 0xf9, 0x02,
  0xff, 0x01, 0xff, 0xfa, 0x02, 0xfb, 0x03, 0xfd, 0xfd, 0xff, 0xfe, 0xf7,
  0xff, 0xf7, 0xfe, 0xfb, 0xfd, 0xfd, 0x05, 0x04, 0x05, 0x02, 0x06, 0xfc,
  0x00, 0xfb, 0xfa, 0x02, 0x03, 0xf9, 0x02, 0xfa, 0xfb, 0xfb, 0xfc, 0xfd,
  0xfb, 0x02, 0xf9, 0x01, 0x06, 0xff, 0x06, 0x06, 0xfb, 0xfc, 0xfc, 0xfc,
  0x06, 0xff, 0xff, 0x06, 0xfc, 0xfe, 0x02, 0xfe, 0xfc, 0x05, 0xfb, 0x04,
  0xfe, 0x00, 0x00, 0xfb, 0xfc, 0xfa, 0x00, 0x05, 0x03, 0x02, 0x04, 0x02,
  0x00, 0x03, 0xfe, 0xfb, 0xff, 0x01, 0xf9, 0xfe, 0x03, 0xfd, 0x05, 0xff,
  0xfb, 0x07, 0xff, 0x02, 0xfb, 0x03, 0xff, 0xef, 0x00, 0x05, 0xf7, 0xed,
  0xff, 0x04, 0xf4, 0x00, 0x00, 0xf1, 0x07, 0x00, 0xd9, 0x01, 0x01, 0x01,
  0x02, 0xfd, 0xe8, 0xfd, 0xeb, 0xfd, 0xf4, 0x07, 0x01, 0xfe, 0x05, 0xf7,
  0xf9, 0x03, 0xf8, 0xfa, 0x00, 0x06, 0x07, 0xd3, 0xbd, 0x07, 0xfc, 0xf6,
  0xfb, 0x01, 0xe5, 0xf2, 0xfc, 0x00, 0xfb, 0xfc, 0x01, 0x00, 0xfb, 0xfd,
  0x04, 0xbc, 0x03, 0xff, 0x0c, 0x09, 0xf4, 0xf3, 0x06, 0xf4, 0x05, 0xbf,
  0x02, 0xf5, 0xf6, 0x07, 0xd1, 0xf1, 0xf8, 0xf8, 0xcf, 0xfd, 0x03, 0x04,
  0x05, 0xf8, 0xfc, 0x05, 0x11, 0xfa, 0x02, 0xf6, 0x01, 0xff, 0x00, 0xff,
  0x05, 0xc4, 0x00, 0xd6, 0xfd, 0xf4, 0x06, 0x05, 0x02, 0x04, 0x00, 0x02,
  0x07, 0x01, 0xdd, 0xff, 0x03, 0xfd, 0x01, 0x08, 0xfa, 0x08, 0xf4, 0x06,
  0xf6, 0xff, 0x03, 0x05, 0xc7, 0x02, 0xdc, 0xee, 0xfc, 0x01, 0xfb, 0xfe,
  0x05, 0xfe, 0xf9, 0x00, 0x05, 0x01, 0x01, 0xfe, 0xfe, 0xff, 0xf2, 0xfb,
  0xfd, 0xf5, 0x02, 0xfd, 0xfc, 0xfe, 0x00, 0xfa, 0xff, 0xf2, 0xfd, 0x03,
  0xf8, 0x01, 0xf1, 0xfd, 0xf8, 0xfb, 0x00, 0xf9, 0x02, 0xfe, 0xf2, 0xfa,
  0xfd, 0x02, 0xf7, 0xfa, 0xfe, 0x06, 0xfb, 0x05, 0xfe, 0x01, 0xfe, 0xfc,
  0x00, 0xfa, 0xfd, 0x04, 0x04, 0xfd, 0xf8, 0xfc, 0x05, 0x02, 0x01, 0x06,
  0xff, 0xff, 0xe8, 0xf6, 0xfe, 0xfd, 0x02, 0x03, 0xfb, 0x01, 0xfe, 0xfa,
  0x03, 0xfc, 0x02, 0x05, 0xfb, 0xff, 0xfe, 0x01, 0x03, 0xf6, 0x00, 0xf8,
  0x05, 0x02, 0xf7, 0xff, 0xfb, 0xfd, 0xf5, 0xf5, 0xf6, 0xf6, 0xf7, 0x04,
  0xfa, 0xf9, 0xfc, 0x03, 0xf9, 0xf5, 0x01, 0x06, 0xff, 0x00, 0xf1, 0xee,
  0xf9, 0xf7, 0xfd, 0xfe, 0xf9, 0xf2, 0xfe, 0x06, 0xf9, 0xfc, 0x03, 0xfd,
  0xf8, 0xfd, 0xf6, 0xff, 0x03, 0x02, 0xed, 0x00, 0xfd, 0xf9, 0x08, 0x0b,
  0x10, 0xfa, 0xc5, 0x01, 0xf6, 0xf3, 0xf7, 0xf3, 0x04, 0xf9, 0xfe, 0xe8,
  0x02, 0x01, 0x04, 0xf9, 0xfe, 0xf5, 0x0f, 0xf5, 0xfa, 0xf7, 0xe4, 0xfa,
  0xf6, 0x04, 0x02, 0xe5, 0xf7, 0x0f, 0xf5, 0xfe, 0xff, 0x01, 0xf7, 0x02,
  0x03, 0x0e, 0x0f, 0x07, 0xde, 0x10, 0x02, 0xf7, 0xff, 0x00, 0x03, 0x05,
  0xdd, 0xf6, 0x03, 0x03, 0xf7, 0x00, 0xfc, 0x01, 0x01, 0x01, 0xef, 0xfb,
  0x09, 0x0b, 0x00, 0xe0, 0x03, 0xf2, 0xf2, 0x08, 0xfb, 0xf6, 0xe2, 0x08,
  0x17, 0x08, 0xfa, 0x01, 0x01, 0xd7, 0xf8, 0xe3, 0xf6, 0xfa, 0xef, 0x0b,
  0xf4, 0x03, 0xf0, 0xf3, 0xfb, 0xce, 0xf4, 0x01, 0xfe, 0xf4, 0x04, 0x06,
  0x05, 0xfa, 0xe5, 0x03, 0x0b, 0xfc, 0xfc, 0xfa, 0xdf, 0xf6, 0xf9, 0x0e,
  0xf8, 0xf1, 0x0b, 0x14, 0xf8, 0x06, 0xe1, 0xf7, 0x08, 0x0a, 0xed, 0x09,
  0x03, 0xfe, 0xfe, 0x05, 0xf8, 0xfe, 0x02, 0x02, 0x05, 0x03, 0xf8, 0xf7,
  0xf7, 0xfe, 0xff, 0xf6, 0xfb, 0xf0, 0xf7, 0xf6, 0xf7, 0x02, 0x03, 0xf8,
  0x02, 0xf6, 0xfc, 0x03, 0xf8, 0x00, 0xf3, 0xfd, 0xff, 0xfe, 0x04, 0xf4,
  0xf8, 0x00, 0x01, 0xfe, 0x06, 0xf7, 0xf8, 0xfd, 0xf1, 0x06, 0x04, 0xfb,
  0xf1, 0x00, 0xf6, 0xfb, 0xfd, 0x01, 0xfa, 0x0c, 0xfd, 0x07, 0xfe, 0x02,
  0xf4, 0xfd, 0xff, 0xfc, 0x03, 0xfd, 0xf2, 0x01, 0x01, 0xf6, 0xf4, 0xf6,
  0xfc, 0xf4, 0xfc, 0x03, 0xff, 0xfd, 0xf8, 0xfd, 0xe7, 0x10, 0xf0, 0xfd,
  0xf0, 0x02, 0xfe, 0xea, 0x02, 0xf5, 0xf9, 0xf9, 0xfd, 0x0a, 0xfc, 0xfa,
  0xf0, 0xde, 0xfc, 0x02, 0xf7, 0x04, 0xf3, 0x00, 0xfd, 0x00, 0xf2, 0xfd,
  0xff, 0xff, 0xf6, 0xfc, 0xef, 0xeb, 0xfa, 0x00, 0xfb, 0xfa, 0xf8, 0x07,
  0xf5, 0x00, 0xef, 0x02, 0xf0, 0x05, 0xfa, 0x02, 0xff, 0xfb, 0x08, 0x01,
  0x04, 0xfa, 0xfd, 0xf9, 0xf1, 0x01, 0xff, 0xf8, 0xfe, 0xfb, 0x02, 0xff,
  0xfb, 0x01, 0x04, 0x02, 0xfd, 0x01, 0xf5, 0xfc, 0x04, 0xfd, 0xfd, 0x00,
  0x08, 0xfe, 0x01, 0x02, 0xfa, 0x02, 0xfe, 0xfd, 0x00, 0xf6, 0xfe, 0x03,
  0xfd, 0x05, 0x05, 0x00, 0xfe, 0xeb, 0xf7, 0xff, 0x04, 0xfb, 0xfc, 0xfb,
  0x05, 0xfa, 0x06, 0x04, 0xfd, 0xfa, 0x00, 0xf7, 0x08, 0xf2, 0xff, 0xfa,
  0x05, 0x04, 0xfa, 0x06, 0xf9, 0x01, 0x00, 0xfc, 0x01, 0x02, 0x05, 0xf9,
  0xfb, 0xfd, 0xfe, 0x02, 0xff, 0xfe, 0x03, 0xf9, 0xf9, 0xfa, 0x05, 0xfa,
  0xfc, 0xff, 0xfe, 0xfe, 0x05, 0x02, 0x08, 0x05, 0x02, 0x13, 0xf9, 0xf8,
  0xfb, 0xfd, 0xfb, 0xe1, 0x03, 0x01, 0x02, 0x03, 0x02, 0x06, 0x06, 0xfd,
  0xfc, 0x00, 0xfb, 0xf4, 0xfc, 0x02, 0xf9, 0xf1, 0x04, 0x03, 0x03, 0xff,
  0xfa, 0xfa, 0xfe, 0xf4, 0x01, 0x09, 0xf8, 0x03, 0x10, 0x09, 0x05, 0x09,
  0x0c, 0x00, 0x12, 0xf2, 0x01, 0xf9, 0xf0, 0x00, 0xfe, 0xf7, 0x01, 0xef,
  0xf6, 0x06, 0xfc, 0x00, 0x01, 0xeb, 0x04, 0xff, 0xf1, 0x07, 0xf4, 0x06,
  0x03, 0x03, 0x06, 0xeb, 0xf6, 0x09, 0xf3, 0xff, 0xf4, 0x07, 0xfd, 0xf7,
  0x01, 0x07, 0x0b, 0x05, 0xfc, 0x0d, 0xf4, 0x04, 0x04, 0x00, 0xfc, 0x08,
  0xf5, 0xf5, 0x02, 0x05, 0x06, 0x02, 0xf9, 0x04, 0x08, 0xff, 0xc6, 0xeb,
  0xfc, 0xe7, 0xfe, 0xdd, 0x02, 0x00, 0xfc, 0xfe, 0x01, 0xfb, 0x03, 0xec,
  0xf4, 0x08, 0x02, 0x00, 0x02, 0xf5, 0x00, 0x08, 0x03, 0xf9, 0xea, 0x03,
  0xfd, 0x0d, 0xcb, 0xf8, 0xff, 0xbc, 0xf7, 0x02, 0xf9, 0xf4, 0x00, 0x08,
  0x01, 0x00, 0xfd, 0xfa, 0x03, 0xfd, 0xed, 0xea, 0xfa, 0xfa, 0xf3, 0x08,
  0xf9, 0xea, 0x04, 0x08, 0xfc, 0xf9, 0xf8, 0xf9, 0x05, 0xff, 0xfb, 0xff,
  0x0b, 0x0f, 0xef, 0x0b, 0x0c, 0x02, 0xfc, 0x09, 0x0b, 0xff, 0xef, 0xfa,
  0xf8, 0xfd, 0xf4, 0x00, 0x02, 0xf1, 0x01, 0xef, 0xfd, 0x00, 0x0d, 0x02,
  0xfe, 0xf4, 0x01, 0xff, 0xfd, 0xf3, 0xf7, 0x00, 0xf7, 0x07, 0x04, 0xda,
  0xff, 0x00, 0xed, 0x03, 0x01, 0x04, 0xf8, 0xfe, 0xfc, 0x1e, 0xfd, 0x07,
  0xef, 0x03, 0x02, 0xfc, 0xed, 0x0c, 0x05, 0xf8, 0xf6, 0xfb, 0x0f, 0xfd,
  0xee, 0x04, 0xfe, 0x03, 0x01, 0x02, 0xe9, 0xf4, 0x0b, 0xec, 0xf6, 0xd9,
  0x07, 0xef, 0xfc, 0x0b, 0x00, 0xfa, 0xf2, 0xf8, 0xd3, 0x09, 0xfd, 0x00,
  0x09, 0xfc, 0x03, 0xef, 0xfe, 0xf8, 0xf5, 0x0c, 0x00, 0xf5, 0xeb, 0xce,
  0xf9, 0xb6, 0xf5, 0x00, 0x04, 0xe7, 0x0a, 0x12, 0x08, 0x01, 0xfe, 0x03,
  0xfb, 0xfe, 0xec, 0xf1, 0xf6, 0xed, 0xf6, 0x15, 0xf8, 0xf0, 0x07, 0x13,
  0xf6, 0x06, 0xf7, 0x00, 0x04, 0x05, 0xf7, 0x09, 0xfa, 0xf9, 0x05, 0xfd,
  0xfa, 0x07, 0xfa, 0xfa, 0x03, 0xfb, 0x02, 0xfd, 0x01, 0x06, 0x02, 0xfc,
  0x02, 0xf8, 0x04, 0xfd, 0xfa, 0xfe, 0x06, 0x00, 0x02, 0x00, 0xfa, 0x00,
  0xfc, 0xff, 0xfa, 0xf9, 0xfa, 0x01, 0xfe, 0x00, 0x00, 0xfc, 0xfb, 0x05,
  0xfb, 0x05, 0xfb, 0x04, 0x02, 0xfe, 0xfa, 0x00, 0xfb, 0xfb, 0xff, 0xff,
  0xfe, 0x06, 0x02, 0x05, 0xfc, 0x05, 0x02, 0x05, 0x01, 0xff, 0xfb, 0xfc,
  0xfc, 0x02, 0x03, 0xff, 0x00, 0xfb, 0x01, 0xfd, 0xfe, 0xff, 0xfb, 0xfb,
  0x03, 0x06, 0x00, 0x06, 0x04, 0xfe, 0x06, 0xfd, 0xf8, 0xfe, 0xfe, 0xfa,
  0x06, 0xf9, 0x07, 0xfa, 0x04, 0x01, 0xff, 0xfb, 0x00, 0xfc, 0xff, 0xfe,
  0xff, 0x00, 0xfc, 0xf9, 0xfd, 0x05, 0xfc, 0xfe, 0xfe, 0xfc, 0xfa, 0x00,
  0xfa, 0x01, 0xfd, 0x01, 0x01, 0xfb, 0xfd, 0x00, 0xfc, 0x03, 0x04, 0x00,
  0x00, 0x00, 0x05, 0x03, 0xff, 0x00, 0x05, 0xff, 0xfa, 0x03, 0x00, 0xf6,
  0x00, 0x01, 0x03, 0xed, 0x00, 0x05, 0x04, 0x01, 0xf8, 0xfa, 0x03, 0xff,
  0xe2, 0xfc, 0x01, 0xfa, 0xf7, 0x05, 0xf7, 0xfa, 0x05, 0xfa, 0xfa, 0x02,
  0xfc, 0xff, 0xff, 0xf9, 0xf9, 0xfc, 0xfd, 0xf8, 0xfe, 0xfd, 0xf9, 0xe5,
  0xfc, 0xff, 0x03, 0x05, 0x09, 0x02, 0xf3, 0xfb, 0xf4, 0x05, 0x01, 0x03,
  0xf9, 0x01, 0xfe, 0xfb, 0xff, 0xe0, 0x0b, 0xff, 0x07, 0x03, 0xf7, 0xfd,
  0x06, 0xf9, 0x06, 0xfe, 0xfe, 0xf1, 0x04, 0xfe, 0xf8, 0x07, 0x01, 0x01,
  0xf8, 0xfb, 0x07, 0x06, 0xff, 0xfd, 0xfa, 0x03, 0xfb, 0xfa, 0x03, 0xfe,
  0xff, 0x02, 0x09, 0xff, 0x01, 0xee, 0xfa, 0xfc, 0xfd, 0xf8, 0xfb, 0xf8,
  0xf9, 0x00, 0x03, 0x03, 0xf9, 0x03, 0xfd, 0xfd, 0xfe, 0x01, 0xff, 0xf8,
  0x05, 0x01, 0xf6, 0xfc, 0x07, 0xfc, 0x05, 0xff, 0xe6, 0xfe, 0xfb, 0x01,
  0xfe, 0x05, 0xfb, 0x03, 0xf4, 0x01, 0x03, 0xfe, 0xff, 0xfd, 0x05, 0xff,
  0x04, 0xfd, 0xf8, 0xfe, 0xff, 0xfb, 0xfd, 0xfb, 0xf7, 0x07, 0xfc, 0x01,
  0xff, 0xfc, 0xfc, 0xf1, 0xe7, 0x06, 0xfe, 0xf6, 0xf9, 0xfd, 0x03, 0xe8,
  0xfa, 0x00, 0xf2, 0x01, 0x00, 0x04, 0xfe, 0xf8, 0xfd, 0x00, 0x01, 0xfc,
  0xf3, 0xfa, 0x00, 0xfd, 0x01, 0xfa, 0xfe, 0x00, 0xfd, 0x03, 0xfc, 0x04,
  0xf7, 0xf6, 0x01, 0xfc, 0x01, 0xee, 0xed, 0xfd, 0xfe, 0xf6, 0xf4, 0xd2,
  0xfc, 0x05, 0xf8, 0xff, 0xed, 0xeb, 0x03, 0x01, 0xea, 0x05, 0xfb, 0xfa,
  0x02, 0xf8, 0xff, 0x00, 0xf5, 0xfb, 0xf1, 0xff, 0xfd, 0xfc, 0xf0, 0x00,
  0xf9, 0xbe, 0xf6, 0xf0, 0x03, 0xf4, 0x04, 0x07, 0x03, 0x02, 0xff, 0x02,
  0x03, 0xfa, 0xe3, 0xf8, 0xfe, 0xf2, 0xf9, 0x03, 0xf8, 0xfc, 0xfd, 0x08,
  0xef, 0x00, 0x00, 0xfe, 0xf3, 0xfe, 0xdf, 0x00, 0xf9, 0xfc, 0xf9, 0x03,
  0xfd, 0xfa, 0x00, 0x03, 0x01, 0xfc, 0x01, 0xfb, 0x05, 0xfb, 0x01, 0x02,
  0x04, 0x00, 0xff, 0x04, 0xfc, 0xfd, 0xff, 0x03, 0xfe, 0x02, 0x01, 0xfd,
  0x00, 0x05, 0x04, 0x06, 0x05, 0x01, 0xfb, 0xfb, 0xff, 0xfe, 0xff, 0x02,
  0x02, 0x00, 0xfe, 0xfe, 0x02, 0xfe, 0xfe, 0x04, 0x02, 0xfe, 0x05, 0xfc,
  0x04, 0xfd, 0x00, 0xf9, 0x01, 0x00, 0xfa, 0xfb, 0xfe, 0x03, 0xfc, 0xfa,
  0x01, 0x01, 0x01, 0xff, 0x02, 0xfc, 0xfd, 0x01, 0xfb, 0xfc, 0x03, 0xfb,
  0xfd, 0xfc, 0xfd, 0x05, 0xfc, 0x06, 0xfd, 0x05, 0xfa, 0x04, 0xfe, 0xfa,
  0x01, 0x02, 0xfc, 0x01, 0x00, 0xfb, 0x04, 0x04, 0x01, 0xfb, 0x03, 0xfa,
  0xff, 0x01, 0x03, 0x01, 0x00, 0xfa, 0x00, 0xfc, 0xfb, 0x03, 0x04, 0xfb,
  0xfd, 0xff, 0x04, 0xfa, 0x02, 0x06, 0x01, 0xff, 0xff, 0x03, 0xfc, 0xfb,
  0xfd, 0x00, 0xf9, 0xfe, 0xf3, 0xfe, 0xfa, 0xef, 0x01, 0xff, 0x04, 0xfe,
  0x03, 0x02, 0x04, 0xf8, 0xf9, 0x01, 0xfd, 0xf0, 0xfd, 0x03, 0x01, 0xfb,
  0xfc, 0x04, 0x02, 0xfa, 0x01, 0xfa, 0xfb, 0xd7, 0xcf, 0x05, 0xfd, 0xf1,
  0xf9, 0x03, 0xfd, 0xf3, 0xfb, 0x09, 0xfd, 0xfb, 0xf3, 0xff, 0x01, 0xff,
  0x00, 0xf7, 0x0a, 0x08, 0x03, 0x08, 0xff, 0x01, 0x00, 0xf8, 0x01, 0x06,
  0x02, 0xe9, 0x02, 0x01, 0x05, 0x02, 0xff, 0x02, 0x03, 0x01, 0xfb, 0xf6,
  0xf8, 0xf1, 0xfc, 0xe6, 0x09, 0x05, 0xd9, 0xfb, 0x02, 0x02, 0x04, 0x09,
  0xf4, 0xf9, 0x00, 0xfa, 0xf7, 0x04, 0xf5, 0x00, 0x03, 0xfb, 0x00, 0x03,
  0xf3, 0x08, 0xff, 0xfd, 0x05, 0x02, 0xfa, 0x01, 0xfb, 0xfd, 0x03, 0xfd,
  0x07, 0xea, 0xfd, 0xfd, 0x02, 0xfa, 0xd5, 0x00, 0xfd, 0xf8, 0xf9, 0x01,
  0x01, 0xfe, 0x05, 0xfe, 0xee, 0xfa, 0x02, 0xff, 0xfb, 0x0a, 0xfa, 0x05,
  0x02, 0xff, 0xfb, 0xff, 0x07, 0xfa, 0xf8, 0xf5, 0xfd, 0xfa, 0xf7, 0xd5,
  0x01, 0x00, 0x02, 0x04, 0x06, 0xf4, 0xfc, 0xe3, 0xe9, 0x05, 0xfa, 0x04,
  0xfd, 0xfc, 0xee, 0xfb, 0xf5, 0x04, 0xf6, 0xfa, 0x02, 0x09, 0x02, 0x08,
  0xf8, 0x03, 0xfc, 0xe4, 0xfc, 0xfe, 0x00, 0x01, 0xf5, 0x05, 0xfc, 0xfd,
  0xfb, 0x03, 0xdd, 0xfc, 0x02, 0x02, 0xe3, 0xfb, 0xf7, 0x00, 0xfb, 0xf9,
  0x01, 0xf9, 0x00, 0x02, 0xfd, 0x09, 0xfa, 0x01, 0x00, 0x01, 0x01, 0xed,
  0xfe, 0x03, 0xff, 0xfc, 0xfe, 0xfa, 0x00, 0xf9, 0xf9, 0xfe, 0x00, 0x03,
  0x09, 0xfd, 0xff, 0x01, 0x03, 0x00, 0x02, 0xe8, 0xfc, 0xfa, 0xfd, 0xf4,
  0x06, 0xfe, 0xfc, 0xf9, 0x02, 0xf1, 0x07, 0xfa, 0xf8, 0xfd, 0x03, 0xfc,
  0x01, 0xfb, 0xf8, 0x04, 0xfd, 0x06, 0x0a, 0xff, 0xe3, 0x03, 0xe5, 0xff,
  0xff, 0x07, 0x00, 0x00, 0xfc, 0x02, 0x03, 0xd8, 0xfd, 0xfc, 0xff, 0xf9,
  0x03, 0x07, 0xfa, 0xfb, 0xfe, 0x00, 0x00, 0xfb, 0x05, 0x05, 0xf8, 0x04,
  0x02, 0x07, 0xfe, 0x00, 0x01, 0x00, 0x05, 0xfd, 0x05, 0xfe, 0xff, 0x08,
  0x05, 0xfa, 0xf7, 0xff, 0x02, 0x02, 0x05, 0x00, 0xf9, 0x04, 0xfd, 0xff,
  0xfd, 0xfb, 0x01, 0xff, 0xff, 0xf5, 0xfb, 0x00, 0x04, 0xfc, 0xff, 0x07,
  0x03, 0xf7, 0xfb, 0xfb, 0x02, 0x02, 0x02, 0xfe, 0xfe, 0x03, 0x04, 0x01,
  0xf9, 0x02, 0x0e, 0x04, 0x00, 0xf7, 0xfe, 0xf9, 0x03, 0x04, 0x07, 0xf9,
  0xfd, 0xfe, 0xf9, 0x07, 0xfa, 0x00, 0x01, 0xfb, 0x04, 0xfa, 0x01, 0xf9,
  0x01, 0xfc, 0x07, 0x01, 0xf9, 0xfb, 0x0d, 0xf6, 0x03, 0xff, 0x07, 0xfc,
  0x06, 0x02, 0x00, 0x02, 0xfd, 0x06, 0xfa, 0x05, 0xf9, 0x01, 0xff, 0x0a,
  0xf5, 0x08, 0x02, 0xfb, 0xfd, 0x07, 0x01, 0x01, 0x05, 0xfe, 0xf9, 0x03,
  0xf9, 0x02, 0xfe, 0x00, 0xfe, 0xff, 0x05, 0xf6, 0xfc, 0xf5, 0x04, 0xf5,
  0xf8, 0x03, 0xfc, 0x06, 0x05, 0x05, 0xfa, 0x0a, 0xff, 0x03, 0xff, 0xff,
  0x02, 0xfd, 0xf7, 0xf7, 0xff, 0x06, 0xfa, 0xfc, 0x00, 0xfb, 0x0e, 0x01,
  0x06, 0x03, 0xf6, 0x03, 0x02, 0x01, 0x05, 0x02, 0xf6, 0x01, 0x06, 0x03,
  0x04, 0xfc, 0xfb, 0xfe, 0x09, 0xfd, 0x05, 0xfe, 0xf9, 0x03, 0x03, 0xfc,
  0x01, 0xf6, 0x02, 0xff, 0x09, 0xfc, 0xff, 0xf7, 0x00, 0x05, 0x06, 0xf1,
  0xfc, 0xfc, 0xff, 0xf2, 0xf8, 0x00, 0x01, 0xf9, 0x04, 0xfc, 0x06, 0x04,
  0xf8, 0xfe, 0x01, 0xfc, 0xfb, 0x07, 0x00, 0x02, 0x06, 0xff, 0xff, 0xf9,
  0x02, 0x01, 0x04, 0xff, 0xf8, 0xfb, 0xfe, 0x03, 0xfd, 0x06, 0xf9, 0xfb,
  0xf8, 0x09, 0xfe, 0x01, 0xf7, 0x06, 0xfc, 0xff, 0x00, 0xfd, 0x01, 0xff,
  0x00, 0x03, 0x02, 0xfd, 0x05, 0xfa, 0x05, 0x05, 0xf8, 0xfa, 0x05, 0xf9,
  0x01, 0xf9, 0x02, 0xfc, 0x01, 0xfc, 0x03, 0xfc, 0xfc, 0x01, 0xff, 0xfa,
  0x04, 0x01, 0xff, 0xfe, 0xff, 0x04, 0x01, 0xfc, 0xfd, 0x00, 0x02, 0xfa,
  0x01, 0xfc, 0xfc, 0xfc, 0x02, 0xfd, 0x06, 0xfa, 0xff, 0xfc, 0xfe, 0xff,
  0xfc, 0xff, 0x07, 0x07, 0xf9, 0x00, 0xfe, 0x00, 0x01, 0x05, 0x04, 0x04,
  0x02, 0xfb, 0x00, 0xfe, 0x02, 0xfa, 0xfa, 0xfa, 0x07, 0xfa, 0xfb, 0xfb,
  0xfd, 0x01, 0xfe, 0x04, 0x00, 0xfa, 0x05, 0xfe, 0xfc, 0xfd, 0x00, 0x05,
  0x00, 0x03, 0xfc, 0xfc, 0x05, 0x04, 0x02, 0xfb, 0xff, 0xfe, 0x03, 0xfa,
  0x00, 0xfa, 0x06, 0xfc, 0x06, 0xfe, 0xfc, 0xfc, 0x00, 0x04, 0xfd, 0x04,
  0x00, 0xff, 0xfe, 0xfd, 0xfc, 0xfb, 0xfe, 0xfb, 0xff, 0xfa, 0x03, 0x04,
  0x04, 0xff, 0xfc, 0x03, 0x06, 0xfa, 0xfc, 0x05, 0x04, 0xfe, 0x00, 0x01,
  0x00, 0x06, 0xfd, 0xf9, 0xff, 0x06, 0xfb, 0x03, 0xfa, 0xf5, 0x01, 0xfe,
  0x06, 0xfa, 0x05, 0x00, 0xff, 0x06, 0xfa, 0xfb, 0xfa, 0x03, 0xfe, 0x01,
  0xfd, 0x00, 0xfa, 0x02, 0x05, 0xf7, 0xf8, 0xfd, 0xf9, 0xfc, 0xf9, 0x00,
  0xff, 0x03, 0x08, 0xff, 0x02, 0x04, 0xfa, 0xff, 0x05, 0x01, 0x03, 0x07,
  0x00, 0xff, 0xfe, 0xff, 0x05, 0xfb, 0xfc, 0xfa, 0x03, 0x02, 0x04, 0x03,
  0xf9, 0xff, 0xfd, 0xff, 0x00, 0xfd, 0x02, 0x04, 0x07, 0x01, 0xfe, 0x03,
  0xfd, 0x00, 0x05, 0xf9, 0xf8, 0x04, 0x01, 0x0d, 0xfa, 0x02, 0x05, 0xfb,
  0xfe, 0xfd, 0xf9, 0x06, 0xfd, 0xfa, 0xf8, 0xfe, 0xfe, 0x00, 0x00, 0xfe,
  0xfb, 0xff, 0xfb, 0x00, 0x03, 0xfd, 0x02, 0x07, 0x00, 0x0c, 0x02, 0x04,
  0xff, 0x08, 0xf5, 0xf3, 0xfe, 0x02, 0x01, 0x01, 0xfb, 0x00, 0xfb, 0xff,
  0x05, 0xfc, 0xf9, 0xff, 0x05, 0xfc, 0x02, 0xf4, 0xf9, 0xff, 0xf9, 0xf9,
  0x04, 0x03, 0x05, 0x05, 0x07, 0x03, 0x08, 0x06, 0x09, 0xfe, 0xf2, 0xfa,
  0x04, 0xfe, 0xf4, 0xea, 0xfa, 0xfd, 0x05, 0x0a, 0xee, 0xf7, 0x0f, 0x13,
  0xb1, 0x04, 0xf7, 0x0f, 0x05, 0x04, 0xf5, 0x02, 0x06, 0xb7, 0x01, 0x0e,
  0x04, 0x03, 0xf8, 0xf9, 0x04, 0xfc, 0xfc, 0x04, 0x05, 0xf9, 0x04, 0xd7,
  0xf9, 0xe1, 0xec, 0x03, 0x10, 0xed, 0xbf, 0xe0, 0xa5, 0x0b, 0x07, 0xff,
  0x05, 0xfe, 0xfd, 0xef, 0x01, 0xb4, 0xd4, 0xf7, 0x0d, 0x04, 0xf5, 0x02,
  0x02, 0xfe, 0x02, 0xc6, 0x00, 0xf7, 0x0a, 0xfe, 0x01, 0x14, 0xfa, 0xfd,
  0xf4, 0x03, 0xfb, 0xdd, 0x00, 0x05, 0x07, 0xf9, 0xfb, 0xe0, 0x0f, 0xff,
  0x0f, 0xf4, 0xb5, 0xb6, 0xfc, 0x02, 0x05, 0xfb, 0xfd, 0xfe, 0xcc, 0xe2,
  0xf3, 0x0c, 0xf4, 0x06, 0xf3, 0x02, 0x04, 0x04, 0x00, 0xfa, 0xff, 0xfe,
  0x02, 0x02, 0xfc, 0xf2, 0x0c, 0xfe, 0xfe, 0x08, 0xdc, 0xf9, 0x03, 0xf7,
  0x06, 0x0d, 0xf7, 0x05, 0x03, 0x0d, 0x06, 0x0c, 0x16, 0xfc, 0xf7, 0xf8,
  0x00, 0xfb, 0xf3, 0xf3, 0x08, 0xf2, 0x08, 0xeb, 0xfa, 0x05, 0x10, 0xf8,
  0x05, 0xf3, 0x02, 0xfd, 0xee, 0x01, 0xe0, 0xfd, 0xf5, 0x08, 0x06, 0xdb,
  0xfe, 0x07, 0xde, 0xfb, 0x01, 0x0a, 0xfc, 0x00, 0xfa, 0x1f, 0x03, 0x01,
  0xec, 0xff, 0x02, 0xfe, 0xfd, 0x06, 0x04, 0x02, 0xed, 0x01, 0x08, 0x02,
  0xef, 0xff, 0xff, 0xff, 0x06, 0xfc, 0xe5, 0xf9, 0x0d, 0xf6, 0xf4, 0xe2,
  0x0c, 0xf8, 0xfb, 0x05, 0xf3, 0xe9, 0xf6, 0xf3, 0xf2, 0x0d, 0x04, 0xfe,
  0x0a, 0xe5, 0x01, 0xfa, 0x04, 0xff, 0xf1, 0x0c, 0x00, 0xff, 0xee, 0xf4,
  0x01, 0xa8, 0xf0, 0xf7, 0x03, 0xd7, 0x0e, 0x17, 0xfd, 0x01, 0xfc, 0xfb,
  0x0a, 0x04, 0xe7, 0xf2, 0xec, 0xf5, 0xf2, 0x14, 0xfe, 0xf6, 0x08, 0x14,
  0xf7, 0x0e, 0xf7, 0x00, 0x05, 0x06, 0xf4, 0x03, 0x34, 0x07, 0xdb, 0xed,
  0xf7, 0x0a, 0x0d, 0xf9, 0x07, 0x02, 0x17, 0x01, 0xfb, 0xf5, 0xf5, 0xfd,
  0x03, 0x0e, 0x08, 0x00, 0x04, 0x01, 0x00, 0x4b, 0x04, 0xb6, 0xf8, 0x1a,
  0xbf, 0x00, 0xf6, 0x09, 0xf9, 0x03, 0xff, 0xf5, 0x01, 0x01, 0xf6, 0xea,
  0xef, 0x04, 0xf6, 0x04, 0xfe, 0x02, 0x09, 0xfc, 0x00, 0x09, 0x02, 0x1a,
  0x06, 0xeb, 0xf2, 0x07, 0xf6, 0x01, 0x03, 0x0e, 0x01, 0x00, 0x0c, 0x0a,
  0xf2, 0xfb, 0xd6, 0xf5, 0x06, 0xe7, 0xf3, 0xb2, 0x07, 0x07, 0xcb, 0xdf,
  0xfe, 0x07, 0x08, 0x01, 0xb9, 0x04, 0x06, 0x15, 0x06, 0xf6, 0xed, 0x08,
  0x01, 0x05, 0xd1, 0x09, 0xf7, 0x06, 0xc5, 0xfd, 0xfa, 0x03, 0x01, 0xfb,
  0x05, 0x01, 0x01, 0x01, 0x0e, 0xf9, 0x03, 0x00, 0x00, 0xfa, 0xb5, 0xbd,
  0xf9, 0xf9, 0xf5, 0x09, 0xe7, 0xb8, 0x00, 0x04, 0x0a, 0xeb, 0xf7, 0xf0,
  0x01, 0x0c, 0x00, 0x00, 0x0d, 0x0b, 0xee, 0x0b, 0x03, 0x08, 0x00, 0x0f,
  0x14, 0x03, 0xf9, 0xf6, 0xfd, 0xfd, 0xfb, 0xfb, 0xfc, 0xf2, 0x0a, 0xf4,
  0xfd, 0x0b, 0x0b, 0xfa, 0x06, 0xef, 0x08, 0xfb, 0xf2, 0x01, 0xeb, 0x06,
  0xf9, 0x0e, 0x08, 0xf7, 0xf9, 0x05, 0xee, 0x00, 0x04, 0x08, 0x04, 0x04,
  0xfd, 0x08, 0x01, 0x10, 0xf9, 0x01, 0xf5, 0xf6, 0x01, 0x06, 0xff, 0x01,
  0xef, 0xfc, 0x03, 0xff, 0xfc, 0xfd, 0xf8, 0xfd, 0x07, 0x04, 0xd0, 0xf2,
  0x08, 0xee, 0xf6, 0xce, 0x0b, 0xef, 0xf8, 0x0c, 0xfb, 0xfb, 0xea, 0xf8,
  0xde, 0x09, 0xff, 0xf6, 0x07, 0xf9, 0x0c, 0xf6, 0x08, 0xfa, 0xf7, 0x09,
  0x03, 0x00, 0xdd, 0xf1, 0x03, 0xc7, 0xef, 0xf4, 0x03, 0xe8, 0x0b, 0x0d,
  0x00, 0xfa, 0xf5, 0x03, 0xfe, 0x02, 0xe5, 0xef, 0xe8, 0xee, 0xf2, 0x14,
  0xf6, 0xee, 0x02, 0x13, 0xfb, 0x00, 0xfb, 0x00, 0x00, 0x09, 0xff, 0x08,
  0x01, 0x05, 0xf6, 0x05, 0x08, 0xfd, 0x02, 0x01, 0x05, 0xfe, 0xd2, 0xf8,
  0xf1, 0xd2, 0x00, 0xf9, 0xfe, 0xfc, 0x06, 0xea, 0xfa, 0xfe, 0x03, 0x02,
  0x08, 0xf4, 0x07, 0xfb, 0xf8, 0x07, 0xc7, 0xfb, 0xca, 0x07, 0xf7, 0x04,
  0xd6, 0x08, 0xc5, 0xfe, 0x0a, 0xfd, 0xcd, 0xfb, 0xfb, 0x04, 0x00, 0x04,
  0xfd, 0x02, 0x06, 0x00, 0x0a, 0x00, 0xf8, 0xfd, 0xdc, 0xff, 0x08, 0x08,
  0xfe, 0x00, 0xfc, 0x08, 0x07, 0x0c, 0xd2, 0xfb, 0x08, 0xff, 0x02, 0xf9,
  0x01, 0xf9, 0xf8, 0x07, 0xfd, 0xf6, 0xc8, 0xfc, 0xf8, 0x03, 0xf7, 0xfe,
  0x03, 0xfc, 0xff, 0xf6, 0xfe, 0x00, 0xf5, 0xff, 0xfb, 0x04, 0xde, 0x00,
  0xed, 0xce, 0xf2, 0xf6, 0xf2, 0xee, 0x07, 0x0c, 0x0a, 0xfa, 0xf6, 0x06,
  0x0a, 0xf9, 0xf5, 0xee, 0xdb, 0xf6, 0xf9, 0x01, 0xf9, 0xf0, 0x08, 0x08,
  0xf8, 0x0a, 0xe9, 0xfa, 0xfc, 0x03, 0x04, 0x03, 0xfe, 0xfa, 0x07, 0xfd,
  0x00, 0xf9, 0xf0, 0xef, 0xed, 0xfd, 0xfd, 0xef, 0xfd, 0x03, 0xfb, 0x0d,
  0xc2, 0xfc, 0xfe, 0x18, 0xe1, 0xfd, 0xd2, 0x0a, 0xf3, 0x08, 0xf0, 0x04,
  0x0e, 0xf9, 0xfc, 0x07, 0xfd, 0xfd, 0xe8, 0xfe, 0xf8, 0xe5, 0xfb, 0x02,
  0x01, 0xfa, 0xfb, 0xe9, 0x02, 0xb0, 0xbc, 0x05, 0x0e, 0xb6, 0xf7, 0xf6,
  0xf7, 0x00, 0x00, 0xfc, 0x05, 0xfb, 0x03, 0xfd, 0x03, 0xf8, 0xf6, 0xec,
  0xfe, 0x03, 0xe7, 0x06, 0xff, 0x03, 0x02, 0x04, 0xee, 0xfe, 0x09, 0xfd,
  0x06, 0x07, 0xfe, 0x08, 0x43, 0x02, 0xfc, 0x11, 0x04, 0x06, 0x02, 0xfc,
  0xfd, 0xf6, 0x0c, 0xff, 0x0c, 0xcb, 0x07, 0xff, 0x00, 0x23, 0x03, 0xfb,
  0xfb, 0xfa, 0x00, 0xbc, 0xf7, 0x0b, 0x00, 0x04, 0xb8, 0x01, 0x0f, 0x0c,
  0x01, 0x00, 0xfd, 0xef, 0x01, 0x10, 0xf7, 0xdc, 0x03, 0xf7, 0x04, 0x08,
  0xfd, 0xec, 0xfb, 0xf4, 0xf8, 0x01, 0x06, 0xfe, 0xfd, 0x00, 0x07, 0xfd,
  0xff, 0xff, 0xfc, 0xfe, 0xf9, 0xfc, 0xfe, 0xfb, 0xff, 0xfe, 0x03, 0x06,
  0x01, 0xfd, 0xfa, 0x01, 0xfa, 0xfe, 0xfe, 0xfb, 0x03, 0xfb, 0xf9, 0x04,
  0xf8, 0x03, 0x02, 0x03, 0x03, 0x04, 0xfe, 0xfe, 0xf9, 0x04, 0x05, 0x01,
  0xfd, 0x01, 0xff, 0x01, 0xfc, 0xfe, 0x02, 0x03, 0xfc, 0xfc, 0x00, 0xf8,
  0x02, 0xfc, 0xfe, 0x06, 0x01, 0xff, 0x00, 0x00, 0xfa, 0xf9, 0x04, 0x04,
  0xfd, 0x05, 0xfc, 0xfa, 0x00, 0xfc, 0xfb, 0x02, 0xfc, 0xf9, 0xf9, 0xfd,
  0x02, 0x03, 0xfa, 0xfc, 0x04, 0xfc, 0xfb, 0x03, 0x00, 0x00, 0xfa, 0x02,
  0x00, 0xf8, 0x05, 0xfa, 0x04, 0x02, 0xfe, 0xfa, 0x00, 0xff, 0x01, 0x02,
  0x04, 0x03, 0xfc, 0xfb, 0xfd, 0x01, 0x00, 0x00, 0xfd, 0xfd, 0xff, 0xfd,
  0xfb, 0xfe, 0xff, 0xfd, 0x02, 0x05, 0xfb, 0xfe, 0x00, 0x02, 0xfc, 0x03,
  0x00, 0x01, 0xfd, 0x04, 0x04, 0xfb, 0x02, 0xfa, 0xfa, 0xfa, 0xfc, 0x05,
  0xff, 0xfd, 0xfe, 0xfc, 0xfc, 0xfe, 0xfc, 0xfd, 0xfc, 0xfd, 0x00, 0xfd,
  0x01, 0xff, 0x05, 0xfe, 0x01, 0xfc, 0xfd, 0x04, 0xfc, 0x05, 0xfd, 0xfe,
  0x04, 0xff, 0xff, 0xfb, 0x02, 0xfa, 0x03, 0x07, 0x02, 0x04, 0x00, 0xfb,
  0xfa, 0x04, 0x06, 0x00, 0x05, 0x00, 0x01, 0xfe, 0xfd, 0x00, 0xff, 0xfa,
  0x04, 0x02, 0xfd, 0xfe, 0xff, 0x03, 0xfe, 0x04, 0x01, 0xfc, 0x06, 0x02,
  0xff, 0x00, 0x04, 0xfe, 0x01, 0xff, 0xfc, 0x04, 0xfc, 0xfb, 0xfe, 0x07,
  0xfa, 0x06, 0xfb, 0xfe, 0xfc, 0xfc, 0x03, 0x06, 0xfa, 0x04, 0x02, 0xfe,
  0x05, 0x06, 0xfe, 0xfb, 0xfe, 0xff, 0xff, 0xfa, 0x00, 0xff, 0x03, 0xfa,
  0x02, 0x00, 0x02, 0xfb, 0xfe, 0xff, 0xfa, 0xfe, 0xfb, 0xfd, 0xfa, 0xfa,
  0xfd, 0x03, 0xfa, 0x01, 0xfd, 0xfc, 0xfa, 0xfc, 0x02, 0xfb, 0x0e, 0xfe,
  0x06, 0xde, 0x07, 0x02, 0xff, 0xfe, 0xfc, 0xfb, 0x01, 0x03, 0xd7, 0x0f,
  0xfb, 0xf9, 0xff, 0x0c, 0x06, 0xe0, 0xd4, 0xf7, 0xc0, 0x08, 0x03, 0xee,
  0x01, 0xf0, 0x03, 0x00, 0x02, 0x03, 0xdb, 0xfe, 0xfe, 0xf5, 0xfb, 0x04,
  0xf6, 0xb8, 0xfa, 0xf7, 0xf4, 0xd5, 0x01, 0xfa, 0x0c, 0x02, 0xff, 0x0d,
  0xf2, 0xfa, 0x08, 0x02, 0x02, 0xe2, 0x02, 0x01, 0x10, 0xfb, 0x0b, 0xed,
  0x07, 0x06, 0x13, 0xde, 0xfe, 0xcd, 0x0c, 0xff, 0xd1, 0x04, 0xf0, 0x03,
  0x9c, 0xfa, 0xfe, 0x1d, 0xf8, 0x03, 0xfb, 0x0b, 0xfa, 0x00, 0x07, 0xfc,
  0x01, 0xff, 0x09, 0x04, 0x0b, 0xfd, 0x16, 0xf7, 0xff, 0x08, 0x9b, 0x93,
  0x04, 0x00, 0xe1, 0xef, 0x05, 0x0c, 0xff, 0x06, 0x00, 0xfc, 0xd8, 0x0d,
  0xfa, 0xa2, 0x9b, 0xfa, 0x03, 0x01, 0xfd, 0xfb, 0xef, 0x01, 0xff, 0x00,
  0xfe, 0xf4, 0x06, 0x00, 0x06, 0x0d, 0xf2, 0x03, 0x14, 0x04, 0xf1, 0xfd,
  0x16, 0xf9, 0xfc, 0xf7, 0xfc, 0x04, 0xfe, 0xf1, 0x01, 0xec, 0x04, 0xe5,
  0xfb, 0x0a, 0x03, 0xf5, 0x00, 0xf0, 0xfc, 0xfe, 0xf5, 0xfd, 0xf6, 0x03,
  0xfa, 0x07, 0x09, 0xf8, 0x01, 0x01, 0xe3, 0xef, 0x07, 0x0e, 0x01, 0x00,
  0xfb, 0x0f, 0xfd, 0x0a, 0xee, 0x02, 0xfc, 0xf6, 0xfc, 0x09, 0xec, 0x06,
  0xf7, 0x01, 0x0b, 0xfc, 0xf5, 0xfe, 0xed, 0x06, 0x0c, 0xfc, 0xe9, 0xfc,
  0x0a, 0xfd, 0xdf, 0xe5, 0xfd, 0xfc, 0xf4, 0x08, 0xf7, 0xf5, 0xf9, 0xe6,
  0xfa, 0x04, 0x09, 0xe7, 0x03, 0xea, 0x0d, 0xfd, 0xfe, 0x01, 0xf4, 0x00,
  0xff, 0x02, 0xfb, 0xf2, 0x00, 0xd5, 0xf3, 0x02, 0x08, 0xe7, 0x0b, 0x09,
  0xf6, 0x0f, 0xfc, 0x02, 0x04, 0x00, 0xf5, 0xf2, 0xf7, 0xff, 0xf8, 0x16,
  0xfc, 0xf1, 0xf8, 0x10, 0xf4, 0xff, 0xf6, 0xe4, 0xfc, 0x02, 0xfc, 0xf7,
  0x02, 0x00, 0x00, 0x03, 0xff, 0xfa, 0x05, 0xf4, 0xf1, 0x04, 0x06, 0xff,
  0xfe, 0xfe, 0x05, 0xfc, 0xfe, 0x08, 0xfa, 0x08, 0x00, 0x00, 0xf9, 0x03,
  0xf9, 0x02, 0xff, 0xfd, 0x05, 0xfd, 0x04, 0x03, 0xfc, 0x05, 0xfc, 0x0e,
  0x03, 0xfe, 0x06, 0x04, 0xfc, 0xfc, 0x07, 0xfd, 0xfa, 0xfb, 0x03, 0xfa,
  0x08, 0xf6, 0x03, 0x04, 0xfd, 0x04, 0x03, 0xfe, 0xfc, 0xfc, 0xfe, 0xfe,
  0x01, 0xff, 0x00, 0xfe, 0x01, 0x08, 0xfa, 0x04, 0x07, 0x04, 0x05, 0xff,
  0xf9, 0x04, 0x05, 0xfb, 0x01, 0x04, 0x03, 0x01, 0x03, 0xff, 0x03, 0x03,
  0x00, 0x0a, 0x06, 0x05, 0x07, 0xfc, 0xfd, 0xfa, 0x02, 0xfd, 0xf9, 0x01,
  0x00, 0xfd, 0xfe, 0x04, 0x05, 0x0a, 0xfd, 0xfa, 0xfd, 0x03, 0x07, 0x06,
  0xf9, 0x04, 0xfd, 0x05, 0xfd, 0x01, 0x02, 0xf4, 0xfc, 0xf9, 0xf9, 0xfd,
  0xf9, 0xfb, 0x03, 0x02, 0x00, 0xf8, 0x00, 0xf6, 0x03, 0xe5, 0xf7, 0xfe,
  0xf9, 0x01, 0xf8, 0xf9, 0xfb, 0x01, 0xf5, 0xf4, 0xe9, 0xfd, 0xff, 0xfd,
  0xfe, 0xeb, 0xf2, 0xf0, 0xfe, 0xf2, 0xfe, 0xfa, 0xfc, 0xf8, 0x01, 0xfb,
  0xfb, 0xfc, 0x06, 0x03, 0x03, 0xfe, 0x05, 0x01, 0x01, 0xfb, 0x06, 0xfe,
  0x03, 0xf0, 0xfa, 0xf3, 0xdd, 0xfc, 0x09, 0xfa, 0xf6, 0x05, 0xfb, 0xf6,
  0x00, 0x06, 0xfe, 0x06, 0xff, 0x00, 0xfd, 0x02, 0x06, 0x02, 0xfc, 0xfb,
  0x00, 0xff, 0xfb, 0xfe, 0xfd, 0x03, 0x00, 0xde, 0xfe, 0xeb, 0x00, 0x05,
  0x01, 0x00, 0x04, 0xf5, 0x08, 0xfe, 0xe4, 0xfe, 0x03, 0x04, 0x03, 0xce,
  0x04, 0xfb, 0xfa, 0xf8, 0xfd, 0xff, 0xfd, 0xfb, 0xe8, 0xfe, 0xf5, 0xf9,
  0xd5, 0x03, 0xf0, 0x00, 0x02, 0x01, 0xd7, 0xfd, 0x07, 0x03, 0x05, 0xfc,
  0xf0, 0x03, 0xfc, 0xfa, 0xfd, 0xfc, 0xfe, 0x01, 0xff, 0x06, 0xd8, 0xf9,
  0xfc, 0x07, 0x04, 0xfa, 0x04, 0xfc, 0xee, 0xff, 0xfa, 0x05, 0x01, 0xfe,
  0xff, 0xfd, 0xff, 0x04, 0xfc, 0xff, 0xfc, 0x02, 0x00, 0x01, 0xfe, 0xfa,
  0xfa, 0x05, 0xfb, 0xfb, 0xfb, 0xf0, 0x01, 0xfc, 0xfc, 0x04, 0x00, 0x06,
  0xfb, 0x05, 0x00, 0xf9, 0x04, 0xfa, 0x06, 0xfc, 0x00, 0x05, 0x03, 0xf9,
  0x05, 0xf9, 0x03, 0xff, 0xf1, 0x03, 0xfe, 0xfc, 0x00, 0xfa, 0xfd, 0x04,
  0xfa, 0x01, 0xff, 0xfc, 0xfe, 0xfa, 0xfe, 0x00, 0xfd, 0xfe, 0xf8, 0x02,
  0x05, 0xfd, 0xf3, 0xfb, 0xff, 0xfc, 0xfd, 0x05, 0x05, 0xf5, 0xfe, 0x01,
  0x00, 0x03, 0xfc, 0xf6, 0xfc, 0xf7, 0x02, 0x02, 0x07, 0xfd, 0xf6, 0x01,
  0xfa, 0x00, 0xf5, 0xfe, 0xfd, 0xfb, 0x04, 0xfb, 0x05, 0x05, 0xfa, 0x04,
  0xfe, 0x04, 0xf8, 0x03, 0xfa, 0xfe, 0xfe, 0xf4, 0x02, 0x01, 0xfc, 0xfe,
  0xf6, 0xf8, 0x04, 0x02, 0xfb, 0x03, 0xfb, 0xf6, 0xf9, 0x02, 0x06, 0x00,
  0x09, 0xf9, 0xfd, 0xff, 0x09, 0xe8, 0xfe, 0x03, 0x06, 0x06, 0x02, 0x01,
  0xc9, 0xe7, 0xfa, 0xf3, 0xf9, 0xff, 0xfc, 0xe4, 0x06, 0xf5, 0xf7, 0xc1,
  0xff, 0x02, 0x03, 0x9d, 0xfd, 0x01, 0x01, 0xd3, 0xe3, 0x06, 0xfb, 0xec,
  0xc8, 0xfb, 0xfe, 0x04, 0xf7, 0x00, 0xe3, 0xfe, 0xfd, 0x00, 0xfc, 0xfc,
  0x12, 0x04, 0x02, 0xff, 0x07, 0x00, 0x01, 0xf7, 0xfc, 0xd8, 0x01, 0x05,
  0x13, 0x07, 0xf7, 0xf9, 0x01, 0x06, 0xfe, 0xfd, 0x0e, 0x02, 0x09, 0x04,
  0xde, 0x04, 0xd8, 0xf8, 0xf6, 0xf4, 0xf3, 0x10, 0xfe, 0x0e, 0xf4, 0x02,
  0x0a, 0xf6, 0x00, 0x05, 0xf9, 0xb2, 0xfd, 0x02, 0xf3, 0x03, 0xfc, 0xfe,
  0xdc, 0xf5, 0xed, 0xf6, 0xde, 0xfe, 0x00, 0xfd, 0x07, 0xf9, 0x01, 0xff,
  0xfd, 0x04, 0x02, 0xfb, 0xfe, 0xf7, 0xee, 0xff, 0xfb, 0x03, 0x01, 0x05,
  0xba, 0xfe, 0xfc, 0x00, 0xfd, 0xfb, 0xf5, 0x07, 0xf9, 0x00, 0xff, 0x02,
  0x02, 0xfb, 0xfe, 0xf8, 0xfb, 0x03, 0x00, 0xfc, 0xf5, 0xee, 0x03, 0xff,
  0xfc, 0x04, 0xef, 0x0a, 0xff, 0xff, 0xf9, 0x05, 0xfc, 0x05, 0xfd, 0x04,
  0x02, 0xf5, 0xfd, 0x02, 0xf3, 0x00, 0xf8, 0xff, 0xf9, 0xfc, 0x02, 0xfb,
  0x01, 0xfd, 0xfa, 0x05, 0x07, 0xf5, 0xff, 0x00, 0x00, 0xf4, 0xfc, 0x06,
  0xf2, 0xfa, 0xfa, 0xee, 0xfc, 0x01, 0x02, 0x05, 0x03, 0xf9, 0x04, 0x03,
  0x05, 0xfa, 0x08, 0x01, 0x07, 0xfc, 0xfe, 0xf8, 0x01, 0x04, 0x06, 0xfa,
  0xff, 0xfe, 0x04, 0xff, 0x0a, 0x03, 0xef, 0xff, 0x05, 0xfe, 0x04, 0xf7,
  0xe7, 0xf7, 0x01, 0x01, 0xfb, 0xf4, 0x03, 0xf9, 0xf2, 0x02, 0x02, 0x06,
  0xfa, 0xf8, 0xfe, 0xff, 0x04, 0x08, 0xfd, 0x01, 0xfc, 0x05, 0x04, 0x00,
  0x01, 0x03, 0x04, 0x03, 0x03, 0xf9, 0xfb, 0xf7, 0x07, 0x00, 0xfe, 0xfd,
  0xf9, 0x04, 0xfa, 0x06, 0xff, 0x05, 0xfb, 0xfc, 0x03, 0xd5, 0xcb, 0xef,
  0xf0, 0xff, 0xfa, 0xff, 0x06, 0x11, 0x02, 0xfa, 0xfe, 0xff, 0xfb, 0x01,
  0xfd, 0xfe, 0xfc, 0xfe, 0xca, 0xff, 0xf1, 0xf8, 0x00, 0xf6, 0x20, 0xfb,
  0x13, 0x0c, 0xee, 0x1d, 0x06, 0xf1, 0x17, 0xfd, 0xfd, 0xfd, 0x08, 0x01,
  0x01, 0xf5, 0xd1, 0x07, 0x08, 0xe1, 0xff, 0x90, 0xd6, 0xf9, 0xfc, 0x01,
  0x0c, 0xc8, 0x05, 0xe3, 0x02, 0x01, 0xf1, 0xe5, 0xfb, 0x0f, 0xfa, 0x01,
  0x09, 0xf6, 0x02, 0x00, 0xe2, 0xfe, 0xfa, 0xfb, 0x06, 0xf9, 0x02, 0x05,
  0xff, 0x05, 0xfd, 0xc1, 0x0d, 0x10, 0xfa, 0x04, 0x11, 0x03, 0xf9, 0xca,
  0xfb, 0xe8, 0x03, 0xf2, 0x03, 0x05, 0x11, 0x08, 0x01, 0x1e, 0x00, 0xf6,
  0xda, 0xff, 0x07, 0xfa, 0xfa, 0xfa, 0xfe, 0x05, 0x0f, 0x0a, 0x0c, 0xeb,
  0x03, 0x00, 0xeb, 0xf0, 0xfd, 0x00, 0x04, 0x02, 0x00, 0xe8, 0x0d, 0xf6,
  0xff, 0x04, 0xfa, 0x04, 0x00, 0xfc, 0x00, 0x01, 0xfc, 0x02, 0xfa, 0x04,
  0xfb, 0x03, 0x04, 0xfc, 0xfe, 0xfa, 0xfb, 0x07, 0x00, 0x02, 0xfe, 0x01,
  0x02, 0x00, 0xfd, 0x06, 0x01, 0x04, 0x03, 0x04, 0xfb, 0xfc, 0x04, 0xff,
  0xfa, 0x00, 0x05, 0xfc, 0xfc, 0xfe, 0x01, 0xfa, 0xfe, 0x04, 0xfa, 0xfc,
  0x05, 0x01, 0x04, 0x03, 0x00, 0xfe, 0x00, 0xfa, 0xfb, 0xfd, 0x02, 0x01,
  0xfb, 0xfa, 0x04, 0x02, 0x04, 0x06, 0x00, 0xfc, 0xff, 0xf9, 0x04, 0xfa,
  0x03, 0xfd, 0x01, 0x03, 0x02, 0x02, 0xfa, 0xfc, 0xf9, 0xff, 0x00, 0x04,
  0xfd, 0x02, 0xfb, 0x05, 0x01, 0xfe, 0xfd, 0x00, 0xff, 0x05, 0x04, 0xfa,
  0x03, 0x02, 0x01, 0xf9, 0x03, 0xfe, 0x04, 0xfd, 0xfd, 0x01, 0x01, 0xff,
  0x00, 0x00, 0x00, 0x02, 0x04, 0x06, 0xfd, 0xfe, 0xf9, 0x03, 0x02, 0x06,
  0x06, 0xff, 0xff, 0xfb, 0xfa, 0xfc, 0xf9, 0x06, 0xf9, 0xfe, 0xf4, 0xfd,
  0xff, 0x01, 0x03, 0xfd, 0xfe, 0x01, 0xfa, 0xe9, 0xe2, 0xfd, 0xf7, 0x00,
  0xfb, 0xe9, 0xfa, 0xef, 0xf4, 0xfd, 0xfe, 0x01, 0xfa, 0xf3, 0x02, 0xfd,
  0xfb, 0x00, 0x02, 0xfd, 0x04, 0xe2, 0x01, 0x03, 0x03, 0xfa, 0xff, 0x05,
  0x06, 0xfd, 0x05, 0x00, 0xf4, 0x0c, 0x00, 0x05, 0xef, 0xfc, 0xf5, 0xfb,
  0x0c, 0xfc, 0xfd, 0xe8, 0xf5, 0x01, 0x00, 0xfc, 0xff, 0x00, 0xf9, 0xff,
  0xfe, 0xfc, 0xf6, 0x01, 0xe1, 0xfb, 0xfa, 0xf1, 0xfc, 0xf1, 0xfd, 0x04,
  0x0d, 0x00, 0xfc, 0xfa, 0xf9, 0x06, 0xe8, 0xec, 0xf6, 0xff, 0x05, 0xdd,
  0x07, 0xfa, 0xfe, 0x05, 0x00, 0xf9, 0xf5, 0xff, 0xdd, 0xfa, 0xf2, 0x05,
  0xd9, 0x01, 0xfa, 0xff, 0xff, 0x05, 0xd7, 0xfb, 0xfa, 0xfe, 0xfd, 0xf9,
  0xf0, 0xea, 0xec, 0xfe, 0x02, 0xf8, 0x04, 0x01, 0xfb, 0xfa, 0xe1, 0x01,
  0x00, 0x00, 0x03, 0x05, 0x02, 0x09, 0x05, 0x22, 0xfb, 0xf3, 0xf6, 0xf4,
  0xf7, 0x05, 0xf7, 0xfd, 0xfe, 0x08, 0xe7, 0xf8, 0xfb, 0xef, 0x00, 0xff,
  0xf9, 0x0a, 0xf9, 0x03, 0xf1, 0xfe, 0xfd, 0xfc, 0x00, 0xf6, 0x06, 0x05,
  0x11, 0x04, 0xf9, 0x16, 0x05, 0xf7, 0x07, 0xe0, 0x1a, 0x06, 0x0a, 0xff,
  0x03, 0x05, 0xef, 0xfc, 0x03, 0xf8, 0xfd, 0xef, 0xf6, 0xcc, 0xf6, 0x08,
  0x08, 0xe6, 0x09, 0xf4, 0xfd, 0x05, 0xe3, 0xf4, 0x04, 0x0b, 0x00, 0xea,
  0x00, 0xee, 0xdc, 0xf9, 0xf1, 0xfe, 0x00, 0x2d, 0x07, 0xff, 0x17, 0x00,
  0xfb, 0x0d, 0xfe, 0xe1, 0x0b, 0x0b, 0x02, 0xf3, 0x0d, 0xfc, 0x06, 0xef,
  0xfb, 0xfe, 0x01, 0xca, 0xff, 0x06, 0x05, 0x0b, 0xfc, 0xff, 0x00, 0xfb,
  0xf3, 0xfb, 0x05, 0xfb, 0xf8, 0xfb, 0xf9, 0x01, 0x08, 0x10, 0x07, 0xfa,
  0x04, 0x04, 0xf4, 0xf9, 0x04, 0x1c, 0x08, 0xe4, 0x04, 0xf7, 0x12, 0xf4,
  0x02, 0x01, 0xfa, 0xf6, 0xfc, 0xfa, 0xfa, 0xf8, 0x03, 0xff, 0xfe, 0xf8,
  0xfd, 0x00, 0xff, 0x04, 0xfa, 0xfe, 0xf9, 0xfd, 0xf9, 0x04, 0x01, 0xfd,
  0xf8, 0x07, 0x01, 0xf8, 0xf8, 0xff, 0xfd, 0xfc, 0xf8, 0x03, 0xf8, 0xff,
  0xfa, 0xf9, 0x04, 0x00, 0xf7, 0x02, 0xfa, 0xf6, 0xfa, 0xfb, 0xf9, 0x02,
  0xff, 0x02, 0xf8, 0xff, 0xfe, 0xf8, 0x02, 0xf9, 0x00, 0x02, 0xfe, 0xfa,
  0x05, 0xff, 0xfd, 0xff, 0x06, 0xfe, 0x01, 0xf7, 0xfa, 0xf9, 0xfe, 0xff,
  0x00, 0xf9, 0xff, 0x01, 0xfd, 0x02, 0xfe, 0xfc, 0xf7, 0xf7, 0xfb, 0x04,
  0xfd, 0x04, 0x02, 0x03, 0x00, 0x00, 0xff, 0xf9, 0xff, 0x03, 0x02, 0xf7,
  0x00, 0xfc, 0xfb, 0xfa, 0xf9, 0xfc, 0xff, 0xff, 0x00, 0x00, 0xfa, 0x02,
  0x00, 0x02, 0xfa, 0xfa, 0x04, 0xfc, 0xf5, 0xff, 0xff, 0x05, 0xfa, 0x01,
  0x02, 0xfa, 0x01, 0xfd, 0xf7, 0x02, 0x00, 0x01, 0x05, 0xfe, 0x0c, 0xf9,
  0x04, 0xff, 0xff, 0xf4, 0xf6, 0x05, 0x00, 0xe9, 0xf4, 0xfe, 0xfa, 0x0a,
  0x03, 0xfc, 0xfd, 0x07, 0xba, 0xfd, 0xf6, 0xfe, 0xf5, 0x04, 0xf2, 0x08,
  0x0b, 0x2d, 0xf9, 0x09, 0xfd, 0xfe, 0xf5, 0xff, 0xfa, 0xfc, 0xfd, 0xfa,
  0xff, 0x01, 0xf6, 0xe9, 0xfe, 0xe5, 0x02, 0x05, 0x11, 0xfe, 0xd2, 0xf1,
  0x33, 0x07, 0x02, 0xfb, 0xf3, 0x05, 0xf9, 0x00, 0x05, 0xcb, 0xe9, 0xfa,
  0x03, 0x04, 0xee, 0x03, 0xfe, 0x00, 0x0a, 0xe4, 0xfa, 0x01, 0x03, 0x00,
  0x00, 0x07, 0xfc, 0x01, 0x20, 0xfd, 0xfb, 0xf1, 0xf9, 0xfe, 0x01, 0xf9,
  0xfe, 0x12, 0x05, 0xff, 0x06, 0x07, 0xea, 0x2b, 0xf4, 0x18, 0x01, 0xfa,
  0xfd, 0xf4, 0xf7, 0xe9, 0xfe, 0x09, 0xf8, 0xfa, 0xfe, 0xfc, 0xfd, 0x11,
  0xfd, 0xfb, 0xfc, 0xf3, 0x08, 0x05, 0xf8, 0xea, 0xff, 0xfb, 0xfb, 0xff,
  0xef, 0xfa, 0xfe, 0x00, 0x05, 0x06, 0xfd, 0x04, 0xfc, 0x04, 0xfe, 0xfa,
  0x03, 0xfe, 0xf9, 0xf6, 0xe3, 0xfb, 0xf8, 0x02, 0xfb, 0xea, 0xfc, 0xfd,
  0xf9, 0x00, 0xfc, 0x00, 0xfc, 0xf6, 0x03, 0xff, 0x04, 0x0b, 0xfd, 0xfc,
  0x06, 0xe6, 0xff, 0xff, 0xff, 0xfe, 0xfc, 0x00, 0xfa, 0x08, 0xff, 0xfe,
  0xef, 0xfc, 0x02, 0x05, 0xf6, 0x01, 0xf6, 0xf4, 0x09, 0xfc, 0xff, 0xeb,
  0x01, 0x02, 0xff, 0x03, 0xfd, 0x05, 0xfa, 0x03, 0x04, 0xff, 0xf6, 0x02,
  0xed, 0x05, 0xf8, 0xf1, 0xfd, 0xf6, 0xf9, 0x02, 0x08, 0xfe, 0x03, 0xfc,
  0x10, 0x02, 0xf3, 0xf5, 0x02, 0xfc, 0x04, 0xdc, 0xfb, 0xfc, 0xfd, 0xfa,
